{
  "version": "1.0",
  "truncation": null,
  "padding": null,
  "added_tokens": [
    {
      "id": 0,
      "content": "[PAD]",
      "single_word": false,
      "lstrip": false,
      "rstrip": false,
      "normalized": false,
      "special": true
    },
    {
      "id": 1,
      "content": "[UNK]",
      "single_word": false,
      "lstrip": false,
      "rstrip": false,
      "normalized": false,
      "special": true
    },
    {
      "id": 2,
      "content": "[CLS]",
      "single_word": false,
      "lstrip": false,
      "rstrip": false,
      "normalized": false,
      "special": true
    },
    {
      "id": 3,
      "content": "[SEP]",
      "single_word": false,
      "lstrip": false,
      "rstrip": false,
      "normalized": false,
      "special": true
    },
    {
      "id": 4,
      "content": "[MASK]",
      "single_word": false,
      "lstrip": false,
      "rstrip": false,
      "normalized": false,
      "special": true
    }
  ],
  "normalizer": {
    "type": "BertNormalizer",
    "clean_text": true,
    "handle_chinese_chars": true,
    "strip_accents": null,
    "lowercase": true
  },
  "pre_tokenizer": {
    "type": "BertPreTokenizer"
  },
  "post_processor": null,
  "decoder": {
    "type": "WordPiece",
    "prefix": "##",
    "cleanup": true
  },
  "model": {
    "type": "WordPiece",
    "unk_token": "[UNK]",
    "continuing_subword_prefix": "##",
    "max_input_chars_per_word": 100,
    "vocab": {
      "[PAD]": 0,
      "[UNK]": 1,
      "[CLS]": 2,
      "[SEP]": 3,
      "[MASK]": 4,
      "!": 5,
      "\"": 6,
      "#": 7,
      "$": 8,
      "%": 9,
      "&": 10,
      "'": 11,
      "(": 12,
      ")": 13,
      "*": 14,
      "+": 15,
      ",": 16,
      "-": 17,
      ".": 18,
      "/": 19,
      "0": 20,
      "1": 21,
      "2": 22,
      "3": 23,
      "4": 24,
      "5": 25,
      "6": 26,
      "7": 27,
      "8": 28,
      "9": 29,
      ":": 30,
      ";": 31,
      "<": 32,
      "=": 33,
      ">": 34,
      "?": 35,
      "@": 36,
      "[": 37,
      "]": 38,
      "^": 39,
      "_": 40,
      "a": 41,
      "b": 42,
      "c": 43,
      "d": 44,
      "e": 45,
      "f": 46,
      "g": 47,
      "h": 48,
      "i": 49,
      "j": 50,
      "k": 51,
      "l": 52,
      "m": 53,
      "n": 54,
      "o": 55,
      "p": 56,
      "q": 57,
      "r": 58,
      "s": 59,
      "t": 60,
      "u": 61,
      "v": 62,
      "w": 63,
      "x": 64,
      "y": 65,
      "z": 66,
      "{": 67,
      "|": 68,
      "}": 69,
      "~": 70,
      "ɛ": 71,
      "##c": 72,
      "##a": 73,
      "##l": 74,
      "##p": 75,
      "##i": 76,
      "##n": 77,
      "##d": 78,
      "##b": 79,
      "##4": 80,
      "##r": 81,
      "##g": 82,
      "##u": 83,
      "##m": 84,
      "##e": 85,
      "##t": 86,
      "##o": 87,
      "##k": 88,
      "##f": 89,
      "##0": 90,
      "##s": 91,
      "##h": 92,
      "##y": 93,
      "##w": 94,
      "##3": 95,
      "##z": 96,
      "##9": 97,
      "##2": 98,
      "##8": 99,
      "##5": 100,
      "##v": 101,
      "##x": 102,
      "##1": 103,
      "##6": 104,
      "##j": 105,
      "##7": 106,
      "##q": 107,
      "##ɛ": 108,
      "th": 109,
      "the": 110,
      "##ou": 111,
      "##er": 112,
      "##in": 113,
      "##nd": 114,
      "##or": 115,
      "##at": 116,
      "to": 117,
      "##es": 118,
      "##on": 119,
      "you": 120,
      "##ed": 121,
      "of": 122,
      "##en": 123,
      "##an": 124,
      "##ing": 125,
      "##ar": 126,
      "and": 127,
      "##ll": 128,
      "##is": 129,
      "##re": 130,
      "##th": 131,
      "in": 132,
      "##om": 133,
      "wh": 134,
      "##as": 135,
      "is": 136,
      "be": 137,
      "##ow": 138,
      "##ve": 139,
      "he": 140,
      "wi": 141,
      "##le": 142,
      "no": 143,
      "##ay": 144,
      "go": 145,
      "me": 146,
      "it": 147,
      "for": 148,
      "ha": 149,
      "##it": 150,
      "##id": 151,
      "on": 152,
      "##us": 153,
      "re": 154,
      "##ld": 155,
      "##am": 156,
      "that": 157,
      "##ut": 158,
      "##im": 159,
      "we": 160,
      "##et": 161,
      "##ic": 162,
      "##ion": 163,
      "##al": 164,
      "not": 165,
      "do": 166,
      "##se": 167,
      "##gh": 168,
      "##ac": 169,
      "so": 170,
      "are": 171,
      "##ur": 172,
      "##ent": 173,
      "sh": 174,
      "my": 175,
      "##ver": 176,
      "as": 177,
      "an": 178,
      "##ir": 179,
      "li": 180,
      "was": 181,
      "##ad": 182,
      "will": 183,
      "##ly": 184,
      "with": 185,
      "have": 186,
      "st": 187,
      "se": 188,
      "god": 189,
      "what": 190,
      "##ke": 191,
      "wor": 192,
      "ne": 193,
      "fr": 194,
      "your": 195,
      "pr": 196,
      "##ome": 197,
      "ch": 198,
      "##ere": 199,
      "ab": 200,
      "##oo": 201,
      "sa": 202,
      "##ght": 203,
      "this": 204,
      "##op": 205,
      "they": 206,
      "##ther": 207,
      "who": 208,
      "de": 209,
      "##st": 210,
      "his": 211,
      "##ant": 212,
      "##ess": 213,
      "##ch": 214,
      "##out": 215,
      "him": 216,
      "##all": 217,
      "kn": 218,
      "all": 219,
      "##ter": 220,
      "##ce": 221,
      "from": 222,
      "##el": 223,
      "but": 224,
      "at": 225,
      "##ain": 226,
      "##il": 227,
      "there": 228,
      "lo": 229,
      "know": 230,
      "##est": 231,
      "##ie": 232,
      "about": 233,
      "##ore": 234,
      "don": 235,
      "##ear": 236,
      "tr": 237,
      "##ation": 238,
      "##ord": 239,
      "##ct": 240,
      "##ame": 241,
      "##ul": 242,
      "##od": 243,
      "##ge": 244,
      "##fe": 245,
      "##ath": 246,
      "##and": 247,
      "said": 248,
      "man": 249,
      "al": 250,
      "can": 251,
      "##ist": 252,
      "one": 253,
      "##ight": 254,
      "how": 255,
      "##ven": 256,
      "them": 257,
      "##ra": 258,
      "by": 259,
      "te": 260,
      "##ers": 261,
      "pe": 262,
      "##ould": 263,
      "##pp": 264,
      "or": 265,
      "su": 266,
      "##ake": 267,
      "up": 268,
      "sp": 269,
      "us": 270,
      "mo": 271,
      "##esus": 272,
      "want": 273,
      "lord": 274,
      "jesus": 275,
      "am": 276,
      "com": 277,
      "##ri": 278,
      "has": 279,
      "##ab": 280,
      "con": 281,
      "##ust": 282,
      "peop": 283,
      "people": 284,
      "##ro": 285,
      "when": 286,
      "##one": 287,
      "tim": 288,
      "##ive": 289,
      "say": 290,
      "##ah": 291,
      "day": 292,
      "jo": 293,
      "if": 294,
      "##art": 295,
      "##ard": 296,
      "##ook": 297,
      "ag": 298,
      "out": 299,
      "did": 300,
      "now": 301,
      "were": 302,
      "##ong": 303,
      "##um": 304,
      "##ak": 305,
      "20": 306,
      "un": 307,
      "year": 308,
      "ex": 309,
      "##ind": 310,
      "see": 311,
      "##ot": 312,
      "work": 313,
      "than": 314,
      "##ill": 315,
      "##ate": 316,
      "ever": 317,
      "##if": 318,
      "more": 319,
      "##un": 320,
      "##ity": 321,
      "here": 322,
      "get": 323,
      "fe": 324,
      "had": 325,
      "##ings": 326,
      "##pt": 327,
      "she": 328,
      "some": 329,
      "##ig": 330,
      "new": 331,
      "life": 332,
      "their": 333,
      "##ach": 334,
      "time": 335,
      "love": 336,
      "ar": 337,
      "##ather": 338,
      "been": 339,
      "##ib": 340,
      "en": 341,
      "bec": 342,
      "##ild": 343,
      "##so": 344,
      "ask": 345,
      "##our": 346,
      "mar": 347,
      "then": 348,
      "le": 349,
      "like": 350,
      "good": 351,
      "##ous": 352,
      "let": 353,
      "our": 354,
      "##reat": 355,
      "##ep": 356,
      "##ved": 357,
      "again": 358,
      "##ol": 359,
      "##ish": 360,
      "##ans": 361,
      "##os": 362,
      "##ip": 363,
      "##ud": 364,
      "##ose": 365,
      "##ast": 366,
      "bl": 367,
      "her": 368,
      "##ace": 369,
      "##ree": 370,
      "##ry": 371,
      "pl": 372,
      "why": 373,
      "ad": 374,
      "##to": 375,
      "need": 376,
      "come": 377,
      "other": 378,
      "af": 379,
      "any": 380,
      "son": 381,
      "##ack": 382,
      "##ies": 383,
      "also": 384,
      "child": 385,
      "##ves": 386,
      "##ort": 387,
      "every": 388,
      "world": 389,
      "##ck": 390,
      "##ue": 391,
      "##ice": 392,
      "father": 393,
      "would": 394,
      "##ich": 395,
      "##ine": 396,
      "tw": 397,
      "br": 398,
      "does": 399,
      "tell": 400,
      "##sel": 401,
      "wom": 402,
      "pro": 403,
      "##use": 404,
      "name": 405,
      "##thing": 406,
      "##ound": 407,
      "##ment": 408,
      "gr": 409,
      "king": 410,
      "bel": 411,
      "##ap": 412,
      "##ink": 413,
      "word": 414,
      "co": 415,
      "##way": 416,
      "##are": 417,
      "la": 418,
      "dis": 419,
      "##fore": 420,
      "home": 421,
      "##ase": 422,
      "chr": 423,
      "##own": 424,
      "##age": 425,
      "##ving": 426,
      "years": 427,
      "ear": 428,
      "##les": 429,
      "##em": 430,
      "take": 431,
      "##ause": 432,
      "way": 433,
      "##ag": 434,
      "##ide": 435,
      "##ren": 436,
      "##ure": 437,
      "right": 438,
      "##itt": 439,
      "look": 440,
      "##ough": 441,
      "cl": 442,
      "res": 443,
      "give": 444,
      "##ber": 445,
      "make": 446,
      "##ness": 447,
      "##ible": 448,
      "ve": 449,
      "christ": 450,
      "hel": 451,
      "##cc": 452,
      "##nder": 453,
      "##oun": 454,
      "just": 455,
      "qu": 456,
      "going": 457,
      "great": 458,
      "##ai": 459,
      "##orn": 460,
      "help": 461,
      "##ied": 462,
      "ver": 463,
      "too": 464,
      "may": 465,
      "##mp": 466,
      "because": 467,
      "shall": 468,
      "ser": 469,
      "10": 470,
      "ph": 471,
      "into": 472,
      "well": 473,
      "19": 474,
      "where": 475,
      "many": 476,
      "##ood": 477,
      "happ": 478,
      "call": 479,
      "even": 480,
      "##ise": 481,
      "##ions": 482,
      "##ally": 483,
      "##ew": 484,
      "##ect": 485,
      "##ph": 486,
      "which": 487,
      "##ade": 488,
      "things": 489,
      "##fer": 490,
      "bo": 491,
      "##hn": 492,
      "fam": 493,
      "##urn": 494,
      "yes": 495,
      "these": 496,
      "bro": 497,
      "##ever": 498,
      "john": 499,
      "##ily": 500,
      "belie": 501,
      "##wn": 502,
      "##ia": 503,
      "those": 504,
      "##ave": 505,
      "##self": 506,
      "far": 507,
      "##ite": 508,
      "children": 509,
      "da": 510,
      "##ence": 511,
      "wr": 512,
      "##ouse": 513,
      "ho": 514,
      "##hh": 515,
      "##iz": 516,
      "over": 517,
      "##ount": 518,
      "earth": 519,
      "very": 520,
      "sin": 521,
      "##ang": 522,
      "spe": 523,
      "comm": 524,
      "hand": 525,
      "201": 526,
      "ll": 527,
      "##ful": 528,
      "two": 529,
      "wat": 530,
      "##uth": 531,
      "should": 532,
      "isra": 533,
      "per": 534,
      "sc": 535,
      "israel": 536,
      "##ick": 537,
      "men": 538,
      "bible": 539,
      "pre": 540,
      "mother": 541,
      "house": 542,
      "only": 543,
      "woman": 544,
      "##ated": 545,
      "ke": 546,
      "ple": 547,
      "##ory": 548,
      "down": 549,
      "##able": 550,
      "back": 551,
      "fir": 552,
      "brother": 553,
      "think": 554,
      "hea": 555,
      "rem": 556,
      "law": 557,
      "ro": 558,
      "fo": 559,
      "made": 560,
      "##we": 561,
      "##sh": 562,
      "came": 563,
      "after": 564,
      "##sw": 565,
      "##orm": 566,
      "heart": 567,
      "##qu": 568,
      "away": 569,
      "##day": 570,
      "##ance": 571,
      "##vid": 572,
      "family": 573,
      "heaven": 574,
      "cont": 575,
      "##ses": 576,
      "read": 577,
      "##dom": 578,
      "long": 579,
      "never": 580,
      "show": 581,
      "##alk": 582,
      "answ": 583,
      "##ught": 584,
      "11": 585,
      "12": 586,
      "first": 587,
      "thank": 588,
      "dr": 589,
      "says": 590,
      "thr": 591,
      "ang": 592,
      "acc": 593,
      "##ary": 594,
      "po": 595,
      "under": 596,
      "##ire": 597,
      "par": 598,
      "gi": 599,
      "list": 600,
      "##og": 601,
      "app": 602,
      "##iend": 603,
      "asked": 604,
      "disc": 605,
      "##llow": 606,
      "before": 607,
      "book": 608,
      "spir": 609,
      "spirit": 610,
      "15": 611,
      "##ile": 612,
      "old": 613,
      "lear": 614,
      "##te": 615,
      "exp": 616,
      "comp": 617,
      "mu": 618,
      "mat": 619,
      "learn": 620,
      "car": 621,
      "##ho": 622,
      "##act": 623,
      "same": 624,
      "got": 625,
      "bet": 626,
      "pray": 627,
      "des": 628,
      "14": 629,
      "friend": 630,
      "off": 631,
      "##ents": 632,
      "##ass": 633,
      "##ult": 634,
      "death": 635,
      "own": 636,
      "part": 637,
      "##ci": 638,
      "##ian": 639,
      "inf": 640,
      "##ek": 641,
      "answer": 642,
      "rep": 643,
      "war": 644,
      "prop": 645,
      "live": 646,
      "13": 647,
      "##ittle": 648,
      "##ried": 649,
      "##ign": 650,
      "little": 651,
      "el": 652,
      "bu": 653,
      "##be": 654,
      "##ought": 655,
      "city": 656,
      "##aith": 657,
      "hear": 658,
      "ey": 659,
      "18": 660,
      "much": 661,
      "faith": 662,
      "##ower": 663,
      "please": 664,
      "gl": 665,
      "wife": 666,
      "##ool": 667,
      "truth": 668,
      "days": 669,
      "end": 670,
      "##ty": 671,
      "follow": 672,
      "went": 673,
      "jud": 674,
      "three": 675,
      "could": 676,
      "rel": 677,
      "##igh": 678,
      "imp": 679,
      "sm": 680,
      "didn": 681,
      "##ason": 682,
      "fl": 683,
      "##lem": 684,
      "##mm": 685,
      "##amp": 686,
      "##ations": 687,
      "keep": 688,
      "believe": 689,
      "teach": 690,
      "##ft": 691,
      "17": 692,
      "cr": 693,
      "##iv": 694,
      "##ail": 695,
      "##int": 696,
      "feel": 697,
      "moses": 698,
      "listen": 699,
      "##other": 700,
      "##ians": 701,
      "pa": 702,
      "heard": 703,
      "today": 704,
      "ye": 705,
      "eat": 706,
      "act": 707,
      "night": 708,
      "find": 709,
      "care": 710,
      "oh": 711,
      "dec": 712,
      "##ody": 713,
      "angel": 714,
      "##iss": 715,
      "##ict": 716,
      "quest": 717,
      "je": 718,
      "inter": 719,
      "kingdom": 720,
      "##vil": 721,
      "born": 722,
      "put": 723,
      "16": 724,
      "##led": 725,
      "##ond": 726,
      "##oney": 727,
      "against": 728,
      "##ning": 729,
      "beg": 730,
      "dead": 731,
      "done": 732,
      "pers": 733,
      "week": 734,
      "##ope": 735,
      "lot": 736,
      "proph": 737,
      "therefore": 738,
      "through": 739,
      "hum": 740,
      "called": 741,
      "resp": 742,
      "mean": 743,
      "land": 744,
      "happen": 745,
      "##rew": 746,
      "words": 747,
      "must": 748,
      "lu": 749,
      "another": 750,
      "##00": 751,
      "speak": 752,
      "power": 753,
      "use": 754,
      "dif": 755,
      "##ss": 756,
      "place": 757,
      "op": 758,
      "bless": 759,
      "##xt": 760,
      "mon": 761,
      "##ates": 762,
      "##irl": 763,
      "fu": 764,
      "each": 765,
      "##ious": 766,
      "gu": 767,
      "##ng": 768,
      "inform": 769,
      "ap": 770,
      "bab": 771,
      "str": 772,
      "##ub": 773,
      "discip": 774,
      "kill": 775,
      "won": 776,
      "##ying": 777,
      "water": 778,
      "women": 779,
      "girl": 780,
      "sou": 781,
      "eas": 782,
      "sl": 783,
      "money": 784,
      "such": 785,
      "ind": 786,
      "##ction": 787,
      "forg": 788,
      "ed": 789,
      "##ham": 790,
      "gen": 791,
      "mom": 792,
      "sent": 793,
      "##bs": 794,
      "free": 795,
      "isn": 796,
      "still": 797,
      "##als": 798,
      "sec": 799,
      "yet": 800,
      "light": 801,
      "bre": 802,
      "##ons": 803,
      "information": 804,
      "24": 805,
      "being": 806,
      "told": 807,
      "paul": 808,
      "##ward": 809,
      "##eter": 810,
      "found": 811,
      "true": 812,
      "reg": 813,
      "serv": 814,
      "daught": 815,
      "##ised": 816,
      "##gy": 817,
      "add": 818,
      "saw": 819,
      "others": 820,
      "given": 821,
      "ret": 822,
      "times": 823,
      "heal": 824,
      "##na": 825,
      "baby": 826,
      "person": 827,
      "##ited": 828,
      "high": 829,
      "##oice": 830,
      "##ites": 831,
      "sat": 832,
      "count": 833,
      "talk": 834,
      "set": 835,
      "rec": 836,
      "##az": 837,
      "best": 838,
      "most": 839,
      "21": 840,
      "##ures": 841,
      "##row": 842,
      "##iver": 843,
      "few": 844,
      "##ting": 845,
      "saying": 846,
      "david": 847,
      "doesn": 848,
      "##ship": 849,
      "##ames": 850,
      "died": 851,
      "##ress": 852,
      "holy": 853,
      "happy": 854,
      "##ition": 855,
      "sw": 856,
      "seen": 857,
      "##akes": 858,
      "sch": 859,
      "jer": 860,
      "underst": 861,
      "att": 862,
      "command": 863,
      "peace": 864,
      "die": 865,
      "young": 866,
      "disciples": 867,
      "min": 868,
      "brothers": 869,
      "cons": 870,
      "start": 871,
      "its": 872,
      "sing": 873,
      "prophet": 874,
      "num": 875,
      "ca": 876,
      "##der": 877,
      "##fect": 878,
      "22": 879,
      "##ff": 880,
      "##br": 881,
      "##lish": 882,
      "bring": 883,
      "##urch": 884,
      "eyes": 885,
      "##oss": 886,
      "something": 887,
      "married": 888,
      "four": 889,
      "next": 890,
      "##cy": 891,
      "really": 892,
      "meet": 893,
      "unt": 894,
      "gave": 895,
      "pres": 896,
      "jeho": 897,
      "turn": 898,
      "seven": 899,
      "mem": 900,
      "##ways": 901,
      "200": 902,
      "wa": 903,
      "##ember": 904,
      "understand": 905,
      "differ": 906,
      "sur": 907,
      "fear": 908,
      "open": 909,
      "rece": 910,
      "art": 911,
      "however": 912,
      "##vah": 913,
      "tom": 914,
      "##leep": 915,
      "bir": 916,
      "without": 917,
      "food": 918,
      "always": 919,
      "jehovah": 920,
      "inc": 921,
      "wo": 922,
      "return": 923,
      "yourself": 924,
      "prom": 925,
      "##alm": 926,
      "##ove": 927,
      "play": 928,
      "##red": 929,
      "cour": 930,
      "fun": 931,
      "jew": 932,
      "##ert": 933,
      "##ants": 934,
      "##ob": 935,
      "25": 936,
      "wit": 937,
      "##vel": 938,
      "friends": 939,
      "able": 940,
      "##ors": 941,
      "better": 942,
      "##ister": 943,
      "##gypt": 944,
      "peter": 945,
      "egypt": 946,
      "answered": 947,
      "mus": 948,
      "near": 949,
      "everything": 950,
      "until": 951,
      "##ual": 952,
      "might": 953,
      "coming": 954,
      "become": 955,
      "30": 956,
      "bea": 957,
      "sim": 958,
      "month": 959,
      "hour": 960,
      "sea": 961,
      "##ug": 962,
      "##ost": 963,
      "ah": 964,
      "##sp": 965,
      "head": 966,
      "last": 967,
      "matth": 968,
      "church": 969,
      "accord": 970,
      "stay": 971,
      "watch": 972,
      "matthew": 973,
      "##lf": 974,
      "##ne": 975,
      "stud": 976,
      "mind": 977,
      "stand": 978,
      "kind": 979,
      "unto": 980,
      "cor": 981,
      "supp": 982,
      "beaut": 983,
      "everyone": 984,
      "##selves": 985,
      "mess": 986,
      "living": 987,
      "##usa": 988,
      "lead": 989,
      "hard": 990,
      "walk": 991,
      "sy": 992,
      "ps": 993,
      "himself": 994,
      "##raham": 995,
      "test": 996,
      "thing": 997,
      "##ned": 998,
      "having": 999,
      "real": 1000,
      "job": 1001,
      "left": 1002,
      "23": 1003,
      "mr": 1004,
      "##usalem": 1005,
      "jerusalem": 1006,
      "##eous": 1007,
      "##uc": 1008,
      "body": 1009,
      "##ized": 1010,
      "##oh": 1011,
      "##ream": 1012,
      "creat": 1013,
      "##aking": 1014,
      "doing": 1015,
      "##ange": 1016,
      "##raid": 1017,
      "school": 1018,
      "lang": 1019,
      "##man": 1020,
      "##orrow": 1021,
      "number": 1022,
      "sam": 1023,
      "daughter": 1024,
      "hope": 1025,
      "above": 1026,
      "according": 1027,
      "ba": 1028,
      "afraid": 1029,
      "abraham": 1030,
      "langu": 1031,
      "big": 1032,
      "ass": 1033,
      "##ix": 1034,
      "remember": 1035,
      "phar": 1036,
      "spo": 1037,
      "win": 1038,
      "med": 1039,
      "##gether": 1040,
      "yeah": 1041,
      "fin": 1042,
      "ac": 1043,
      "witness": 1044,
      "ra": 1045,
      "28": 1046,
      "sk": 1047,
      "examp": 1048,
      "around": 1049,
      "while": 1050,
      "aw": 1051,
      "face": 1052,
      "looking": 1053,
      "##iful": 1054,
      "drink": 1055,
      "##ating": 1056,
      "together": 1057,
      "##iew": 1058,
      "jose": 1059,
      "news": 1060,
      "id": 1061,
      "##ark": 1062,
      "ob": 1063,
      "dest": 1064,
      "mark": 1065,
      "cle": 1066,
      "among": 1067,
      "##ens": 1068,
      "##ial": 1069,
      "upon": 1070,
      "##ased": 1071,
      "comes": 1072,
      "sons": 1073,
      "different": 1074,
      "dep": 1075,
      "human": 1076,
      "parents": 1077,
      "##oy": 1078,
      "hot": 1079,
      "vis": 1080,
      "##ical": 1081,
      "inst": 1082,
      "close": 1083,
      "mary": 1084,
      "angels": 1085,
      "eng": 1086,
      "works": 1087,
      "nor": 1088,
      "dem": 1089,
      "took": 1090,
      "lat": 1091,
      "pass": 1092,
      "##ities": 1093,
      "##ces": 1094,
      "##hhhh": 1095,
      "joseph": 1096,
      "inv": 1097,
      "char": 1098,
      "##ments": 1099,
      "##ired": 1100,
      "contin": 1101,
      "##ject": 1102,
      "question": 1103,
      "righteous": 1104,
      "fut": 1105,
      "rest": 1106,
      "trust": 1107,
      "reason": 1108,
      "##cept": 1109,
      "ref": 1110,
      "trans": 1111,
      "fall": 1112,
      "hu": 1113,
      "##ny": 1114,
      "easy": 1115,
      "once": 1116,
      "##cer": 1117,
      "story": 1118,
      "bad": 1119,
      "fire": 1120,
      "though": 1121,
      "del": 1122,
      "##ric": 1123,
      "blood": 1124,
      "run": 1125,
      "wonder": 1126,
      "future": 1127,
      "##ock": 1128,
      "conf": 1129,
      "sleep": 1130,
      "##ys": 1131,
      "sun": 1132,
      "mount": 1133,
      "example": 1134,
      "bit": 1135,
      "anything": 1136,
      "##thy": 1137,
      "wait": 1138,
      "order": 1139,
      "nothing": 1140,
      "hold": 1141,
      "temp": 1142,
      "known": 1143,
      "26": 1144,
      "hus": 1145,
      "beautiful": 1146,
      "##ble": 1147,
      "ta": 1148,
      "##ash": 1149,
      "ev": 1150,
      "im": 1151,
      "import": 1152,
      "miss": 1153,
      "forever": 1154,
      "evil": 1155,
      "##iest": 1156,
      "cent": 1157,
      "hands": 1158,
      "##read": 1159,
      "##uly": 1160,
      "anyone": 1161,
      "brought": 1162,
      "##oup": 1163,
      "second": 1164,
      "##ages": 1165,
      "##ript": 1166,
      "##ced": 1167,
      "begin": 1168,
      "##ts": 1169,
      "thought": 1170,
      "##up": 1171,
      "##iah": 1172,
      "##io": 1173,
      "prob": 1174,
      "##band": 1175,
      "sal": 1176,
      "voice": 1177,
      "##aster": 1178,
      "poss": 1179,
      "##its": 1180,
      "##ared": 1181,
      "sure": 1182,
      "##ma": 1183,
      "##ms": 1184,
      "ter": 1185,
      "##itten": 1186,
      "someone": 1187,
      "##ience": 1188,
      "sign": 1189,
      "devil": 1190,
      "satan": 1191,
      "husband": 1192,
      "##ten": 1193,
      "##ode": 1194,
      "stop": 1195,
      "psalm": 1196,
      "ben": 1197,
      "adam": 1198,
      "ma": 1199,
      "thous": 1200,
      "thousand": 1201,
      "vide": 1202,
      "##ize": 1203,
      "##ank": 1204,
      "grow": 1205,
      "em": 1206,
      "hey": 1207,
      "wind": 1208,
      "##cial": 1209,
      "##lly": 1210,
      "sister": 1211,
      "tomorrow": 1212,
      "thanks": 1213,
      "##av": 1214,
      "##ween": 1215,
      "##ru": 1216,
      "##ison": 1217,
      "music": 1218,
      "leave": 1219,
      "phot": 1220,
      "har": 1221,
      "sub": 1222,
      "hon": 1223,
      "bapt": 1224,
      "written": 1225,
      "working": 1226,
      "##lc": 1227,
      "between": 1228,
      "thir": 1229,
      "##iness": 1230,
      "cann": 1231,
      "questions": 1232,
      "sol": 1233,
      "##ier": 1234,
      "##ains": 1235,
      "##ead": 1236,
      "##ted": 1237,
      "##ute": 1238,
      "bus": 1239,
      "##my": 1240,
      "##ner": 1241,
      "kid": 1242,
      "cry": 1243,
      "##wh": 1244,
      "dan": 1245,
      "welc": 1246,
      "##ork": 1247,
      "40": 1248,
      "##lic": 1249,
      "loved": 1250,
      "##ained": 1251,
      "alone": 1252,
      "##ffer": 1253,
      "soul": 1254,
      "means": 1255,
      "nation": 1256,
      "pur": 1257,
      "##aken": 1258,
      "jews": 1259,
      "luke": 1260,
      "dream": 1261,
      "case": 1262,
      "mer": 1263,
      "blessed": 1264,
      "fact": 1265,
      "gif": 1266,
      "##ived": 1267,
      "morn": 1268,
      "saved": 1269,
      "rom": 1270,
      "since": 1271,
      "##ility": 1272,
      "change": 1273,
      "##reet": 1274,
      "season": 1275,
      "dra": 1276,
      "whom": 1277,
      "wanted": 1278,
      "##ken": 1279,
      "enter": 1280,
      "temple": 1281,
      "##ient": 1282,
      "soon": 1283,
      "ce": 1284,
      "suffer": 1285,
      "important": 1286,
      "self": 1287,
      "##cess": 1288,
      "morning": 1289,
      "destro": 1290,
      "ones": 1291,
      "wants": 1292,
      "pay": 1293,
      "29": 1294,
      "age": 1295,
      "step": 1296,
      "state": 1297,
      "##ged": 1298,
      "language": 1299,
      "##land": 1300,
      "birth": 1301,
      "##son": 1302,
      "phil": 1303,
      "country": 1304,
      "send": 1305,
      "es": 1306,
      "pol": 1307,
      "gener": 1308,
      "priest": 1309,
      "whole": 1310,
      "red": 1311,
      "save": 1312,
      "pat": 1313,
      "##oud": 1314,
      "27": 1315,
      "both": 1316,
      "swe": 1317,
      "full": 1318,
      "##uring": 1319,
      "beh": 1320,
      "##fic": 1321,
      "32": 1322,
      "cannot": 1323,
      "wrong": 1324,
      "##tern": 1325,
      "try": 1326,
      "31": 1327,
      "##ret": 1328,
      "glory": 1329,
      "##ief": 1330,
      "worship": 1331,
      "build": 1332,
      "pra": 1333,
      "##yp": 1334,
      "enough": 1335,
      "song": 1336,
      "bar": 1337,
      "used": 1338,
      "happened": 1339,
      "pub": 1340,
      "ele": 1341,
      "phara": 1342,
      "##ues": 1343,
      "##hold": 1344,
      "sex": 1345,
      "##att": 1346,
      "lives": 1347,
      "video": 1348,
      "problem": 1349,
      "ins": 1350,
      "intern": 1351,
      "cur": 1352,
      "five": 1353,
      "point": 1354,
      "james": 1355,
      "later": 1356,
      "tree": 1357,
      "pharaoh": 1358,
      "hate": 1359,
      "jac": 1360,
      "destroy": 1361,
      "knows": 1362,
      "town": 1363,
      "##oura": 1364,
      "##ines": 1365,
      "adv": 1366,
      "eye": 1367,
      "##ows": 1368,
      "longer": 1369,
      "di": 1370,
      "became": 1371,
      "nations": 1372,
      "##ually": 1373,
      "hell": 1374,
      "repl": 1375,
      "pain": 1376,
      "dark": 1377,
      "prot": 1378,
      "##cked": 1379,
      "script": 1380,
      "ago": 1381,
      "relig": 1382,
      "##cl": 1383,
      "##ention": 1384,
      "che": 1385,
      "sn": 1386,
      "##ately": 1387,
      "marri": 1388,
      "##ledge": 1389,
      "lost": 1390,
      "expl": 1391,
      "less": 1392,
      "view": 1393,
      "sil": 1394,
      "##ision": 1395,
      "##per": 1396,
      "chap": 1397,
      "dist": 1398,
      "knew": 1399,
      "concer": 1400,
      "jacob": 1401,
      "##ider": 1402,
      "mid": 1403,
      "ann": 1404,
      "apost": 1405,
      "dog": 1406,
      "star": 1407,
      "prayer": 1408,
      "col": 1409,
      "##ude": 1410,
      "coll": 1411,
      "ten": 1412,
      "serve": 1413,
      "auth": 1414,
      "##vers": 1415,
      "wasn": 1416,
      "##den": 1417,
      "burn": 1418,
      "##oc": 1419,
      "truly": 1420,
      "post": 1421,
      "master": 1422,
      "regard": 1423,
      "joy": 1424,
      "##bb": 1425,
      "chang": 1426,
      "av": 1427,
      "wish": 1428,
      "##body": 1429,
      "lar": 1430,
      "dad": 1431,
      "fight": 1432,
      "##used": 1433,
      "##less": 1434,
      "offer": 1435,
      "knowledge": 1436,
      "##ross": 1437,
      "chapter": 1438,
      "##ger": 1439,
      "killed": 1440,
      "requ": 1441,
      "mill": 1442,
      "aren": 1443,
      "33": 1444,
      "grand": 1445,
      "##ified": 1446,
      "pict": 1447,
      "worry": 1448,
      "##ipp": 1449,
      "##ital": 1450,
      "##rib": 1451,
      "trying": 1452,
      "small": 1453,
      "##ont": 1454,
      "##ime": 1455,
      "room": 1456,
      "boy": 1457,
      "##tend": 1458,
      "side": 1459,
      "seek": 1460,
      "lived": 1461,
      "health": 1462,
      "cap": 1463,
      "##oooo": 1464,
      "welcome": 1465,
      "heb": 1466,
      "##end": 1467,
      "hur": 1468,
      "provid": 1469,
      "hund": 1470,
      "sins": 1471,
      "hundred": 1472,
      "thee": 1473,
      "form": 1474,
      "gover": 1475,
      "taken": 1476,
      "##uss": 1477,
      "makes": 1478,
      "##olog": 1479,
      "##air": 1480,
      "getting": 1481,
      "sac": 1482,
      "##gr": 1483,
      "christian": 1484,
      "ent": 1485,
      "beginning": 1486,
      "000": 1487,
      "write": 1488,
      "whe": 1489,
      "##iel": 1490,
      "marriage": 1491,
      "sit": 1492,
      "##ling": 1493,
      "author": 1494,
      "support": 1495,
      "##arch": 1496,
      "cert": 1497,
      "nat": 1498,
      "myself": 1499,
      "witnesses": 1500,
      "##ries": 1501,
      "ep": 1502,
      "gift": 1503,
      "##ds": 1504,
      "preach": 1505,
      "rich": 1506,
      "amaz": 1507,
      "judg": 1508,
      "sick": 1509,
      "##gth": 1510,
      "wis": 1511,
      "appear": 1512,
      "##ises": 1513,
      "matter": 1514,
      "top": 1515,
      "##pr": 1516,
      "ste": 1517,
      "south": 1518,
      "##ished": 1519,
      "##ident": 1520,
      "bur": 1521,
      "sor": 1522,
      "##aim": 1523,
      "cre": 1524,
      "dece": 1525,
      "began": 1526,
      "prison": 1527,
      "wash": 1528,
      "hun": 1529,
      "gold": 1530,
      "cond": 1531,
      "##bers": 1532,
      "tells": 1533,
      "##ense": 1534,
      "prophets": 1535,
      "course": 1536,
      "##iet": 1537,
      "sheep": 1538,
      "enem": 1539,
      "##ific": 1540,
      "tit": 1541,
      "believed": 1542,
      "feet": 1543,
      "opp": 1544,
      "judge": 1545,
      "six": 1546,
      "consider": 1547,
      "##ield": 1548,
      "val": 1549,
      "tre": 1550,
      "buy": 1551,
      "##oot": 1552,
      "hebrew": 1553,
      "ways": 1554,
      "prod": 1555,
      "deal": 1556,
      "result": 1557,
      "def": 1558,
      "##ested": 1559,
      "perfect": 1560,
      "imm": 1561,
      "##ently": 1562,
      "started": 1563,
      "else": 1564,
      "anim": 1565,
      "##aiah": 1566,
      "english": 1567,
      "white": 1568,
      "##ony": 1569,
      "bed": 1570,
      "##uel": 1571,
      "wisdom": 1572,
      "rele": 1573,
      "protect": 1574,
      "hist": 1575,
      "##ither": 1576,
      "strong": 1577,
      "wouldn": 1578,
      "during": 1579,
      "##ives": 1580,
      "commun": 1581,
      "thou": 1582,
      "##oint": 1583,
      "loc": 1584,
      "sold": 1585,
      "##ics": 1586,
      "months": 1587,
      "##fort": 1588,
      "plan": 1589,
      "kids": 1590,
      "eli": 1591,
      "govern": 1592,
      "united": 1593,
      "##ouch": 1594,
      "exper": 1595,
      "certain": 1596,
      "##ued": 1597,
      "sound": 1598,
      "35": 1599,
      "ok": 1600,
      "##ee": 1601,
      "##ular": 1602,
      "##illed": 1603,
      "following": 1604,
      "fish": 1605,
      "cat": 1606,
      "ill": 1607,
      "trib": 1608,
      "resur": 1609,
      "prep": 1610,
      "gone": 1611,
      "##amed": 1612,
      "choo": 1613,
      "##gn": 1614,
      "sorry": 1615,
      "##raph": 1616,
      "##lder": 1617,
      "weeks": 1618,
      "##ior": 1619,
      "enc": 1620,
      "34": 1621,
      "lam": 1622,
      "spoke": 1623,
      "fru": 1624,
      "forget": 1625,
      "##ina": 1626,
      "mil": 1627,
      "resurre": 1628,
      "##by": 1629,
      "belong": 1630,
      "##osed": 1631,
      "##ready": 1632,
      "##more": 1633,
      "simp": 1634,
      "wonderful": 1635,
      "states": 1636,
      "already": 1637,
      "bear": 1638,
      "often": 1639,
      "search": 1640,
      "##aron": 1641,
      "00": 1642,
      "##ef": 1643,
      "appro": 1644,
      "respect": 1645,
      "loves": 1646,
      "past": 1647,
      "mir": 1648,
      "##ton": 1649,
      "##outh": 1650,
      "##ined": 1651,
      "israelites": 1652,
      "50": 1653,
      "est": 1654,
      "luck": 1655,
      "clo": 1656,
      "thy": 1657,
      "isaiah": 1658,
      "treat": 1659,
      "west": 1660,
      "eur": 1661,
      "rul": 1662,
      "rev": 1663,
      "comple": 1664,
      "##enty": 1665,
      "##ution": 1666,
      "praise": 1667,
      "gather": 1668,
      "rock": 1669,
      "fre": 1670,
      "lie": 1671,
      "enj": 1672,
      "emp": 1673,
      "code": 1674,
      "que": 1675,
      "prov": 1676,
      "hours": 1677,
      "short": 1678,
      "message": 1679,
      "sweet": 1680,
      "court": 1681,
      "needs": 1682,
      "ready": 1683,
      "##attle": 1684,
      "##fu": 1685,
      "black": 1686,
      "single": 1687,
      "##iting": 1688,
      "##ana": 1689,
      "third": 1690,
      "hor": 1691,
      "##ua": 1692,
      "mouth": 1693,
      "gal": 1694,
      "cra": 1695,
      "whoever": 1696,
      "stren": 1697,
      "##ists": 1698,
      "kings": 1699,
      "game": 1700,
      "group": 1701,
      "##ulf": 1702,
      "fuck": 1703,
      "##line": 1704,
      "strength": 1705,
      "date": 1706,
      "glad": 1707,
      "received": 1708,
      "##any": 1709,
      "##lished": 1710,
      "replied": 1711,
      "##ike": 1712,
      "##form": 1713,
      "contro": 1714,
      "created": 1715,
      "purp": 1716,
      "dri": 1717,
      "quick": 1718,
      "##uary": 1719,
      "surpr": 1720,
      "##ugh": 1721,
      "##ik": 1722,
      "righteousness": 1723,
      "ain": 1724,
      "37": 1725,
      "##vation": 1726,
      "east": 1727,
      "met": 1728,
      "##ify": 1729,
      "pop": 1730,
      "dire": 1731,
      "##ctor": 1732,
      "bread": 1733,
      "aaron": 1734,
      "learned": 1735,
      "##ones": 1736,
      "##ump": 1737,
      "internet": 1738,
      "nice": 1739,
      "36": 1740,
      "##omes": 1741,
      "##cend": 1742,
      "touch": 1743,
      "front": 1744,
      "feat": 1745,
      "letter": 1746,
      "allow": 1747,
      "making": 1748,
      "daniel": 1749,
      "##aining": 1750,
      "incl": 1751,
      "div": 1752,
      "lab": 1753,
      "##ourage": 1754,
      "arri": 1755,
      "##utes": 1756,
      "##jah": 1757,
      "acts": 1758,
      "##lled": 1759,
      "##ured": 1760,
      "noah": 1761,
      "ru": 1762,
      "poor": 1763,
      "sacri": 1764,
      "team": 1765,
      "forgi": 1766,
      "pick": 1767,
      "transl": 1768,
      "mod": 1769,
      "fil": 1770,
      "crow": 1771,
      "vers": 1772,
      "hearts": 1773,
      "##ea": 1774,
      "goes": 1775,
      "##edd": 1776,
      "educ": 1777,
      "deliver": 1778,
      "##bey": 1779,
      "##eds": 1780,
      "typ": 1781,
      "draw": 1782,
      "history": 1783,
      "servant": 1784,
      "iss": 1785,
      "prin": 1786,
      "##app": 1787,
      "honor": 1788,
      "##ograph": 1789,
      "inh": 1790,
      "mine": 1791,
      "succ": 1792,
      "##lo": 1793,
      "taught": 1794,
      "##gg": 1795,
      "visit": 1796,
      "move": 1797,
      "##well": 1798,
      "##ith": 1799,
      "##ush": 1800,
      "##ins": 1801,
      "turned": 1802,
      "needed": 1803,
      "offic": 1804,
      "servants": 1805,
      "web": 1806,
      "mp": 1807,
      "mag": 1808,
      "cast": 1809,
      "along": 1810,
      "fast": 1811,
      "202": 1812,
      "##zy": 1813,
      "teaching": 1814,
      "##eth": 1815,
      "enjoy": 1816,
      "air": 1817,
      "bill": 1818,
      "fell": 1819,
      "receive": 1820,
      "##aw": 1821,
      "afric": 1822,
      "##uct": 1823,
      "sar": 1824,
      "faithful": 1825,
      "port": 1826,
      "san": 1827,
      "greater": 1828,
      "account": 1829,
      "gives": 1830,
      "early": 1831,
      "choose": 1832,
      "blind": 1833,
      "present": 1834,
      "road": 1835,
      "resurrection": 1836,
      "laugh": 1837,
      "named": 1838,
      "cross": 1839,
      "sever": 1840,
      "gosp": 1841,
      "meaning": 1842,
      "##ets": 1843,
      "fulf": 1844,
      "europe": 1845,
      "queen": 1846,
      "gospel": 1847,
      "##ey": 1848,
      "possible": 1849,
      "##gan": 1850,
      "mercy": 1851,
      "whether": 1852,
      "baptized": 1853,
      "##ote": 1854,
      "bas": 1855,
      "##eric": 1856,
      "fool": 1857,
      "##ism": 1858,
      "##res": 1859,
      "etern": 1860,
      "int": 1861,
      "ly": 1862,
      "respons": 1863,
      "forth": 1864,
      "##rote": 1865,
      "success": 1866,
      "thom": 1867,
      "##esis": 1868,
      "wicked": 1869,
      "gon": 1870,
      "mist": 1871,
      "alm": 1872,
      "##aced": 1873,
      "##ok": 1874,
      "##mb": 1875,
      "break": 1876,
      "wrote": 1877,
      "anymore": 1878,
      "diffic": 1879,
      "themselves": 1880,
      "wow": 1881,
      "americ": 1882,
      "clear": 1883,
      "asks": 1884,
      "difficult": 1885,
      "##cus": 1886,
      "door": 1887,
      "comfort": 1888,
      "prof": 1889,
      "relation": 1890,
      "thus": 1891,
      "accept": 1892,
      "ext": 1893,
      "prayers": 1894,
      "study": 1895,
      "forgiven": 1896,
      "river": 1897,
      "fruit": 1898,
      "christians": 1899,
      "38": 1900,
      "prev": 1901,
      "clean": 1902,
      "eph": 1903,
      "wine": 1904,
      "##ury": 1905,
      "##lesh": 1906,
      "##ama": 1907,
      "behold": 1908,
      "44": 1909,
      "trave": 1910,
      "couldn": 1911,
      "revel": 1912,
      "ir": 1913,
      "genesis": 1914,
      "##ouble": 1915,
      "obey": 1916,
      "##ney": 1917,
      "sky": 1918,
      "salvation": 1919,
      "raised": 1920,
      "battle": 1921,
      "opened": 1922,
      "darkness": 1923,
      "whatever": 1924,
      "purpose": 1925,
      "##ffe": 1926,
      "scriptures": 1927,
      "mur": 1928,
      "flesh": 1929,
      "gonna": 1930,
      "39": 1931,
      "##ices": 1932,
      "dear": 1933,
      "cele": 1934,
      "leg": 1935,
      "jan": 1936,
      "##itch": 1937,
      "199": 1938,
      "record": 1939,
      "fail": 1940,
      "lad": 1941,
      "##elt": 1942,
      "##mber": 1943,
      "celebr": 1944,
      "ground": 1945,
      "den": 1946,
      "decision": 1947,
      "wall": 1948,
      "josh": 1949,
      "teacher": 1950,
      "##anna": 1951,
      "wise": 1952,
      "arr": 1953,
      "summ": 1954,
      "service": 1955,
      "##ern": 1956,
      "helped": 1957,
      "##fully": 1958,
      "thomas": 1959,
      "share": 1960,
      "rej": 1961,
      "twel": 1962,
      "page": 1963,
      "party": 1964,
      "som": 1965,
      "##ks": 1966,
      "100": 1967,
      "##cle": 1968,
      "##inth": 1969,
      "mp3": 1970,
      "control": 1971,
      "continue": 1972,
      "title": 1973,
      "##me": 1974,
      "respond": 1975,
      "pleas": 1976,
      "books": 1977,
      "changed": 1978,
      "gods": 1979,
      "decl": 1980,
      "worth": 1981,
      "wid": 1982,
      "york": 1983,
      "ant": 1984,
      "occ": 1985,
      "twelve": 1986,
      "sad": 1987,
      "##lect": 1988,
      "daughters": 1989,
      "##itted": 1990,
      "elijah": 1991,
      "gre": 1992,
      "report": 1993,
      "greet": 1994,
      "revelation": 1995,
      "camp": 1996,
      "##med": 1997,
      "names": 1998,
      "##ape": 1999,
      "verse": 2000,
      "##ides": 2001,
      "coup": 2002,
      "ris": 2003,
      "samuel": 2004,
      "##ilt": 2005,
      "##wards": 2006,
      "mirac": 2007,
      "field": 2008,
      "speaking": 2009,
      "2017": 2010,
      "alive": 2011,
      "main": 2012,
      "giving": 2013,
      "ge": 2014,
      "members": 2015,
      "pret": 2016,
      "##the": 2017,
      "##pl": 2018,
      "ourselves": 2019,
      "cause": 2020,
      "vi": 2021,
      "member": 2022,
      "##iam": 2023,
      "returned": 2024,
      "##velop": 2025,
      "business": 2026,
      "42": 2027,
      "forty": 2028,
      "cover": 2029,
      "education": 2030,
      "reading": 2031,
      "##ided": 2032,
      "public": 2033,
      "relationship": 2034,
      "spoken": 2035,
      "##oub": 2036,
      "reach": 2037,
      "45": 2038,
      "##over": 2039,
      "lay": 2040,
      "##par": 2041,
      "grace": 2042,
      "prover": 2043,
      "whose": 2044,
      "government": 2045,
      "table": 2046,
      "judah": 2047,
      "##ative": 2048,
      "maybe": 2049,
      "expect": 2050,
      "eternal": 2051,
      "cut": 2052,
      "large": 2053,
      "mich": 2054,
      "##uck": 2055,
      "develop": 2056,
      "funny": 2057,
      "##ec": 2058,
      "##edi": 2059,
      "bow": 2060,
      "libr": 2061,
      "forward": 2062,
      "religion": 2063,
      "rise": 2064,
      "dev": 2065,
      "led": 2066,
      "coun": 2067,
      "##iter": 2068,
      "##imes": 2069,
      "market": 2070,
      "orig": 2071,
      "##ps": 2072,
      "coffe": 2073,
      "saul": 2074,
      "##omon": 2075,
      "rain": 2076,
      "##eed": 2077,
      "partic": 2078,
      "promise": 2079,
      "corinth": 2080,
      "##work": 2081,
      "##esh": 2082,
      "const": 2083,
      "forgive": 2084,
      "commanded": 2085,
      "ger": 2086,
      "hurt": 2087,
      "special": 2088,
      "det": 2089,
      "remind": 2090,
      "learning": 2091,
      "event": 2092,
      "##eless": 2093,
      "ef": 2094,
      "##ube": 2095,
      "##ality": 2096,
      "proverbs": 2097,
      "isa": 2098,
      "##ley": 2099,
      "moon": 2100,
      "pie": 2101,
      "##ell": 2102,
      "spiritual": 2103,
      "desc": 2104,
      "pretty": 2105,
      "worked": 2106,
      "##icle": 2107,
      "depart": 2108,
      "vir": 2109,
      "fly": 2110,
      "##stem": 2111,
      "solomon": 2112,
      "net": 2113,
      "coffee": 2114,
      "concerning": 2115,
      "respon": 2116,
      "continued": 2117,
      "##ered": 2118,
      "##sec": 2119,
      "perform": 2120,
      "sight": 2121,
      "waiting": 2122,
      "famil": 2123,
      "pract": 2124,
      "gard": 2125,
      "host": 2126,
      "animals": 2127,
      "blog": 2128,
      "million": 2129,
      "sla": 2130,
      "univer": 2131,
      "none": 2132,
      "webs": 2133,
      "library": 2134,
      "media": 2135,
      "thousands": 2136,
      "mountain": 2137,
      "cool": 2138,
      "line": 2139,
      "situ": 2140,
      "reve": 2141,
      "street": 2142,
      "social": 2143,
      "system": 2144,
      "apr": 2145,
      "hebrews": 2146,
      "destroyed": 2147,
      "##ese": 2148,
      "remain": 2149,
      "joshua": 2150,
      "greatest": 2151,
      "taking": 2152,
      "origin": 2153,
      "##eng": 2154,
      "path": 2155,
      "judgment": 2156,
      "##ories": 2157,
      "low": 2158,
      "march": 2159,
      "necess": 2160,
      "##ring": 2161,
      "refer": 2162,
      "##ointed": 2163,
      "2012": 2164,
      "secret": 2165,
      "talking": 2166,
      "interest": 2167,
      "esc": 2168,
      "cried": 2169,
      "198": 2170,
      "var": 2171,
      "pun": 2172,
      "##que": 2173,
      "##ery": 2174,
      "##itude": 2175,
      "looked": 2176,
      "cult": 2177,
      "effect": 2178,
      "farm": 2179,
      "stayed": 2180,
      "neigh": 2181,
      "parad": 2182,
      "super": 2183,
      "army": 2184,
      "pos": 2185,
      "##itting": 2186,
      "lamb": 2187,
      "##dd": 2188,
      "neighb": 2189,
      "##af": 2190,
      "crying": 2191,
      "demon": 2192,
      "complete": 2193,
      "##ences": 2194,
      "eight": 2195,
      "gree": 2196,
      "conn": 2197,
      "mad": 2198,
      "heavens": 2199,
      "mrs": 2200,
      "##ral": 2201,
      "##ped": 2202,
      "includ": 2203,
      "##ored": 2204,
      "fore": 2205,
      "sisters": 2206,
      "##aces": 2207,
      "addition": 2208,
      "minutes": 2209,
      "dam": 2210,
      "attend": 2211,
      "porn": 2212,
      "41": 2213,
      "picture": 2214,
      "hung": 2215,
      "blue": 2216,
      "amazing": 2217,
      "crowd": 2218,
      "experience": 2219,
      "##ware": 2220,
      "kept": 2221,
      "corinthians": 2222,
      "avail": 2223,
      "gra": 2224,
      "apostles": 2225,
      "somet": 2226,
      "serious": 2227,
      "slave": 2228,
      "image": 2229,
      "lift": 2230,
      "##ases": 2231,
      "##ael": 2232,
      "served": 2233,
      "answers": 2234,
      "##aled": 2235,
      "capt": 2236,
      "several": 2237,
      "romans": 2238,
      "##une": 2239,
      "benef": 2240,
      "##mon": 2241,
      "##anger": 2242,
      "indeed": 2243,
      "##ww": 2244,
      "rather": 2245,
      "promised": 2246,
      "reb": 2247,
      "jon": 2248,
      "##mas": 2249,
      "tv": 2250,
      "sav": 2251,
      "takes": 2252,
      "exc": 2253,
      "vict": 2254,
      "sell": 2255,
      "april": 2256,
      "ze": 2257,
      "subject": 2258,
      "haven": 2259,
      "fur": 2260,
      "##cent": 2261,
      "##abb": 2262,
      "##ann": 2263,
      "2011": 2264,
      "cong": 2265,
      "felt": 2266,
      "er": 2267,
      "##othy": 2268,
      "coven": 2269,
      "equ": 2270,
      "pu": 2271,
      "yourselves": 2272,
      "##ened": 2273,
      "##male": 2274,
      "apostle": 2275,
      "ahead": 2276,
      "hates": 2277,
      "justice": 2278,
      "kiss": 2279,
      "female": 2280,
      "garden": 2281,
      "jour": 2282,
      "deep": 2283,
      "2015": 2284,
      "priests": 2285,
      "##athers": 2286,
      "##bo": 2287,
      "aff": 2288,
      "##ety": 2289,
      "possess": 2290,
      "website": 2291,
      "phone": 2292,
      "evening": 2293,
      "mov": 2294,
      "africa": 2295,
      "cloth": 2296,
      "responsib": 2297,
      "doctor": 2298,
      "exist": 2299,
      "fav": 2300,
      "##though": 2301,
      "problems": 2302,
      "organ": 2303,
      "non": 2304,
      "##aring": 2305,
      "proper": 2306,
      "ur": 2307,
      "moment": 2308,
      "##where": 2309,
      "response": 2310,
      "##ba": 2311,
      "carry": 2312,
      "yout": 2313,
      "immedi": 2314,
      "##enced": 2315,
      "proud": 2316,
      "keeping": 2317,
      "##co": 2318,
      "thinking": 2319,
      "mal": 2320,
      "##ats": 2321,
      "cold": 2322,
      "healed": 2323,
      "gent": 2324,
      "safe": 2325,
      "sometimes": 2326,
      "authority": 2327,
      "speaks": 2328,
      "pharise": 2329,
      "paradise": 2330,
      "although": 2331,
      "quite": 2332,
      "jap": 2333,
      "descend": 2334,
      "hotel": 2335,
      "surprised": 2336,
      "within": 2337,
      "##oke": 2338,
      "quickly": 2339,
      "version": 2340,
      "2018": 2341,
      "late": 2342,
      "arrived": 2343,
      "deb": 2344,
      "certainly": 2345,
      "2013": 2346,
      "pregn": 2347,
      "desire": 2348,
      "suffering": 2349,
      "wedd": 2350,
      "grew": 2351,
      "##reg": 2352,
      "agree": 2353,
      "company": 2354,
      "fif": 2355,
      "angry": 2356,
      "area": 2357,
      "attack": 2358,
      "wake": 2359,
      "cup": 2360,
      "##lon": 2361,
      "covenant": 2362,
      "languages": 2363,
      "2016": 2364,
      "43": 2365,
      "##right": 2366,
      "stone": 2367,
      "collect": 2368,
      "##dle": 2369,
      "online": 2370,
      "christmas": 2371,
      "ach": 2372,
      "vill": 2373,
      "finally": 2374,
      "##omp": 2375,
      "hair": 2376,
      "available": 2377,
      "##ressed": 2378,
      "crazy": 2379,
      "##ters": 2380,
      "isaac": 2381,
      "design": 2382,
      "na": 2383,
      "throne": 2384,
      "foot": 2385,
      "hit": 2386,
      "snow": 2387,
      "tear": 2388,
      "slow": 2389,
      "##ruction": 2390,
      "site": 2391,
      "sense": 2392,
      "##gar": 2393,
      "note": 2394,
      "youtube": 2395,
      "hated": 2396,
      "asleep": 2397,
      "timothy": 2398,
      "attention": 2399,
      "president": 2400,
      "capital": 2401,
      "ship": 2402,
      "spend": 2403,
      "##aps": 2404,
      "jack": 2405,
      "either": 2406,
      "##ract": 2407,
      "deeds": 2408,
      "class": 2409,
      "murder": 2410,
      "japan": 2411,
      "immediately": 2412,
      "easier": 2413,
      "behind": 2414,
      "affect": 2415,
      "gathered": 2416,
      "mis": 2417,
      "##ising": 2418,
      "girls": 2419,
      "##osen": 2420,
      "cost": 2421,
      "fine": 2422,
      "understanding": 2423,
      "incre": 2424,
      "followed": 2425,
      "enemy": 2426,
      "release": 2427,
      "##ugg": 2428,
      "sarah": 2429,
      "elect": 2430,
      "##uce": 2431,
      "using": 2432,
      "viol": 2433,
      "asking": 2434,
      "photos": 2435,
      "provided": 2436,
      "moved": 2437,
      "galile": 2438,
      "dise": 2439,
      "simple": 2440,
      "48": 2441,
      "##ulation": 2442,
      "beast": 2443,
      "pictures": 2444,
      "##iles": 2445,
      "##iday": 2446,
      "##side": 2447,
      "tech": 2448,
      "wilder": 2449,
      "north": 2450,
      "window": 2451,
      "almost": 2452,
      "standing": 2453,
      "couple": 2454,
      "fal": 2455,
      "sabb": 2456,
      "##ha": 2457,
      "glor": 2458,
      "direct": 2459,
      "lady": 2460,
      "enemies": 2461,
      "oil": 2462,
      "wilderness": 2463,
      "powerful": 2464,
      "mor": 2465,
      "obs": 2466,
      "beth": 2467,
      "idea": 2468,
      "sabbath": 2469,
      "##he": 2470,
      "pen": 2471,
      "clos": 2472,
      "inher": 2473,
      "center": 2474,
      "based": 2475,
      "syn": 2476,
      "##ench": 2477,
      "wedding": 2478,
      "2020": 2479,
      "presence": 2480,
      "fulfilled": 2481,
      "fig": 2482,
      "stri": 2483,
      "throw": 2484,
      "##nday": 2485,
      "photograph": 2486,
      "##load": 2487,
      "provide": 2488,
      "chosen": 2489,
      "dwell": 2490,
      "sud": 2491,
      "instead": 2492,
      "board": 2493,
      "##con": 2494,
      "##zar": 2495,
      "jewish": 2496,
      "german": 2497,
      "generation": 2498,
      "claim": 2499,
      "persec": 2500,
      "reasons": 2501,
      "##ogn": 2502,
      "##ray": 2503,
      "lucky": 2504,
      "seems": 2505,
      "lev": 2506,
      "island": 2507,
      "##und": 2508,
      "##ural": 2509,
      "##ners": 2510,
      "##pher": 2511,
      "##ming": 2512,
      "insp": 2513,
      "half": 2514,
      "sake": 2515,
      "promises": 2516,
      "prayed": 2517,
      "##umb": 2518,
      "##ency": 2519,
      "sword": 2520,
      "##cious": 2521,
      "guard": 2522,
      "simon": 2523,
      "stood": 2524,
      "except": 2525,
      "surv": 2526,
      "bank": 2527,
      "nine": 2528,
      "spec": 2529,
      "worried": 2530,
      "meant": 2531,
      "situation": 2532,
      "##ene": 2533,
      "hungry": 2534,
      "eve": 2535,
      "recogn": 2536,
      "aug": 2537,
      "epis": 2538,
      "##cum": 2539,
      "rejoice": 2540,
      "sir": 2541,
      "bra": 2542,
      "feed": 2543,
      "##for": 2544,
      "##alt": 2545,
      "##iled": 2546,
      "aware": 2547,
      "##uted": 2548,
      "##ology": 2549,
      "conv": 2550,
      "##urs": 2551,
      "estab": 2552,
      "shepher": 2553,
      "type": 2554,
      "##book": 2555,
      "##uter": 2556,
      "chall": 2557,
      "happens": 2558,
      "minist": 2559,
      "mot": 2560,
      "rid": 2561,
      "bes": 2562,
      "students": 2563,
      "happiness": 2564,
      "built": 2565,
      "pharisees": 2566,
      "eff": 2567,
      "beat": 2568,
      "dress": 2569,
      "cir": 2570,
      "hos": 2571,
      "##erem": 2572,
      "rule": 2573,
      "roman": 2574,
      "passed": 2575,
      "regarding": 2576,
      "boat": 2577,
      "##ott": 2578,
      "yours": 2579,
      "meeting": 2580,
      "freed": 2581,
      "tired": 2582,
      "lose": 2583,
      "december": 2584,
      "creation": 2585,
      "community": 2586,
      "focus": 2587,
      "tried": 2588,
      "showed": 2589,
      "charge": 2590,
      "connect": 2591,
      "pet": 2592,
      "##ram": 2593,
      "ii": 2594,
      "entire": 2595,
      "lim": 2596,
      "##cing": 2597,
      "desp": 2598,
      "sour": 2599,
      "##oved": 2600,
      "trouble": 2601,
      "##uk": 2602,
      "arm": 2603,
      "##claim": 2604,
      "photo": 2605,
      "##theless": 2606,
      "##mpt": 2607,
      "##ane": 2608,
      "false": 2609,
      "mistakes": 2610,
      "##ression": 2611,
      "##room": 2612,
      "invol": 2613,
      "discuss": 2614,
      "added": 2615,
      "encourage": 2616,
      "separ": 2617,
      "wood": 2618,
      "##ya": 2619,
      "guy": 2620,
      "eating": 2621,
      "decided": 2622,
      "2019": 2623,
      "80": 2624,
      "##ches": 2625,
      "issue": 2626,
      "eld": 2627,
      "anger": 2628,
      "busy": 2629,
      "sinned": 2630,
      "fathers": 2631,
      "twenty": 2632,
      "##hamed": 2633,
      "##yal": 2634,
      "##ask": 2635,
      "wives": 2636,
      "2014": 2637,
      "##oid": 2638,
      "writing": 2639,
      "birds": 2640,
      "article": 2641,
      "curr": 2642,
      "leaders": 2643,
      "card": 2644,
      "##ably": 2645,
      "actually": 2646,
      "necessary": 2647,
      "listening": 2648,
      "blessings": 2649,
      "##rect": 2650,
      "##ada": 2651,
      "saint": 2652,
      "197": 2653,
      "reign": 2654,
      "least": 2655,
      "willing": 2656,
      "##ires": 2657,
      "hid": 2658,
      "countries": 2659,
      "wol": 2660,
      "##iving": 2661,
      "choice": 2662,
      "running": 2663,
      "film": 2664,
      "join": 2665,
      "tax": 2666,
      "##ruct": 2667,
      "##alf": 2668,
      "breath": 2669,
      "##ata": 2670,
      "##acy": 2671,
      "##ius": 2672,
      "text": 2673,
      "inherit": 2674,
      "twe": 2675,
      "michael": 2676,
      "adult": 2677,
      "thoughts": 2678,
      "cares": 2679,
      "##ars": 2680,
      "loss": 2681,
      "hop": 2682,
      "span": 2683,
      "appeared": 2684,
      "congreg": 2685,
      "sudden": 2686,
      "pregnant": 2687,
      "mult": 2688,
      "skin": 2689,
      "##au": 2690,
      "wanna": 2691,
      "##sa": 2692,
      "dance": 2693,
      "opport": 2694,
      "maj": 2695,
      "rose": 2696,
      "##cient": 2697,
      "ate": 2698,
      "cities": 2699,
      "ministry": 2700,
      "46": 2701,
      "asse": 2702,
      "held": 2703,
      "marry": 2704,
      "techn": 2705,
      "smile": 2706,
      "india": 2707,
      "growing": 2708,
      "##la": 2709,
      "brown": 2710,
      "##aged": 2711,
      "ashamed": 2712,
      "obed": 2713,
      "mission": 2714,
      "##itter": 2715,
      "##lex": 2716,
      "police": 2717,
      "##esome": 2718,
      "foreign": 2719,
      "##els": 2720,
      "03": 2721,
      "august": 2722,
      "feeling": 2723,
      "##dy": 2724,
      "disapp": 2725,
      "laid": 2726,
      "further": 2727,
      "samar": 2728,
      "families": 2729,
      "forgiveness": 2730,
      "blessing": 2731,
      "hol": 2732,
      "silver": 2733,
      "2009": 2734,
      "common": 2735,
      "project": 2736,
      "ark": 2737,
      "worthy": 2738,
      "office": 2739,
      "##kind": 2740,
      "##orts": 2741,
      "vision": 2742,
      "press": 2743,
      "polit": 2744,
      "60": 2745,
      "pil": 2746,
      "mountains": 2747,
      "alb": 2748,
      "demons": 2749,
      "published": 2750,
      "value": 2751,
      "allah": 2752,
      "pleased": 2753,
      "hill": 2754,
      "##gram": 2755,
      "review": 2756,
      "fucking": 2757,
      "nature": 2758,
      "youth": 2759,
      "lack": 2760,
      "process": 2761,
      "ol": 2762,
      "##iced": 2763,
      "##fied": 2764,
      "clothes": 2765,
      "commandments": 2766,
      "##erve": 2767,
      "weak": 2768,
      "movie": 2769,
      "##ilar": 2770,
      "##ational": 2771,
      "opportun": 2772,
      "mel": 2773,
      "terri": 2774,
      "rad": 2775,
      "feast": 2776,
      "ken": 2777,
      "laws": 2778,
      "rights": 2779,
      "tong": 2780,
      "##ched": 2781,
      "cook": 2782,
      "download": 2783,
      "ban": 2784,
      "##ique": 2785,
      "##ta": 2786,
      "testim": 2787,
      "assemb": 2788,
      "aust": 2789,
      "brand": 2790,
      "freedom": 2791,
      "55": 2792,
      "##fice": 2793,
      "sacrifice": 2794,
      "##loy": 2795,
      "loving": 2796,
      "##urance": 2797,
      "chief": 2798,
      "exact": 2799,
      "swim": 2800,
      "##ium": 2801,
      "arg": 2802,
      "evid": 2803,
      "tea": 2804,
      "stars": 2805,
      "##min": 2806,
      "##idence": 2807,
      "neither": 2808,
      "##key": 2809,
      "##iod": 2810,
      "winter": 2811,
      "philipp": 2812,
      "religious": 2813,
      "ancient": 2814,
      "##ption": 2815,
      "##ots": 2816,
      "##ival": 2817,
      "horse": 2818,
      "##atter": 2819,
      "stra": 2820,
      "sept": 2821,
      "##aph": 2822,
      "babylon": 2823,
      "quiet": 2824,
      "sacrific": 2825,
      "charac": 2826,
      "owe": 2827,
      "check": 2828,
      "##isions": 2829,
      "defe": 2830,
      "cana": 2831,
      "##ission": 2832,
      "49": 2833,
      "##gest": 2834,
      "miracles": 2835,
      "##ging": 2836,
      "cop": 2837,
      "below": 2838,
      "weal": 2839,
      "##ocr": 2840,
      "strugg": 2841,
      "entered": 2842,
      "divor": 2843,
      "grad": 2844,
      "gh": 2845,
      "culture": 2846,
      "70": 2847,
      "##oming": 2848,
      "key": 2849,
      "required": 2850,
      "rebe": 2851,
      "tele": 2852,
      "tot": 2853,
      "bound": 2854,
      "shop": 2855,
      "lea": 2856,
      "period": 2857,
      "trad": 2858,
      "episode": 2859,
      "mention": 2860,
      "##no": 2861,
      "##hhh": 2862,
      "fat": 2863,
      "shouldn": 2864,
      "##antly": 2865,
      "##pect": 2866,
      "national": 2867,
      "aud": 2868,
      "towards": 2869,
      "price": 2870,
      "jerem": 2871,
      "inj": 2872,
      "cust": 2873,
      "humans": 2874,
      "building": 2875,
      "ran": 2876,
      "##vest": 2877,
      "middle": 2878,
      "finished": 2879,
      "approach": 2880,
      "july": 2881,
      "walking": 2882,
      "kar": 2883,
      "oct": 2884,
      "warm": 2885,
      "throughout": 2886,
      "cal": 2887,
      "fa": 2888,
      "##get": 2889,
      "##reme": 2890,
      "catch": 2891,
      "##ze": 2892,
      "journey": 2893,
      "din": 2894,
      "flow": 2895,
      "awesome": 2896,
      "belongs": 2897,
      "grown": 2898,
      "scripture": 2899,
      "household": 2900,
      "jeremiah": 2901,
      "wild": 2902,
      "ball": 2903,
      "filled": 2904,
      "proclaim": 2905,
      "tribe": 2906,
      "trees": 2907,
      "hat": 2908,
      "##go": 2909,
      "doub": 2910,
      "cam": 2911,
      "fle": 2912,
      "weap": 2913,
      "twice": 2914,
      "create": 2915,
      "galilee": 2916,
      "##lin": 2917,
      "crew": 2918,
      "patient": 2919,
      "ay": 2920,
      "##ator": 2921,
      "##oof": 2922,
      "similar": 2923,
      "elder": 2924,
      "depend": 2925,
      "pot": 2926,
      "french": 2927,
      "infl": 2928,
      "correct": 2929,
      "european": 2930,
      "elders": 2931,
      "danger": 2932,
      "02": 2933,
      "pros": 2934,
      "##ror": 2935,
      "colle": 2936,
      "##ax": 2937,
      "shepherd": 2938,
      "lion": 2939,
      "bride": 2940,
      "shows": 2941,
      "russ": 2942,
      "ess": 2943,
      "tempt": 2944,
      "program": 2945,
      "action": 2946,
      "##esy": 2947,
      "dut": 2948,
      "##ically": 2949,
      "green": 2950,
      "squ": 2951,
      "196": 2952,
      "subm": 2953,
      "closer": 2954,
      "##tain": 2955,
      "reward": 2956,
      "wear": 2957,
      "shot": 2958,
      "midst": 2959,
      "employ": 2960,
      "congregation": 2961,
      "##pent": 2962,
      "behalf": 2963,
      "prepared": 2964,
      "##then": 2965,
      "resear": 2966,
      "zion": 2967,
      "twitter": 2968,
      "rabb": 2969,
      "##uff": 2970,
      "##itions": 2971,
      "teaches": 2972,
      "knowing": 2973,
      "william": 2974,
      "##hem": 2975,
      "gun": 2976,
      "##icy": 2977,
      "wrath": 2978,
      "andrew": 2979,
      "mum": 2980,
      "exce": 2981,
      "cy": 2982,
      "worse": 2983,
      "corn": 2984,
      "##ication": 2985,
      "translation": 2986,
      "hosp": 2987,
      "fest": 2988,
      "seed": 2989,
      "harm": 2990,
      "47": 2991,
      "preached": 2992,
      "52": 2993,
      "##cil": 2994,
      "raise": 2995,
      "##ale": 2996,
      "compl": 2997,
      "personal": 2998,
      "ak": 2999,
      "##ables": 3000,
      "nevertheless": 3001,
      "2010": 3002,
      "##ails": 3003,
      "neighbor": 3004,
      "##ron": 3005,
      "##ivid": 3006,
      "mankind": 3007,
      "research": 3008,
      "##xim": 3009,
      "meas": 3010,
      "##ization": 3011,
      "ash": 3012,
      "interp": 3013,
      "weight": 3014,
      "philist": 3015,
      "##aff": 3016,
      "reply": 3017,
      "careful": 3018,
      "risk": 3019,
      "gar": 3020,
      "cloud": 3021,
      "century": 3022,
      "virg": 3023,
      "pap": 3024,
      "##iers": 3025,
      "##agog": 3026,
      "psalms": 3027,
      "favor": 3028,
      "fair": 3029,
      "easily": 3030,
      "phys": 3031,
      "unless": 3032,
      "mike": 3033,
      "games": 3034,
      "stat": 3035,
      "commands": 3036,
      "##ances": 3037,
      "##wise": 3038,
      "force": 3039,
      "individ": 3040,
      "hast": 3041,
      "##ecy": 3042,
      "defin": 3043,
      "mic": 3044,
      "##ls": 3045,
      "##ination": 3046,
      "accomp": 3047,
      "union": 3048,
      "##ler": 3049,
      "summer": 3050,
      "nobody": 3051,
      "shad": 3052,
      "prophecy": 3053,
      "particip": 3054,
      "##ented": 3055,
      "invited": 3056,
      "bud": 3057,
      "january": 3058,
      "##ounded": 3059,
      "##ino": 3060,
      "weep": 3061,
      "##sequ": 3062,
      "ahhhh": 3063,
      "hous": 3064,
      "piece": 3065,
      "reject": 3066,
      "apolog": 3067,
      "courage": 3068,
      "esp": 3069,
      "##ball": 3070,
      "suffered": 3071,
      "idol": 3072,
      "rome": 3073,
      "desert": 3074,
      "ephes": 3075,
      "synagog": 3076,
      "advice": 3077,
      "hide": 3078,
      "##empt": 3079,
      "dying": 3080,
      "source": 3081,
      "rules": 3082,
      "ought": 3083,
      "series": 3084,
      "greetings": 3085,
      "spanish": 3086,
      "tears": 3087,
      "ton": 3088,
      "##ges": 3089,
      "geor": 3090,
      "dom": 3091,
      "repres": 3092,
      "##alous": 3093,
      "disease": 3094,
      "ecc": 3095,
      "map": 3096,
      "steal": 3097,
      "04": 3098,
      "##kes": 3099,
      "rob": 3100,
      "01": 3101,
      "impro": 3102,
      "##lls": 3103,
      "testimony": 3104,
      "##tar": 3105,
      "fellow": 3106,
      "village": 3107,
      "shout": 3108,
      "creator": 3109,
      "ephesians": 3110,
      "2008": 3111,
      "drag": 3112,
      "greek": 3113,
      "album": 3114,
      "flood": 3115,
      "revealed": 3116,
      "shame": 3117,
      "parent": 3118,
      "##iction": 3119,
      "51": 3120,
      "honest": 3121,
      "yah": 3122,
      "hearing": 3123,
      "hello": 3124,
      "bey": 3125,
      "older": 3126,
      "febr": 3127,
      "level": 3128,
      "picked": 3129,
      "##bel": 3130,
      "##iously": 3131,
      "##uge": 3132,
      "##omy": 3133,
      "canaan": 3134,
      "alex": 3135,
      "june": 3136,
      "outside": 3137,
      "february": 3138,
      "provides": 3139,
      "##rod": 3140,
      "dig": 3141,
      "##ials": 3142,
      "sugg": 3143,
      "##ipped": 3144,
      "calls": 3145,
      "calling": 3146,
      "concerned": 3147,
      "##lt": 3148,
      "events": 3149,
      "guide": 3150,
      "bal": 3151,
      "##oes": 3152,
      "##oned": 3153,
      "brit": 3154,
      "pred": 3155,
      "cath": 3156,
      "sanct": 3157,
      "due": 3158,
      "major": 3159,
      "##anted": 3160,
      "wolf": 3161,
      "##iast": 3162,
      "believes": 3163,
      "##ager": 3164,
      "uk": 3165,
      "box": 3166,
      "exactly": 3167,
      "90": 3168,
      "194": 3169,
      "inte": 3170,
      "stick": 3171,
      "##tha": 3172,
      "##itive": 3173,
      "spread": 3174,
      "soft": 3175,
      "shalt": 3176,
      "ord": 3177,
      "sett": 3178,
      "assist": 3179,
      "september": 3180,
      "##ession": 3181,
      "##osh": 3182,
      "ren": 3183,
      "naz": 3184,
      "##hip": 3185,
      "sand": 3186,
      "spent": 3187,
      "percent": 3188,
      "oper": 3189,
      "##gress": 3190,
      "seeing": 3191,
      "looks": 3192,
      "playing": 3193,
      "ment": 3194,
      "##mother": 3195,
      "savior": 3196,
      "vol": 3197,
      "heavenly": 3198,
      "refuge": 3199,
      "responsibility": 3200,
      "ears": 3201,
      "role": 3202,
      "opportunity": 3203,
      "telling": 3204,
      "##cially": 3205,
      "condem": 3206,
      "aid": 3207,
      "##sity": 3208,
      "##yle": 3209,
      "##ung": 3210,
      "tast": 3211,
      "asso": 3212,
      "committed": 3213,
      "drop": 3214,
      "okay": 3215,
      "ign": 3216,
      "##ests": 3217,
      "##pped": 3218,
      "confidence": 3219,
      "boo": 3220,
      "tow": 3221,
      "ut": 3222,
      "dai": 3223,
      "leader": 3224,
      "boys": 3225,
      "lies": 3226,
      "america": 3227,
      "thief": 3228,
      "arrested": 3229,
      "scared": 3230,
      "drive": 3231,
      "released": 3232,
      "smok": 3233,
      "belief": 3234,
      "ram": 3235,
      "knock": 3236,
      "decisions": 3237,
      "grandmother": 3238,
      "##ilities": 3239,
      "international": 3240,
      "everybody": 3241,
      "wars": 3242,
      "##ech": 3243,
      "matt": 3244,
      "hmm": 3245,
      "uncle": 3246,
      "signs": 3247,
      "searching": 3248,
      "##yl": 3249,
      "experi": 3250,
      "53": 3251,
      "model": 3252,
      "jord": 3253,
      "anx": 3254,
      "satis": 3255,
      "hasn": 3256,
      "occur": 3257,
      "homes": 3258,
      "caught": 3259,
      "former": 3260,
      "describ": 3261,
      "suddenly": 3262,
      "data": 3263,
      "pas": 3264,
      "##li": 3265,
      "##ara": 3266,
      "priv": 3267,
      "tur": 3268,
      "avoid": 3269,
      "lyric": 3270,
      "##but": 3271,
      "beauty": 3272,
      "##uch": 3273,
      "05": 3274,
      "surely": 3275,
      "gentiles": 3276,
      "eccles": 3277,
      "niv": 3278,
      "beach": 3279,
      "escape": 3280,
      "##olic": 3281,
      "select": 3282,
      "daily": 3283,
      "tour": 3284,
      "##ration": 3285,
      "pal": 3286,
      "explain": 3287,
      "regular": 3288,
      "inspired": 3289,
      "##ico": 3290,
      "joe": 3291,
      "##oph": 3292,
      "##nes": 3293,
      "character": 3294,
      "##ares": 3295,
      "bird": 3296,
      "lamp": 3297,
      "product": 3298,
      "established": 3299,
      "gate": 3300,
      "##haps": 3301,
      "myst": 3302,
      "##fo": 3303,
      "beware": 3304,
      "instruct": 3305,
      "jordan": 3306,
      "broken": 3307,
      "##lies": 3308,
      "ecclesiast": 3309,
      "##aly": 3310,
      "191": 3311,
      "drinking": 3312,
      "##zz": 3313,
      "healthy": 3314,
      "treas": 3315,
      "till": 3316,
      "goal": 3317,
      "ruth": 3318,
      "##iger": 3319,
      "access": 3320,
      "hospital": 3321,
      "##itable": 3322,
      "training": 3323,
      "mart": 3324,
      "##izing": 3325,
      "stories": 3326,
      "successful": 3327,
      "canada": 3328,
      "sitting": 3329,
      "##ays": 3330,
      "neg": 3331,
      "becomes": 3332,
      "watching": 3333,
      "network": 3334,
      "soldiers": 3335,
      "##pe": 3336,
      "##uses": 3337,
      "sleeping": 3338,
      "imag": 3339,
      "##otes": 3340,
      "##oooooooo": 3341,
      "achie": 3342,
      "involved": 3343,
      "lots": 3344,
      "associ": 3345,
      "ecclesiastes": 3346,
      "hi": 3347,
      "##men": 3348,
      "burned": 3349,
      "evidence": 3350,
      "perhaps": 3351,
      "punish": 3352,
      "custom": 3353,
      "##hood": 3354,
      "memory": 3355,
      "prepare": 3356,
      "band": 3357,
      "believers": 3358,
      "jealous": 3359,
      "trip": 3360,
      "##athan": 3361,
      "wealth": 3362,
      "beings": 3363,
      "arch": 3364,
      "medical": 3365,
      "apart": 3366,
      "##oted": 3367,
      "##now": 3368,
      "interested": 3369,
      "amazed": 3370,
      "##ns": 3371,
      "produc": 3372,
      "commit": 3373,
      "chance": 3374,
      "track": 3375,
      "animal": 3376,
      "##amin": 3377,
      "minister": 3378,
      "bag": 3379,
      "##iety": 3380,
      "followers": 3381,
      "steph": 3382,
      "influ": 3383,
      "ms": 3384,
      "flock": 3385,
      "chris": 3386,
      "hen": 3387,
      "##vy": 3388,
      "195": 3389,
      "beyond": 3390,
      "##bert": 3391,
      "compass": 3392,
      "espe": 3393,
      "2nd": 3394,
      "cain": 3395,
      "race": 3396,
      "yester": 3397,
      "caes": 3398,
      "pilate": 3399,
      "aut": 3400,
      "heat": 3401,
      "tongue": 3402,
      "waters": 3403,
      "foundation": 3404,
      "##iqu": 3405,
      "neph": 3406,
      "trump": 3407,
      "college": 3408,
      "lyrics": 3409,
      "especially": 3410,
      "bri": 3411,
      "contr": 3412,
      "park": 3413,
      "loud": 3414,
      "hath": 3415,
      "fourth": 3416,
      "messiah": 3417,
      "##aked": 3418,
      "descendants": 3419,
      "##ndon": 3420,
      "practice": 3421,
      "lying": 3422,
      "lovely": 3423,
      "storm": 3424,
      "##icted": 3425,
      "ow": 3426,
      "tor": 3427,
      "unique": 3428,
      "famous": 3429,
      "activ": 3430,
      "burning": 3431,
      "simply": 3432,
      "yesterday": 3433,
      "print": 3434,
      "##rated": 3435,
      "original": 3436,
      "smith": 3437,
      "region": 3438,
      "gets": 3439,
      "perm": 3440,
      "higher": 3441,
      "bother": 3442,
      "challeng": 3443,
      "##tt": 3444,
      "convers": 3445,
      "shown": 3446,
      "basis": 3447,
      "property": 3448,
      "##ceed": 3449,
      "indian": 3450,
      "hyp": 3451,
      "shut": 3452,
      "radio": 3453,
      "songs": 3454,
      "results": 3455,
      "somebody": 3456,
      "spain": 3457,
      "comment": 3458,
      "teachers": 3459,
      "56": 3460,
      "sen": 3461,
      "appointed": 3462,
      "allowed": 3463,
      "council": 3464,
      "##idge": 3465,
      "##thern": 3466,
      "harvest": 3467,
      "beer": 3468,
      "stup": 3469,
      "lou": 3470,
      "##fr": 3471,
      "consequ": 3472,
      "content": 3473,
      "ded": 3474,
      "gradu": 3475,
      "scient": 3476,
      "thirty": 3477,
      "##ias": 3478,
      "thess": 3479,
      "explained": 3480,
      "##ica": 3481,
      "dust": 3482,
      "##ibl": 3483,
      "refused": 3484,
      "birthday": 3485,
      "prince": 3486,
      "##ees": 3487,
      "itself": 3488,
      "eliz": 3489,
      "facebook": 3490,
      "sev": 3491,
      "brain": 3492,
      "delight": 3493,
      "friday": 3494,
      "amount": 3495,
      "unc": 3496,
      "places": 3497,
      "mail": 3498,
      "##da": 3499,
      "hall": 3500,
      "philistines": 3501,
      "size": 3502,
      "##lling": 3503,
      "##ky": 3504,
      "including": 3505,
      "mass": 3506,
      "millions": 3507,
      "vall": 3508,
      "science": 3509,
      "local": 3510,
      "link": 3511,
      "##cip": 3512,
      "##imin": 3513,
      "offering": 3514,
      "kat": 3515,
      "99": 3516,
      "london": 3517,
      "slaves": 3518,
      "##ering": 3519,
      "meat": 3520,
      "08": 3521,
      "horn": 3522,
      "resc": 3523,
      "bye": 3524,
      "attempt": 3525,
      "churches": 3526,
      "compassion": 3527,
      "fit": 3528,
      "located": 3529,
      "development": 3530,
      "flo": 3531,
      "across": 3532,
      "lake": 3533,
      "austral": 3534,
      "##nam": 3535,
      "approxim": 3536,
      "deter": 3537,
      "ty": 3538,
      "disp": 3539,
      "kindness": 3540,
      "##jv": 3541,
      "commandment": 3542,
      "insurance": 3543,
      "carried": 3544,
      "photographs": 3545,
      "pure": 3546,
      "##alon": 3547,
      "fac": 3548,
      "##eness": 3549,
      "click": 3550,
      "position": 3551,
      "fallen": 3552,
      "vote": 3553,
      "color": 3554,
      "fi": 3555,
      "saints": 3556,
      "gifts": 3557,
      "inside": 3558,
      "emb": 3559,
      "violence": 3560,
      "changes": 3561,
      "##teen": 3562,
      "abs": 3563,
      "ens": 3564,
      "helps": 3565,
      "sus": 3566,
      "hab": 3567,
      "info": 3568,
      "altar": 3569,
      "cow": 3570,
      "sinners": 3571,
      "crown": 3572,
      "travel": 3573,
      "##abeth": 3574,
      "paid": 3575,
      "sacrifices": 3576,
      "ascend": 3577,
      "adm": 3578,
      "labor": 3579,
      "bike": 3580,
      "##aped": 3581,
      "germany": 3582,
      "apply": 3583,
      "university": 3584,
      "edit": 3585,
      "philip": 3586,
      "##angers": 3587,
      "sunday": 3588,
      "##iff": 3589,
      "samarit": 3590,
      "##omm": 3591,
      "france": 3592,
      "##ria": 3593,
      "threat": 3594,
      "medit": 3595,
      "vine": 3596,
      "widow": 3597,
      "dar": 3598,
      "len": 3599,
      "07": 3600,
      "award": 3601,
      "##irt": 3602,
      "mighty": 3603,
      "leads": 3604,
      "ident": 3605,
      "computer": 3606,
      "purs": 3607,
      "cd": 3608,
      "blow": 3609,
      "pan": 3610,
      "##inion": 3611,
      "discover": 3612,
      "##ban": 3613,
      "impact": 3614,
      "universe": 3615,
      "et": 3616,
      "object": 3617,
      "lifted": 3618,
      "tag": 3619,
      "benefit": 3620,
      "dies": 3621,
      "liter": 3622,
      "supposed": 3623,
      "billion": 3624,
      "official": 3625,
      "##ca": 3626,
      "happening": 3627,
      "speech": 3628,
      "train": 3629,
      "buried": 3630,
      "jail": 3631,
      "windows": 3632,
      "virgin": 3633,
      "approximately": 3634,
      "fort": 3635,
      "##ims": 3636,
      "coloss": 3637,
      "meetings": 3638,
      "jim": 3639,
      "tab": 3640,
      "58": 3641,
      "divorce": 3642,
      "##rd": 3643,
      "rare": 3644,
      "beloved": 3645,
      "##ov": 3646,
      "technology": 3647,
      "##icles": 3648,
      "pm": 3649,
      "collection": 3650,
      "played": 3651,
      "advant": 3652,
      "excell": 3653,
      "disciple": 3654,
      "gates": 3655,
      "china": 3656,
      "##sol": 3657,
      "cit": 3658,
      "##erc": 3659,
      "##ping": 3660,
      "##sc": 3661,
      "regards": 3662,
      "extreme": 3663,
      "quality": 3664,
      "##how": 3665,
      "dinner": 3666,
      "##ga": 3667,
      "##ability": 3668,
      "tal": 3669,
      "trade": 3670,
      "difference": 3671,
      "coast": 3672,
      "term": 3673,
      "sexual": 3674,
      "terms": 3675,
      "##using": 3676,
      "toward": 3677,
      "nodd": 3678,
      "##uction": 3679,
      "dont": 3680,
      "##10": 3681,
      "asia": 3682,
      "honey": 3683,
      "ing": 3684,
      "fing": 3685,
      "related": 3686,
      "meth": 3687,
      "purch": 3688,
      "treated": 3689,
      "##itary": 3690,
      "##unch": 3691,
      "inhab": 3692,
      "male": 3693,
      "om": 3694,
      "princip": 3695,
      "address": 3696,
      "american": 3697,
      "completely": 3698,
      "09": 3699,
      "500": 3700,
      "delivered": 3701,
      "##ague": 3702,
      "lesson": 3703,
      "##lson": 3704,
      "realized": 3705,
      "allows": 3706,
      "jonah": 3707,
      "colossians": 3708,
      "user": 3709,
      "huge": 3710,
      "pleasure": 3711,
      "assembly": 3712,
      "##abet": 3713,
      "emot": 3714,
      "foolish": 3715,
      "##ume": 3716,
      "milk": 3717,
      "particular": 3718,
      "ghana": 3719,
      "smoke": 3720,
      "reminds": 3721,
      "various": 3722,
      "ara": 3723,
      "bond": 3724,
      "praying": 3725,
      "teachings": 3726,
      "meal": 3727,
      "lazar": 3728,
      "currently": 3729,
      "natural": 3730,
      "destruction": 3731,
      "cancer": 3732,
      "repent": 3733,
      "receives": 3734,
      "dreams": 3735,
      "##omb": 3736,
      "martha": 3737,
      "fifty": 3738,
      "nin": 3739,
      "jason": 3740,
      "elizabeth": 3741,
      "##usion": 3742,
      "stress": 3743,
      "probably": 3744,
      "declared": 3745,
      "##sing": 3746,
      "thessalon": 3747,
      "##urity": 3748,
      "applic": 3749,
      "##while": 3750,
      "general": 3751,
      "double": 3752,
      "mc": 3753,
      "everywhere": 3754,
      "round": 3755,
      "##ober": 3756,
      "##asing": 3757,
      "lazarus": 3758,
      "doct": 3759,
      "ohio": 3760,
      "miles": 3761,
      "##ancy": 3762,
      "fors": 3763,
      "bright": 3764,
      "hidden": 3765,
      "total": 3766,
      "shadow": 3767,
      "hom": 3768,
      "workers": 3769,
      "abund": 3770,
      "finish": 3771,
      "bath": 3772,
      "##set": 3773,
      "october": 3774,
      "pour": 3775,
      "drug": 3776,
      "follows": 3777,
      "##rict": 3778,
      "annual": 3779,
      "warning": 3780,
      "##hhhhhhhh": 3781,
      "##ouraged": 3782,
      "06": 3783,
      "ft": 3784,
      "##mi": 3785,
      "tex": 3786,
      "parts": 3787,
      "salt": 3788,
      "dish": 3789,
      "stopped": 3790,
      "broke": 3791,
      "##yer": 3792,
      "wanting": 3793,
      "##rows": 3794,
      "serpent": 3795,
      "writes": 3796,
      "nearly": 3797,
      "compet": 3798,
      "ide": 3799,
      "valley": 3800,
      "hy": 3801,
      "##ops": 3802,
      "wide": 3803,
      "dragon": 3804,
      "fund": 3805,
      "nights": 3806,
      "benj": 3807,
      "##yy": 3808,
      "anti": 3809,
      "sale": 3810,
      "exam": 3811,
      "store": 3812,
      "##unk": 3813,
      "firm": 3814,
      "leaving": 3815,
      "swed": 3816,
      "57": 3817,
      "##ards": 3818,
      "clothing": 3819,
      "section": 3820,
      "walked": 3821,
      "##ura": 3822,
      "pride": 3823,
      "##let": 3824,
      "joined": 3825,
      "rabbi": 3826,
      "flee": 3827,
      "##eem": 3828,
      "announ": 3829,
      "doll": 3830,
      "##host": 3831,
      "exerc": 3832,
      "brings": 3833,
      "suic": 3834,
      "final": 3835,
      "lol": 3836,
      "loyal": 3837,
      "increase": 3838,
      "54": 3839,
      "philippians": 3840,
      "##friend": 3841,
      "ast": 3842,
      "services": 3843,
      "silence": 3844,
      "offered": 3845,
      "amen": 3846,
      "##ips": 3847,
      "fulfill": 3848,
      "japanese": 3849,
      "mour": 3850,
      "usually": 3851,
      "houses": 3852,
      "express": 3853,
      "actions": 3854,
      "bott": 3855,
      "population": 3856,
      "##lam": 3857,
      "bull": 3858,
      "compan": 3859,
      "2007": 3860,
      "largest": 3861,
      "manage": 3862,
      "staying": 3863,
      "dare": 3864,
      "husbands": 3865,
      "festival": 3866,
      "##oring": 3867,
      "soci": 3868,
      "considered": 3869,
      "clock": 3870,
      "earthqu": 3871,
      "effort": 3872,
      "duty": 3873,
      "4th": 3874,
      "##eren": 3875,
      "##onia": 3876,
      "glorified": 3877,
      "sort": 3878,
      "specific": 3879,
      "tweet": 3880,
      "66": 3881,
      "eu": 3882,
      "##ena": 3883,
      "catholic": 3884,
      "ghost": 3885,
      "judas": 3886,
      "##omed": 3887,
      "stupid": 3888,
      "inn": 3889,
      "numbers": 3890,
      "##ription": 3891,
      "##icated": 3892,
      "golden": 3893,
      "despite": 3894,
      "demand": 3895,
      "##aded": 3896,
      "excited": 3897,
      "emm": 3898,
      "193": 3899,
      "illness": 3900,
      "2021": 3901,
      "##areth": 3902,
      "placed": 3903,
      "surr": 3904,
      "refers": 3905,
      "und": 3906,
      "##fl": 3907,
      "straight": 3908,
      "parable": 3909,
      "##vision": 3910,
      "##ament": 3911,
      "famine": 3912,
      "acqu": 3913,
      "obv": 3914,
      "videos": 3915,
      "toss": 3916,
      "bb": 3917,
      "eb": 3918,
      "helping": 3919,
      "contrib": 3920,
      "##pm": 3921,
      "##ida": 3922,
      "##achel": 3923,
      "owner": 3924,
      "besides": 3925,
      "terrified": 3926,
      "##een": 3927,
      "##ailed": 3928,
      "ice": 3929,
      "##wide": 3930,
      "manner": 3931,
      "fault": 3932,
      "calm": 3933,
      "mand": 3934,
      "ended": 3935,
      "##otten": 3936,
      "resist": 3937,
      "2006": 3938,
      "##ex": 3939,
      "represent": 3940,
      "##ential": 3941,
      "adj": 3942,
      "creating": 3943,
      "doubt": 3944,
      "##play": 3945,
      "george": 3946,
      "fresh": 3947,
      "circum": 3948,
      "texas": 3949,
      "##20": 3950,
      "##atic": 3951,
      "##iling": 3952,
      "alc": 3953,
      "nar": 3954,
      "qual": 3955,
      "translated": 3956,
      "##rop": 3957,
      "conduct": 3958,
      "dangerous": 3959,
      "benjamin": 3960,
      "ber": 3961,
      "ability": 3962,
      "##unt": 3963,
      "remained": 3964,
      "location": 3965,
      "threw": 3966,
      "remembered": 3967,
      "seventy": 3968,
      "staff": 3969,
      "benefits": 3970,
      "weather": 3971,
      "desires": 3972,
      "65": 3973,
      "somehow": 3974,
      "overc": 3975,
      "sees": 3976,
      "##iot": 3977,
      "lessons": 3978,
      "##weh": 3979,
      "behav": 3980,
      "nove": 3981,
      "hears": 3982,
      "cred": 3983,
      "synagogue": 3984,
      "##oth": 3985,
      "##val": 3986,
      "extremely": 3987,
      "jen": 3988,
      "curse": 3989,
      "introd": 3990,
      "depth": 3991,
      "nodded": 3992,
      "civ": 3993,
      "base": 3994,
      "hang": 3995,
      "ss": 3996,
      "##light": 3997,
      "realize": 3998,
      "tomb": 3999,
      "steps": 4000,
      "issues": 4001,
      "59": 4002,
      "bod": 4003,
      "mix": 4004,
      "##ography": 4005,
      "##do": 4006,
      "cruc": 4007,
      "suicide": 4008,
      "weren": 4009,
      "fright": 4010,
      "troub": 4011,
      "taste": 4012,
      "aband": 4013,
      "##under": 4014,
      "blame": 4015,
      "##aries": 4016,
      "##ighty": 4017,
      "serving": 4018,
      "indust": 4019,
      "eth": 4020,
      "bee": 4021,
      "chose": 4022,
      "exod": 4023,
      "esau": 4024,
      "##zek": 4025,
      "bi": 4026,
      "humble": 4027,
      "yahweh": 4028,
      "tonight": 4029,
      "oppos": 4030,
      "streets": 4031,
      "moving": 4032,
      "courtesy": 4033,
      "challenges": 4034,
      "dogs": 4035,
      "interpret": 4036,
      "##pa": 4037,
      "fan": 4038,
      "cases": 4039,
      "##atch": 4040,
      "condition": 4041,
      "lower": 4042,
      "highest": 4043,
      "silent": 4044,
      "separate": 4045,
      "##char": 4046,
      "concl": 4047,
      "##asting": 4048,
      "##ka": 4049,
      "arms": 4050,
      "departed": 4051,
      "unity": 4052,
      "##inity": 4053,
      "frequ": 4054,
      "loo": 4055,
      "##uing": 4056,
      "nazareth": 4057,
      "cute": 4058,
      "adul": 4059,
      "statement": 4060,
      "generations": 4061,
      "contact": 4062,
      "##rit": 4063,
      "judges": 4064,
      "november": 4065,
      "fol": 4066,
      "australia": 4067,
      "tar": 4068,
      "responded": 4069,
      "##attered": 4070,
      "##icate": 4071,
      "##born": 4072,
      "##ett": 4073,
      "precious": 4074,
      "seventh": 4075,
      "judged": 4076,
      "burden": 4077,
      "almighty": 4078,
      "caesar": 4079,
      "alcoh": 4080,
      "##ills": 4081,
      "writer": 4082,
      "1st": 4083,
      "lee": 4084,
      "goodby": 4085,
      "ends": 4086,
      "mmm": 4087,
      "bridge": 4088,
      "aver": 4089,
      "pack": 4090,
      "##era": 4091,
      "agre": 4092,
      "require": 4093,
      "popular": 4094,
      "mex": 4095,
      "exodus": 4096,
      "clearly": 4097,
      "usa": 4098,
      "stones": 4099,
      "suck": 4100,
      "thankful": 4101,
      "appre": 4102,
      "betray": 4103,
      "citiz": 4104,
      "mama": 4105,
      "##olution": 4106,
      "gain": 4107,
      "daddy": 4108,
      "##atives": 4109,
      "liar": 4110,
      "wishes": 4111,
      "carefully": 4112,
      "student": 4113,
      "econ": 4114,
      "push": 4115,
      "sentenced": 4116,
      "creatures": 4117,
      "possib": 4118,
      "goodbye": 4119,
      "##ateful": 4120,
      "positive": 4121,
      "spring": 4122,
      "starting": 4123,
      "caused": 4124,
      "reached": 4125,
      "##ki": 4126,
      "stuff": 4127,
      "barn": 4128,
      "figure": 4129,
      "decide": 4130,
      "paper": 4131,
      "3d": 4132,
      "3rd": 4133,
      "earl": 4134,
      "magic": 4135,
      "military": 4136,
      "sle": 4137,
      "andy": 4138,
      "plant": 4139,
      "method": 4140,
      "##orable": 4141,
      "testify": 4142,
      "tribes": 4143,
      "weapon": 4144,
      "celebrate": 4145,
      "##old": 4146,
      "##usted": 4147,
      "divid": 4148,
      "##ster": 4149,
      "sodom": 4150,
      "seem": 4151,
      "commission": 4152,
      "trial": 4153,
      "medic": 4154,
      "fash": 4155,
      "##isa": 4156,
      "mach": 4157,
      "ride": 4158,
      "dry": 4159,
      "haw": 4160,
      "ener": 4161,
      "##phone": 4162,
      "diabet": 4163,
      "afterno": 4164,
      "spirits": 4165,
      "honour": 4166,
      "civil": 4167,
      "hind": 4168,
      "##erved": 4169,
      "exec": 4170,
      "mac": 4171,
      "teen": 4172,
      "club": 4173,
      "##eph": 4174,
      "signific": 4175,
      "horses": 4176,
      "tower": 4177,
      "attract": 4178,
      "stands": 4179,
      "saf": 4180,
      "fighting": 4181,
      "organization": 4182,
      "rh": 4183,
      "treatment": 4184,
      "invest": 4185,
      "thessalonians": 4186,
      "##verty": 4187,
      "awake": 4188,
      "rejo": 4189,
      "bob": 4190,
      "poverty": 4191,
      "smoking": 4192,
      "anc": 4193,
      "kinds": 4194,
      "galat": 4195,
      "nic": 4196,
      "yo": 4197,
      "reflect": 4198,
      "van": 4199,
      "concept": 4200,
      "islam": 4201,
      "tend": 4202,
      "ruler": 4203,
      "##owed": 4204,
      "plain": 4205,
      "##iar": 4206,
      "jul": 4207,
      "##ators": 4208,
      "maced": 4209,
      "tam": 4210,
      "kitch": 4211,
      "##ander": 4212,
      "##soever": 4213,
      "iniqu": 4214,
      "monday": 4215,
      "ooo": 4216,
      "##ole": 4217,
      "##str": 4218,
      "fled": 4219,
      "minds": 4220,
      "##ensive": 4221,
      "kore": 4222,
      "##uals": 4223,
      "foc": 4224,
      "useful": 4225,
      "opinion": 4226,
      "ts": 4227,
      "space": 4228,
      "##fi": 4229,
      "deg": 4230,
      "conscious": 4231,
      "importance": 4232,
      "adulter": 4233,
      "herod": 4234,
      "minute": 4235,
      "determ": 4236,
      "survive": 4237,
      "ble": 4238,
      "lin": 4239,
      "##bed": 4240,
      "guil": 4241,
      "types": 4242,
      "afternoon": 4243,
      "unbel": 4244,
      "advantage": 4245,
      "lone": 4246,
      "worries": 4247,
      "suc": 4248,
      "##tended": 4249,
      "society": 4250,
      "hero": 4251,
      "speed": 4252,
      "mater": 4253,
      "reality": 4254,
      "##aine": 4255,
      "riches": 4256,
      "television": 4257,
      "##rupt": 4258,
      "mentioned": 4259,
      "##icing": 4260,
      "appears": 4261,
      "include": 4262,
      "www": 4263,
      "yu": 4264,
      "lif": 4265,
      "wherever": 4266,
      "obedient": 4267,
      "holiday": 4268,
      "kitchen": 4269,
      "plenty": 4270,
      "england": 4271,
      "pieces": 4272,
      "inhabit": 4273,
      "compared": 4274,
      "mystery": 4275,
      "contains": 4276,
      "entr": 4277,
      "pressure": 4278,
      "imagine": 4279,
      "##reen": 4280,
      "wings": 4281,
      "pill": 4282,
      "fashion": 4283,
      "react": 4284,
      "glass": 4285,
      "satur": 4286,
      "previous": 4287,
      "suggest": 4288,
      "tool": 4289,
      "liken": 4290,
      "department": 4291,
      "##11": 4292,
      "shoulder": 4293,
      "bell": 4294,
      "recognize": 4295,
      "convin": 4296,
      "style": 4297,
      "crime": 4298,
      "preaching": 4299,
      "edge": 4300,
      "guilty": 4301,
      "reported": 4302,
      "abram": 4303,
      "heavy": 4304,
      "swimming": 4305,
      "ny": 4306,
      "pit": 4307,
      "bibl": 4308,
      "der": 4309,
      "relax": 4310,
      "feelings": 4311,
      "fix": 4312,
      "notice": 4313,
      "bran": 4314,
      "younger": 4315,
      "excellent": 4316,
      "mob": 4317,
      "yog": 4318,
      "killing": 4319,
      "divine": 4320,
      "mt": 4321,
      "##ih": 4322,
      "failed": 4323,
      "covered": 4324,
      "equal": 4325,
      "exh": 4326,
      "british": 4327,
      "yum": 4328,
      "##vin": 4329,
      "##ela": 4330,
      "plans": 4331,
      "appe": 4332,
      "security": 4333,
      "points": 4334,
      "letters": 4335,
      "##ford": 4336,
      "studying": 4337,
      "##eral": 4338,
      "##sover": 4339,
      "floor": 4340,
      "iron": 4341,
      "shit": 4342,
      "thrown": 4343,
      "feels": 4344,
      "meanwhile": 4345,
      "hoping": 4346,
      "likely": 4347,
      "alcohol": 4348,
      "diabetes": 4349,
      "##ores": 4350,
      "bon": 4351,
      "##port": 4352,
      "numbered": 4353,
      "request": 4354,
      "measure": 4355,
      "shed": 4356,
      "egg": 4357,
      "rs": 4358,
      "amy": 4359,
      "sha": 4360,
      "grat": 4361,
      "inheritance": 4362,
      "eag": 4363,
      "wed": 4364,
      "nas": 4365,
      "ish": 4366,
      "grateful": 4367,
      "attitude": 4368,
      "thirst": 4369,
      "african": 4370,
      "talked": 4371,
      "##lict": 4372,
      "fed": 4373,
      "verily": 4374,
      "listened": 4375,
      "seeking": 4376,
      "peoples": 4377,
      "merc": 4378,
      "shine": 4379,
      "memor": 4380,
      "obedience": 4381,
      "biblical": 4382,
      "##enger": 4383,
      "career": 4384,
      "humb": 4385,
      "centre": 4386,
      "improve": 4387,
      "##acle": 4388,
      "heads": 4389,
      "miracle": 4390,
      "mental": 4391,
      "conversation": 4392,
      "naked": 4393,
      "ring": 4394,
      "##ette": 4395,
      "shel": 4396,
      "##za": 4397,
      "cheese": 4398,
      "##zil": 4399,
      "disaster": 4400,
      "magaz": 4401,
      "sorrow": 4402,
      "consum": 4403,
      "##airs": 4404,
      "75": 4405,
      "esther": 4406,
      "patience": 4407,
      "passover": 4408,
      "ya": 4409,
      "valu": 4410,
      "royal": 4411,
      "artist": 4412,
      "unable": 4413,
      "engine": 4414,
      "masters": 4415,
      "deceived": 4416,
      "kh": 4417,
      "ancest": 4418,
      "##isha": 4419,
      "district": 4420,
      "hypocr": 4421,
      "proof": 4422,
      "2000": 4423,
      "tradition": 4424,
      "kate": 4425,
      "farmer": 4426,
      "remains": 4427,
      "##ature": 4428,
      "##udes": 4429,
      "##agues": 4430,
      "lawyer": 4431,
      "succeed": 4432,
      "nick": 4433,
      "central": 4434,
      "weeping": 4435,
      "##ald": 4436,
      "explains": 4437,
      "##erv": 4438,
      "seriously": 4439,
      "achieve": 4440,
      "##iour": 4441,
      "warn": 4442,
      "wes": 4443,
      "macedonia": 4444,
      "##ros": 4445,
      "fruits": 4446,
      "condemned": 4447,
      "saturday": 4448,
      "bay": 4449,
      "falling": 4450,
      "responsible": 4451,
      "arab": 4452,
      "display": 4453,
      "counsel": 4454,
      "htt": 4455,
      "mommy": 4456,
      "appreci": 4457,
      "ray": 4458,
      "##obed": 4459,
      "hosted": 4460,
      "noticed": 4461,
      "repub": 4462,
      "esv": 4463,
      "lonely": 4464,
      "forest": 4465,
      "missing": 4466,
      "modern": 4467,
      "##imate": 4468,
      "zeal": 4469,
      "anna": 4470,
      "topic": 4471,
      "neck": 4472,
      "disobed": 4473,
      "emma": 4474,
      "humility": 4475,
      "guys": 4476,
      "illust": 4477,
      "##nie": 4478,
      "##iti": 4479,
      "persecuted": 4480,
      "influence": 4481,
      "du": 4482,
      "anne": 4483,
      "copy": 4484,
      "##rison": 4485,
      "assign": 4486,
      "baptist": 4487,
      "shirt": 4488,
      "cars": 4489,
      "flight": 4490,
      "finds": 4491,
      "egyptian": 4492,
      "obl": 4493,
      "kick": 4494,
      "perish": 4495,
      "egyptians": 4496,
      "images": 4497,
      "attacked": 4498,
      "##omi": 4499,
      "smart": 4500,
      "bought": 4501,
      "gt": 4502,
      "partner": 4503,
      "brazil": 4504,
      "##utions": 4505,
      "docum": 4506,
      "adorable": 4507,
      "##12": 4508,
      "repe": 4509,
      "opt": 4510,
      "goog": 4511,
      "profession": 4512,
      "##anda": 4513,
      "progress": 4514,
      "cand": 4515,
      "energy": 4516,
      "##onomy": 4517,
      "2004": 4518,
      "earthquake": 4519,
      "focused": 4520,
      "##ae": 4521,
      "chick": 4522,
      "republic": 4523,
      "jones": 4524,
      "shoes": 4525,
      "intell": 4526,
      "liber": 4527,
      "moab": 4528,
      "mas": 4529,
      "pow": 4530,
      "##hi": 4531,
      "spr": 4532,
      "##ively": 4533,
      "traveled": 4534,
      "##itled": 4535,
      "remem": 4536,
      "sugar": 4537,
      "fought": 4538,
      "mere": 4539,
      "pages": 4540,
      "likewise": 4541,
      "receiving": 4542,
      "individual": 4543,
      "valuable": 4544,
      "passion": 4545,
      "guid": 4546,
      "martin": 4547,
      "68": 4548,
      "solution": 4549,
      "murdered": 4550,
      "olive": 4551,
      "cream": 4552,
      "kim": 4553,
      "rely": 4554,
      "conce": 4555,
      "experienced": 4556,
      "muse": 4557,
      "sid": 4558,
      "forum": 4559,
      "musl": 4560,
      "enjoyed": 4561,
      "##ached": 4562,
      "prove": 4563,
      "##istan": 4564,
      "comb": 4565,
      "handed": 4566,
      "louis": 4567,
      "##ients": 4568,
      "fully": 4569,
      "touched": 4570,
      "current": 4571,
      "##enge": 4572,
      "env": 4573,
      "johnny": 4574,
      "remark": 4575,
      "finan": 4576,
      "connection": 4577,
      "victory": 4578,
      "worldwide": 4579,
      "##mad": 4580,
      "italy": 4581,
      "mexico": 4582,
      "guess": 4583,
      "examples": 4584,
      "tempted": 4585,
      "physical": 4586,
      "rachel": 4587,
      "##ems": 4588,
      "satisf": 4589,
      "consist": 4590,
      "grave": 4591,
      "glob": 4592,
      "flor": 4593,
      "woe": 4594,
      "definite": 4595,
      "google": 4596,
      "##erson": 4597,
      "surprise": 4598,
      "nur": 4599,
      "##lead": 4600,
      "praises": 4601,
      "governor": 4602,
      "defend": 4603,
      "struggle": 4604,
      "task": 4605,
      "##tained": 4606,
      "fare": 4607,
      "##oam": 4608,
      "deuter": 4609,
      "alright": 4610,
      "##ifies": 4611,
      "bene": 4612,
      "likeness": 4613,
      "deuteronomy": 4614,
      "stock": 4615,
      "##wor": 4616,
      "unf": 4617,
      "industry": 4618,
      "meals": 4619,
      "screen": 4620,
      "latin": 4621,
      "ry": 4622,
      "crit": 4623,
      "jump": 4624,
      "##eg": 4625,
      "##agn": 4626,
      "##ously": 4627,
      "shouted": 4628,
      "station": 4629,
      "friendship": 4630,
      "towns": 4631,
      "protection": 4632,
      "punishment": 4633,
      "##ounds": 4634,
      "bodies": 4635,
      "##och": 4636,
      "goodness": 4637,
      "falls": 4638,
      "nk": 4639,
      "##ils": 4640,
      "jobs": 4641,
      "holding": 4642,
      "64": 4643,
      "burnt": 4644,
      "divided": 4645,
      "##oma": 4646,
      "groups": 4647,
      "fill": 4648,
      "##ox": 4649,
      "edition": 4650,
      "comments": 4651,
      "messenger": 4652,
      "familiar": 4653,
      "##ule": 4654,
      "##uts": 4655,
      "struck": 4656,
      "##ola": 4657,
      "exercise": 4658,
      "vs": 4659,
      "strangers": 4660,
      "suitable": 4661,
      "##abas": 4662,
      "ideas": 4663,
      "##edia": 4664,
      "accepted": 4665,
      "digital": 4666,
      "software": 4667,
      "rescue": 4668,
      "##har": 4669,
      "spot": 4670,
      "remove": 4671,
      "seal": 4672,
      "ahab": 4673,
      "confident": 4674,
      "provin": 4675,
      "laban": 4676,
      "idols": 4677,
      "confer": 4678,
      "anointed": 4679,
      "legal": 4680,
      "adults": 4681,
      "stret": 4682,
      "uns": 4683,
      "119": 4684,
      "political": 4685,
      "consequences": 4686,
      "prior": 4687,
      "sup": 4688,
      "chann": 4689,
      "accident": 4690,
      "jeh": 4691,
      "extra": 4692,
      "norm": 4693,
      "hadn": 4694,
      "prevent": 4695,
      "details": 4696,
      "hosts": 4697,
      "henry": 4698,
      "##wood": 4699,
      "##ribe": 4700,
      "washing": 4701,
      "direction": 4702,
      "##very": 4703,
      "ib": 4704,
      "kr": 4705,
      "believing": 4706,
      "##rets": 4707,
      "politics": 4708,
      "ip": 4709,
      "whis": 4710,
      "eden": 4711,
      "shoot": 4712,
      "##vert": 4713,
      "##ughter": 4714,
      "soup": 4715,
      "safety": 4716,
      "prim": 4717,
      "veh": 4718,
      "weapons": 4719,
      "bicy": 4720,
      "spouse": 4721,
      "replies": 4722,
      "ack": 4723,
      "ell": 4724,
      "##itute": 4725,
      "limited": 4726,
      "barnabas": 4727,
      "##de": 4728,
      "##xx": 4729,
      "shin": 4730,
      "greatly": 4731,
      "cure": 4732,
      "abel": 4733,
      "bringing": 4734,
      "sacred": 4735,
      "attended": 4736,
      "jonathan": 4737,
      "imposs": 4738,
      "register": 4739,
      "bat": 4740,
      "##anie": 4741,
      "upd": 4742,
      "depression": 4743,
      "officer": 4744,
      "faithfulness": 4745,
      "##righteous": 4746,
      "##ening": 4747,
      "##ulations": 4748,
      "ai": 4749,
      "##zer": 4750,
      "suff": 4751,
      "##unately": 4752,
      "length": 4753,
      "inhabitants": 4754,
      "##uit": 4755,
      "##astic": 4756,
      "committ": 4757,
      "relief": 4758,
      "ath": 4759,
      "300": 4760,
      "##por": 4761,
      "shar": 4762,
      "healing": 4763,
      "waste": 4764,
      "baptism": 4765,
      "settled": 4766,
      "stephen": 4767,
      "galatians": 4768,
      "conflict": 4769,
      "folks": 4770,
      "tank": 4771,
      "##father": 4772,
      "shr": 4773,
      "removed": 4774,
      "democr": 4775,
      "crucified": 4776,
      "gratitude": 4777,
      "##has": 4778,
      "adop": 4779,
      "continues": 4780,
      "##va": 4781,
      "performed": 4782,
      "##obe": 4783,
      "##pper": 4784,
      "understood": 4785,
      "elderly": 4786,
      "##lasting": 4787,
      "aside": 4788,
      "s0": 4789,
      "confir": 4790,
      "##lied": 4791,
      "##iots": 4792,
      "##gs": 4793,
      "nelson": 4794,
      "conqu": 4795,
      "seasons": 4796,
      "multip": 4797,
      "rod": 4798,
      "##thren": 4799,
      "everlasting": 4800,
      "2005": 4801,
      "##inese": 4802,
      "##ston": 4803,
      "apple": 4804,
      "brethren": 4805,
      "driving": 4806,
      "severe": 4807,
      "worst": 4808,
      "debt": 4809,
      "##eon": 4810,
      "seat": 4811,
      "rejected": 4812,
      "yh": 4813,
      "additional": 4814,
      "##oe": 4815,
      "sports": 4816,
      "unrighteous": 4817,
      "desired": 4818,
      "observe": 4819,
      "vac": 4820,
      "returning": 4821,
      "visited": 4822,
      "cell": 4823,
      "##ification": 4824,
      "leading": 4825,
      "##fection": 4826,
      "##ille": 4827,
      "policy": 4828,
      "species": 4829,
      "chinese": 4830,
      "teeth": 4831,
      "director": 4832,
      "##ife": 4833,
      "hence": 4834,
      "judea": 4835,
      "souls": 4836,
      "flying": 4837,
      "pornography": 4838,
      "definitely": 4839,
      "acknow": 4840,
      "rout": 4841,
      "stated": 4842,
      "player": 4843,
      "tent": 4844,
      "thie": 4845,
      "##amb": 4846,
      "breast": 4847,
      "verses": 4848,
      "##ita": 4849,
      "manif": 4850,
      "quit": 4851,
      "##after": 4852,
      "individuals": 4853,
      "impossible": 4854,
      "7th": 4855,
      "##cr": 4856,
      "frank": 4857,
      "prize": 4858,
      "abide": 4859,
      "expert": 4860,
      "##stand": 4861,
      "uses": 4862,
      "fox": 4863,
      "consci": 4864,
      "providing": 4865,
      "fran": 4866,
      "redeem": 4867,
      "pull": 4868,
      "##view": 4869,
      "bold": 4870,
      "ordered": 4871,
      "recorded": 4872,
      "seemed": 4873,
      "rebell": 4874,
      "ham": 4875,
      "disappoint": 4876,
      "ancestors": 4877,
      "mi": 4878,
      "recomm": 4879,
      "bones": 4880,
      "niger": 4881,
      "##sed": 4882,
      "eaten": 4883,
      "russian": 4884,
      "pool": 4885,
      "##lyn": 4886,
      "seeks": 4887,
      "includes": 4888,
      "average": 4889,
      "400": 4890,
      "theme": 4891,
      "finding": 4892,
      "setting": 4893,
      "bigger": 4894,
      "eleven": 4895,
      "##ania": 4896,
      "##ales": 4897,
      "sexy": 4898,
      "purchase": 4899,
      "meets": 4900,
      "##ani": 4901,
      "lips": 4902,
      "facts": 4903,
      "distress": 4904,
      "princess": 4905,
      "meantime": 4906,
      "machine": 4907,
      "gall": 4908,
      "rum": 4909,
      "rap": 4910,
      "ammon": 4911,
      "lions": 4912,
      "##izes": 4913,
      "paris": 4914,
      "completed": 4915,
      "etc": 4916,
      "frightened": 4917,
      "committee": 4918,
      "piss": 4919,
      "helpful": 4920,
      "christianity": 4921,
      "faces": 4922,
      "doctr": 4923,
      "##vis": 4924,
      "forgotten": 4925,
      "##head": 4926,
      "##raim": 4927,
      "unfort": 4928,
      "grant": 4929,
      "testament": 4930,
      "oce": 4931,
      "areas": 4932,
      "a2": 4933,
      "naomi": 4934,
      "behavior": 4935,
      "vin": 4936,
      "absol": 4937,
      "earn": 4938,
      "stranger": 4939,
      "eastern": 4940,
      "expected": 4941,
      "gay": 4942,
      "rebu": 4943,
      "responsibilities": 4944,
      "frequently": 4945,
      "woke": 4946,
      "existence": 4947,
      "recommend": 4948,
      "description": 4949,
      "##erous": 4950,
      "magn": 4951,
      "captured": 4952,
      "rebelled": 4953,
      "adultery": 4954,
      "mah": 4955,
      "##ona": 4956,
      "##ids": 4957,
      "resurrect": 4958,
      "described": 4959,
      "drank": 4960,
      "capable": 4961,
      "walls": 4962,
      "ahh": 4963,
      "hunger": 4964,
      "62": 4965,
      "accur": 4966,
      "slavery": 4967,
      "chron": 4968,
      "##asses": 4969,
      "log": 4970,
      "endures": 4971,
      "ephraim": 4972,
      "cas": 4973,
      "abuse": 4974,
      "aged": 4975,
      "symb": 4976,
      "distance": 4977,
      "resour": 4978,
      "rulers": 4979,
      "motor": 4980,
      "conscience": 4981,
      "##back": 4982,
      "laughed": 4983,
      "iniquity": 4984,
      "jn": 4985,
      "granted": 4986,
      "affected": 4987,
      "##uries": 4988,
      "persons": 4989,
      "##ursed": 4990,
      "application": 4991,
      "sant": 4992,
      "leban": 4993,
      "bush": 4994,
      "occas": 4995,
      "gri": 4996,
      "tick": 4997,
      "ana": 4998,
      "causes": 4999,
      "diet": 5000,
      "##car": 5001,
      "match": 5002,
      "##uced": 5003,
      "##alled": 5004,
      "singing": 5005,
      "begins": 5006,
      "grie": 5007,
      "scream": 5008,
      "bask": 5009,
      "museum": 5010,
      "pin": 5011,
      "##ero": 5012,
      "##iment": 5013,
      "broad": 5014,
      "agreement": 5015,
      "financial": 5016,
      "ju": 5017,
      "relative": 5018,
      "hd": 5019,
      "##ji": 5020,
      "##lehem": 5021,
      "celebration": 5022,
      "bethlehem": 5023,
      "concern": 5024,
      "establish": 5025,
      "viney": 5026,
      "convinced": 5027,
      "wik": 5028,
      "bord": 5029,
      "credit": 5030,
      "subs": 5031,
      "quotes": 5032,
      "engaged": 5033,
      "matters": 5034,
      "##mer": 5035,
      "##ater": 5036,
      "##rap": 5037,
      "surf": 5038,
      "profess": 5039,
      "rub": 5040,
      "##ault": 5041,
      "intellig": 5042,
      "putting": 5043,
      "biggest": 5044,
      "##lection": 5045,
      "stream": 5046,
      "grain": 5047,
      "##icus": 5048,
      "##rus": 5049,
      "nehem": 5050,
      "##oboam": 5051,
      "tribulation": 5052,
      "comfortable": 5053,
      "ros": 5054,
      "diagn": 5055,
      "chair": 5056,
      "dee": 5057,
      "jeroboam": 5058,
      "products": 5059,
      "##oying": 5060,
      "gene": 5061,
      "##ja": 5062,
      "levites": 5063,
      "treasure": 5064,
      "sweden": 5065,
      "nehemiah": 5066,
      "borrow": 5067,
      "ox": 5068,
      "##rates": 5069,
      "quar": 5070,
      "screw": 5071,
      "confused": 5072,
      "welcomed": 5073,
      "memories": 5074,
      "hurting": 5075,
      "afford": 5076,
      "kenya": 5077,
      "##iron": 5078,
      "whenever": 5079,
      "function": 5080,
      "winning": 5081,
      "samaritans": 5082,
      "heed": 5083,
      "##ifying": 5084,
      "scene": 5085,
      "##hammad": 5086,
      "dude": 5087,
      "lights": 5088,
      "drew": 5089,
      "##oices": 5090,
      "emer": 5091,
      "morm": 5092,
      "forsake": 5093,
      "dw": 5094,
      "ire": 5095,
      "cared": 5096,
      "anxiety": 5097,
      "kjv": 5098,
      "mm": 5099,
      "interests": 5100,
      "escaped": 5101,
      "victor": 5102,
      "proclaimed": 5103,
      "dy": 5104,
      "##time": 5105,
      "russia": 5106,
      "##vey": 5107,
      "##aging": 5108,
      "stronger": 5109,
      "favour": 5110,
      "abundance": 5111,
      "obviously": 5112,
      "shock": 5113,
      "##rah": 5114,
      "holds": 5115,
      "sed": 5116,
      "##odes": 5117,
      "waited": 5118,
      "##ension": 5119,
      "earlier": 5120,
      "channel": 5121,
      "ada": 5122,
      "southern": 5123,
      "laughing": 5124,
      "pitch": 5125,
      "##rum": 5126,
      "##erves": 5127,
      "unfortunately": 5128,
      "2001": 5129,
      "posted": 5130,
      "rocks": 5131,
      "western": 5132,
      "ours": 5133,
      "##iny": 5134,
      "ocean": 5135,
      "95": 5136,
      "jay": 5137,
      "qur": 5138,
      "##nis": 5139,
      "cleans": 5140,
      "imit": 5141,
      "farewell": 5142,
      "thieves": 5143,
      "max": 5144,
      "histor": 5145,
      "pope": 5146,
      "turning": 5147,
      "obama": 5148,
      "voted": 5149,
      "##rs": 5150,
      "##wa": 5151,
      "forb": 5152,
      "soldier": 5153,
      "flowers": 5154,
      "palace": 5155,
      "lebanon": 5156,
      "gas": 5157,
      "##aign": 5158,
      "herself": 5159,
      "prost": 5160,
      "imper": 5161,
      "##vere": 5162,
      "org": 5163,
      "prosper": 5164,
      "oblig": 5165,
      "friendly": 5166,
      "activities": 5167,
      "overcome": 5168,
      "##engers": 5169,
      "##bi": 5170,
      "humanity": 5171,
      "judgments": 5172,
      "submit": 5173,
      "gn": 5174,
      "wt": 5175,
      "hundreds": 5176,
      "argum": 5177,
      "finger": 5178,
      "tatt": 5179,
      "ages": 5180,
      "##phem": 5181,
      "campaign": 5182,
      "football": 5183,
      "occurred": 5184,
      "72": 5185,
      "nut": 5186,
      "wave": 5187,
      "accursed": 5188,
      "recently": 5189,
      "multitude": 5190,
      "1914": 5191,
      "emotions": 5192,
      "cos": 5193,
      "eric": 5194,
      "##gu": 5195,
      "##ato": 5196,
      "compare": 5197,
      "beasts": 5198,
      "korea": 5199,
      "fant": 5200,
      "##nal": 5201,
      "wee": 5202,
      "opening": 5203,
      "winner": 5204,
      "tough": 5205,
      "##acing": 5206,
      "numerous": 5207,
      "reminded": 5208,
      "glorify": 5209,
      "satisfied": 5210,
      "alph": 5211,
      "predict": 5212,
      "##sell": 5213,
      "##oting": 5214,
      "phr": 5215,
      "drinks": 5216,
      "tattoo": 5217,
      "mask": 5218,
      "##lement": 5219,
      "##ila": 5220,
      "poured": 5221,
      "memorial": 5222,
      "800": 5223,
      "mistake": 5224,
      "ron": 5225,
      "novel": 5226,
      "plagues": 5227,
      "active": 5228,
      "crowds": 5229,
      "hook": 5230,
      "hug": 5231,
      "tiger": 5232,
      "##ili": 5233,
      "publish": 5234,
      "root": 5235,
      "girlfriend": 5236,
      "complain": 5237,
      "privile": 5238,
      "material": 5239,
      "global": 5240,
      "lisa": 5241,
      "##fast": 5242,
      "asian": 5243,
      "instantly": 5244,
      "election": 5245,
      "captain": 5246,
      "challenge": 5247,
      "contrary": 5248,
      "absolute": 5249,
      "goals": 5250,
      "deaf": 5251,
      "##roll": 5252,
      "blas": 5253,
      "##when": 5254,
      "magazine": 5255,
      "notes": 5256,
      "robert": 5257,
      "flower": 5258,
      "religions": 5259,
      "taxes": 5260,
      "##ropri": 5261,
      "edom": 5262,
      "lic": 5263,
      "strange": 5264,
      "studies": 5265,
      "grandfather": 5266,
      "tabern": 5267,
      "##ione": 5268,
      "confess": 5269,
      "failure": 5270,
      "persecute": 5271,
      "69": 5272,
      "ahhh": 5273,
      "##of": 5274,
      "spar": 5275,
      "dressed": 5276,
      "imprison": 5277,
      "aids": 5278,
      "##aves": 5279,
      "##oms": 5280,
      "##uten": 5281,
      "aston": 5282,
      "##iable": 5283,
      "repro": 5284,
      "discipline": 5285,
      "variety": 5286,
      "ka": 5287,
      "##pers": 5288,
      "##ano": 5289,
      "neb": 5290,
      "##ivity": 5291,
      "commander": 5292,
      "charl": 5293,
      "transform": 5294,
      "ignor": 5295,
      "degree": 5296,
      "mort": 5297,
      "maria": 5298,
      "cale": 5299,
      "bm": 5300,
      "ali": 5301,
      "offerings": 5302,
      "labour": 5303,
      "records": 5304,
      "godd": 5305,
      "rate": 5306,
      "##ii": 5307,
      "##king": 5308,
      "happiest": 5309,
      "possessions": 5310,
      "limit": 5311,
      "jes": 5312,
      "##mar": 5313,
      "thread": 5314,
      "##itution": 5315,
      "seized": 5316,
      "load": 5317,
      "weekly": 5318,
      "##annah": 5319,
      "5th": 5320,
      "##rate": 5321,
      "diseases": 5322,
      "blasphem": 5323,
      "##irs": 5324,
      "advent": 5325,
      "referring": 5326,
      "##bon": 5327,
      "edward": 5328,
      "swear": 5329,
      "meditate": 5330,
      "environ": 5331,
      "nlt": 5332,
      "unit": 5333,
      "sweat": 5334,
      "yoga": 5335,
      "thirsty": 5336,
      "##ini": 5337,
      "trinity": 5338,
      "dawn": 5339,
      "pleasing": 5340,
      "recover": 5341,
      "province": 5342,
      "witch": 5343,
      "dedicated": 5344,
      "symbol": 5345,
      "exal": 5346,
      "northern": 5347,
      "islands": 5348,
      "samaria": 5349,
      "management": 5350,
      "os": 5351,
      "##nda": 5352,
      "##uri": 5353,
      "yhwh": 5354,
      "showing": 5355,
      "studied": 5356,
      "##bby": 5357,
      "ireland": 5358,
      "pig": 5359,
      "anywhere": 5360,
      "##assed": 5361,
      "cock": 5362,
      "##oyed": 5363,
      "wheel": 5364,
      "ninety": 5365,
      "##chariah": 5366,
      "merely": 5367,
      "rough": 5368,
      "##taining": 5369,
      "block": 5370,
      "parade": 5371,
      "8th": 5372,
      "##cs": 5373,
      "owned": 5374,
      "##elle": 5375,
      "hes": 5376,
      "wond": 5377,
      "integr": 5378,
      "renew": 5379,
      "unclean": 5380,
      "describes": 5381,
      "zealand": 5382,
      "eager": 5383,
      "baptize": 5384,
      "interesting": 5385,
      "##arr": 5386,
      "##tered": 5387,
      "trail": 5388,
      "moreover": 5389,
      "growth": 5390,
      "bury": 5391,
      "jackson": 5392,
      "invite": 5393,
      "winds": 5394,
      "estim": 5395,
      "mourn": 5396,
      "loan": 5397,
      "oath": 5398,
      "##fa": 5399,
      "##ird": 5400,
      "becoming": 5401,
      "legs": 5402,
      "rising": 5403,
      "coo": 5404,
      "##erna": 5405,
      "##ounding": 5406,
      "county": 5407,
      "beliefs": 5408,
      "##nesday": 5409,
      "conference": 5410,
      "##otion": 5411,
      "prophes": 5412,
      "##gery": 5413,
      "6th": 5414,
      "palm": 5415,
      "johnson": 5416,
      "momma": 5417,
      "eleph": 5418,
      "agreed": 5419,
      "furn": 5420,
      "anon": 5421,
      "missed": 5422,
      "banned": 5423,
      "jam": 5424,
      "##urt": 5425,
      "##road": 5426,
      "clim": 5427,
      "merciful": 5428,
      "##isc": 5429,
      "ink": 5430,
      "wearing": 5431,
      "##uded": 5432,
      "watched": 5433,
      "praised": 5434,
      "encouraged": 5435,
      "possessed": 5436,
      "status": 5437,
      "##inated": 5438,
      "otherwise": 5439,
      "2003": 5440,
      "planet": 5441,
      "gained": 5442,
      "celebrated": 5443,
      "karen": 5444,
      "sinner": 5445,
      "damned": 5446,
      "zechariah": 5447,
      "approached": 5448,
      "a1": 5449,
      "##athy": 5450,
      "writ": 5451,
      "sanctuary": 5452,
      "roo": 5453,
      "sens": 5454,
      "##aker": 5455,
      "portra": 5456,
      "ephesus": 5457,
      "abort": 5458,
      "deserve": 5459,
      "regret": 5460,
      "exciting": 5461,
      "literally": 5462,
      "rus": 5463,
      "##kn": 5464,
      "##ician": 5465,
      "scattered": 5466,
      "awww": 5467,
      "bitter": 5468,
      "mobile": 5469,
      "wednesday": 5470,
      "ns": 5471,
      "pac": 5472,
      "##ull": 5473,
      "##angel": 5474,
      "muhammad": 5475,
      "sends": 5476,
      "included": 5477,
      "hills": 5478,
      "##cul": 5479,
      "##cles": 5480,
      "##atherine": 5481,
      "lands": 5482,
      "swall": 5483,
      "##ground": 5484,
      "defense": 5485,
      "features": 5486,
      "victim": 5487,
      "temptation": 5488,
      "##ades": 5489,
      "officers": 5490,
      "effects": 5491,
      "environment": 5492,
      "lame": 5493,
      "##lech": 5494,
      "coach": 5495,
      "nav": 5496,
      "##ota": 5497,
      "econom": 5498,
      "likes": 5499,
      "subt": 5500,
      "communication": 5501,
      "depends": 5502,
      "az": 5503,
      "crimin": 5504,
      "sched": 5505,
      "declares": 5506,
      "micah": 5507,
      "cattle": 5508,
      "explan": 5509,
      "caperna": 5510,
      "##ami": 5511,
      "##iring": 5512,
      "stage": 5513,
      "nearby": 5514,
      "capernaum": 5515,
      "a4": 5516,
      "pier": 5517,
      "yay": 5518,
      "wondering": 5519,
      "square": 5520,
      "medicine": 5521,
      "file": 5522,
      "constant": 5523,
      "definition": 5524,
      "##itudes": 5525,
      "doors": 5526,
      "600": 5527,
      "dur": 5528,
      "##mo": 5529,
      "gilead": 5530,
      "breaking": 5531,
      "fewer": 5532,
      "greece": 5533,
      "saviour": 5534,
      "##sey": 5535,
      "fields": 5536,
      "instructions": 5537,
      "cig": 5538,
      "dj": 5539,
      "meow": 5540,
      "elisha": 5541,
      "sits": 5542,
      "iv": 5543,
      "##coming": 5544,
      "##ali": 5545,
      "whats": 5546,
      "sixth": 5547,
      "construction": 5548,
      "drugs": 5549,
      "##antic": 5550,
      "exposed": 5551,
      "crush": 5552,
      "fucked": 5553,
      "mouths": 5554,
      "designed": 5555,
      "budd": 5556,
      "##asc": 5557,
      "preparing": 5558,
      "nurse": 5559,
      "smiled": 5560,
      "##asha": 5561,
      "arrest": 5562,
      "nkjv": 5563,
      "sought": 5564,
      "##inary": 5565,
      "private": 5566,
      "jealousy": 5567,
      "brian": 5568,
      "range": 5569,
      "##aper": 5570,
      "bedroom": 5571,
      "samaritan": 5572,
      "principles": 5573,
      "##uting": 5574,
      "anth": 5575,
      "reveal": 5576,
      "wonders": 5577,
      "cash": 5578,
      "losing": 5579,
      "armies": 5580,
      "marvel": 5581,
      "warned": 5582,
      "error": 5583,
      "terrible": 5584,
      "cries": 5585,
      "pione": 5586,
      "yellow": 5587,
      "document": 5588,
      "##30": 5589,
      "##lla": 5590,
      "worsh": 5591,
      "150": 5592,
      "##whel": 5593,
      "maintain": 5594,
      "http": 5595,
      "tun": 5596,
      "od": 5597,
      "##ainted": 5598,
      "aqu": 5599,
      "##anced": 5600,
      "needy": 5601,
      "difficulty": 5602,
      "row": 5603,
      "mormon": 5604,
      "bang": 5605,
      "comforted": 5606,
      "electric": 5607,
      "toy": 5608,
      "crash": 5609,
      "movement": 5610,
      "##worthy": 5611,
      "por": 5612,
      "wifi": 5613,
      "##aman": 5614,
      "scott": 5615,
      "distrib": 5616,
      "reference": 5617,
      "katie": 5618,
      "ko": 5619,
      "scary": 5620,
      "transgress": 5621,
      "strike": 5622,
      "efforts": 5623,
      "trumpet": 5624,
      "wtf": 5625,
      "shake": 5626,
      "jos": 5627,
      "##ipe": 5628,
      "keeps": 5629,
      "cris": 5630,
      "samson": 5631,
      "skills": 5632,
      "demo": 5633,
      "brave": 5634,
      "vehicle": 5635,
      "doctrine": 5636,
      "##rian": 5637,
      "##rove": 5638,
      "washed": 5639,
      "ascending": 5640,
      "circumc": 5641,
      "knee": 5642,
      "sinai": 5643,
      "babies": 5644,
      "diam": 5645,
      "fifth": 5646,
      "increased": 5647,
      "##cast": 5648,
      "changing": 5649,
      "resurrected": 5650,
      "boss": 5651,
      "testified": 5652,
      "virt": 5653,
      "disappear": 5654,
      "clouds": 5655,
      "nephi": 5656,
      "##itar": 5657,
      "upset": 5658,
      "journal": 5659,
      "qualities": 5660,
      "ease": 5661,
      "##oni": 5662,
      "inqu": 5663,
      "hail": 5664,
      "quote": 5665,
      "territ": 5666,
      "##ym": 5667,
      "##15": 5668,
      "##ora": 5669,
      "admin": 5670,
      "appearance": 5671,
      "bomb": 5672,
      "haha": 5673,
      "closed": 5674,
      "warri": 5675,
      "strengthen": 5676,
      "produced": 5677,
      "florida": 5678,
      "exalted": 5679,
      "forces": 5680,
      "forced": 5681,
      "##icient": 5682,
      "parl": 5683,
      "wickedness": 5684,
      "selling": 5685,
      "cigar": 5686,
      "##etic": 5687,
      "brief": 5688,
      "cruel": 5689,
      "surgery": 5690,
      "charles": 5691,
      "affects": 5692,
      "han": 5693,
      "shape": 5694,
      "saith": 5695,
      "reveals": 5696,
      "rand": 5697,
      "tabernacle": 5698,
      "dating": 5699,
      "appoint": 5700,
      "essential": 5701,
      "professional": 5702,
      "dv": 5703,
      "mig": 5704,
      "##aud": 5705,
      "##elled": 5706,
      "apologize": 5707,
      "synagogues": 5708,
      "##ago": 5709,
      "veget": 5710,
      "presented": 5711,
      "##aphat": 5712,
      "##ked": 5713,
      "##asse": 5714,
      "advert": 5715,
      "honored": 5716,
      "aim": 5717,
      "everyday": 5718,
      "dancing": 5719,
      "formed": 5720,
      "##edy": 5721,
      "height": 5722,
      "drunk": 5723,
      "demonstr": 5724,
      "innoc": 5725,
      "##ding": 5726,
      "##icho": 5727,
      "roll": 5728,
      "insight": 5729,
      "declare": 5730,
      "ensure": 5731,
      "jehosh": 5732,
      "option": 5733,
      "newsp": 5734,
      "supper": 5735,
      "aa": 5736,
      "rent": 5737,
      "interpre": 5738,
      "roof": 5739,
      "##arily": 5740,
      "conc": 5741,
      "##iana": 5742,
      "recent": 5743,
      "punished": 5744,
      "abandon": 5745,
      "2002": 5746,
      "authorities": 5747,
      "directed": 5748,
      "basket": 5749,
      "yoke": 5750,
      "conver": 5751,
      "marie": 5752,
      "commer": 5753,
      "garments": 5754,
      "pak": 5755,
      "soph": 5756,
      "flag": 5757,
      "articles": 5758,
      "##resp": 5759,
      "struggling": 5760,
      "cous": 5761,
      "##jo": 5762,
      "reads": 5763,
      "##ughty": 5764,
      "empt": 5765,
      "jane": 5766,
      "disappointed": 5767,
      "appeal": 5768,
      "jehoshaphat": 5769,
      "uh": 5770,
      "##pping": 5771,
      "brad": 5772,
      "lawful": 5773,
      "reader": 5774,
      "condemn": 5775,
      "ult": 5776,
      "##giving": 5777,
      "produce": 5778,
      "bt": 5779,
      "tob": 5780,
      "##ching": 5781,
      "messengers": 5782,
      "orders": 5783,
      "chicken": 5784,
      "##ayed": 5785,
      "secure": 5786,
      "highly": 5787,
      "embr": 5788,
      "recognized": 5789,
      "tweets": 5790,
      "unbelie": 5791,
      "##oll": 5792,
      "weigh": 5793,
      "schol": 5794,
      "##crib": 5795,
      "##ein": 5796,
      "arise": 5797,
      "slain": 5798,
      "native": 5799,
      "##atory": 5800,
      "##eding": 5801,
      "lew": 5802,
      "homework": 5803,
      "silas": 5804,
      "production": 5805,
      "pad": 5806,
      "poll": 5807,
      "##brance": 5808,
      "association": 5809,
      "bs": 5810,
      "les": 5811,
      "lit": 5812,
      "##tower": 5813,
      "##cket": 5814,
      "accomplish": 5815,
      "##bre": 5816,
      "##win": 5817,
      "los": 5818,
      "##umble": 5819,
      "lean": 5820,
      "discouraged": 5821,
      "jericho": 5822,
      "##ruption": 5823,
      "audience": 5824,
      "competition": 5825,
      "aunt": 5826,
      "cab": 5827,
      "##esty": 5828,
      "manager": 5829,
      "worker": 5830,
      "endure": 5831,
      "instance": 5832,
      "##ari": 5833,
      "perce": 5834,
      "applies": 5835,
      "turns": 5836,
      "injury": 5837,
      "vineyard": 5838,
      "ari": 5839,
      "ding": 5840,
      "##idents": 5841,
      "noted": 5842,
      "relatives": 5843,
      "attached": 5844,
      "instruction": 5845,
      "worshiped": 5846,
      "americans": 5847,
      "##bur": 5848,
      "unp": 5849,
      "##ift": 5850,
      "anybody": 5851,
      "selfie": 5852,
      "adapt": 5853,
      "gab": 5854,
      "##bl": 5855,
      "hallow": 5856,
      "shared": 5857,
      "sentence": 5858,
      "watchtower": 5859,
      "empire": 5860,
      "##ecies": 5861,
      "utter": 5862,
      "ky": 5863,
      "mam": 5864,
      "##ula": 5865,
      "grief": 5866,
      "scen": 5867,
      "contract": 5868,
      "decre": 5869,
      "schools": 5870,
      "requires": 5871,
      "grandma": 5872,
      "offers": 5873,
      "a3": 5874,
      "##place": 5875,
      "wikip": 5876,
      "##isy": 5877,
      "initi": 5878,
      "##itation": 5879,
      "ade": 5880,
      "officials": 5881,
      "hannah": 5882,
      "league": 5883,
      "essay": 5884,
      "hmmm": 5885,
      "##night": 5886,
      "unl": 5887,
      "emphas": 5888,
      "diagnosed": 5889,
      "awe": 5890,
      "hiv": 5891,
      "##ords": 5892,
      "##osoph": 5893,
      "rush": 5894,
      "##cis": 5895,
      "cru": 5896,
      "prophecies": 5897,
      "movies": 5898,
      "citizen": 5899,
      "significant": 5900,
      "dub": 5901,
      "scored": 5902,
      "sales": 5903,
      "##ipping": 5904,
      "eventually": 5905,
      "possession": 5906,
      "suggestions": 5907,
      "##known": 5908,
      "sail": 5909,
      "loaves": 5910,
      "unknown": 5911,
      "baal": 5912,
      "passage": 5913,
      "exhib": 5914,
      "wikipedia": 5915,
      "##ateg": 5916,
      "grass": 5917,
      "stead": 5918,
      "98": 5919,
      "##itage": 5920,
      "pron": 5921,
      "pissed": 5922,
      "##aming": 5923,
      "brook": 5924,
      "interview": 5925,
      "kingdoms": 5926,
      "luc": 5927,
      "survived": 5928,
      "##13": 5929,
      "laura": 5930,
      "robb": 5931,
      "assum": 5932,
      "cannab": 5933,
      "sounds": 5934,
      "turkey": 5935,
      "remembrance": 5936,
      "nigeria": 5937,
      "bmw": 5938,
      "bite": 5939,
      "menu": 5940,
      "supporting": 5941,
      "deny": 5942,
      "occasion": 5943,
      "cs": 5944,
      "##urb": 5945,
      "##ifer": 5946,
      "laun": 5947,
      "1000": 5948,
      "overwhel": 5949,
      "terror": 5950,
      "paths": 5951,
      "discovered": 5952,
      "appropri": 5953,
      "hawai": 5954,
      "bone": 5955,
      "##akers": 5956,
      "##epend": 5957,
      "larger": 5958,
      "97": 5959,
      "faced": 5960,
      "handle": 5961,
      "impressed": 5962,
      "bern": 5963,
      "philosoph": 5964,
      "urge": 5965,
      "reigned": 5966,
      "shopping": 5967,
      "stealing": 5968,
      "volun": 5969,
      "neglect": 5970,
      "russell": 5971,
      "63": 5972,
      "rans": 5973,
      "justified": 5974,
      "obeyed": 5975,
      "##kin": 5976,
      "spl": 5977,
      "steve": 5978,
      "scientific": 5979,
      "ax": 5980,
      "##ko": 5981,
      "knife": 5982,
      "standard": 5983,
      "views": 5984,
      "profit": 5985,
      "favorite": 5986,
      "88": 5987,
      "thanksgiving": 5988,
      "mandela": 5989,
      "78": 5990,
      "champ": 5991,
      "##eline": 5992,
      "admon": 5993,
      "sammy": 5994,
      "passing": 5995,
      "excuse": 5996,
      "pakistan": 5997,
      "regularly": 5998,
      "scientists": 5999,
      "pear": 6000,
      "dism": 6001,
      "prisoners": 6002,
      "performance": 6003,
      "adjust": 6004,
      "baptizing": 6005,
      "primary": 6006,
      "fate": 6007,
      "##aration": 6008,
      "heritage": 6009,
      "obtain": 6010,
      "snake": 6011,
      "##asm": 6012,
      "phrase": 6013,
      "bore": 6014,
      "ven": 6015,
      "192": 6016,
      "chariots": 6017,
      "eh": 6018,
      "##gia": 6019,
      "##istic": 6020,
      "freely": 6021,
      "solve": 6022,
      "rebek": 6023,
      "determined": 6024,
      "parliam": 6025,
      "89": 6026,
      "mcc": 6027,
      "##ibility": 6028,
      "##anged": 6029,
      "bears": 6030,
      "totally": 6031,
      "opposite": 6032,
      "jess": 6033,
      "accomplished": 6034,
      "santa": 6035,
      "sang": 6036,
      "##e0": 6037,
      "anyway": 6038,
      "motiv": 6039,
      "##aur": 6040,
      "items": 6041,
      "paying": 6042,
      "approved": 6043,
      "portion": 6044,
      "summary": 6045,
      "##here": 6046,
      "##ala": 6047,
      "planted": 6048,
      "boston": 6049,
      "carpent": 6050,
      "prisoner": 6051,
      "camera": 6052,
      "integrity": 6053,
      "sust": 6054,
      "goats": 6055,
      "solid": 6056,
      "neighbour": 6057,
      "cu": 6058,
      "ez": 6059,
      "tall": 6060,
      "existed": 6061,
      "rank": 6062,
      "##kend": 6063,
      "expression": 6064,
      "##hhhhh": 6065,
      "levi": 6066,
      "79": 6067,
      "gib": 6068,
      "##bow": 6069,
      "##vant": 6070,
      "##oles": 6071,
      "scor": 6072,
      "##she": 6073,
      "cursed": 6074,
      "anxious": 6075,
      "guidance": 6076,
      "61": 6077,
      "144": 6078,
      "##ighth": 6079,
      "foundations": 6080,
      "pulled": 6081,
      "cannabis": 6082,
      "gide": 6083,
      "ug": 6084,
      "##areness": 6085,
      "##ulous": 6086,
      "excl": 6087,
      "exists": 6088,
      "##emic": 6089,
      "causing": 6090,
      "refuse": 6091,
      "separated": 6092,
      "surrounded": 6093,
      "supreme": 6094,
      "parliament": 6095,
      "dat": 6096,
      "fab": 6097,
      "anal": 6098,
      "tooth": 6099,
      "deserves": 6100,
      "testing": 6101,
      "awareness": 6102,
      "ruled": 6103,
      "participants": 6104,
      "dollars": 6105,
      "kong": 6106,
      "viet": 6107,
      "##illy": 6108,
      "reports": 6109,
      "bottom": 6110,
      "nathan": 6111,
      "25th": 6112,
      "communicate": 6113,
      "basic": 6114,
      "neighbors": 6115,
      "mason": 6116,
      "prime": 6117,
      "##illa": 6118,
      "plants": 6119,
      "injured": 6120,
      "##oom": 6121,
      "beef": 6122,
      "##iding": 6123,
      "exch": 6124,
      "##igg": 6125,
      "relating": 6126,
      "relationships": 6127,
      "rebekah": 6128,
      "77": 6129,
      "##zzar": 6130,
      "wondered": 6131,
      "email": 6132,
      "participate": 6133,
      "sport": 6134,
      "##umn": 6135,
      "womb": 6136,
      "painting": 6137,
      "deeply": 6138,
      "budget": 6139,
      "interpretation": 6140,
      "sri": 6141,
      "shortly": 6142,
      "1999": 6143,
      "##ingu": 6144,
      "##adne": 6145,
      "independ": 6146,
      "founded": 6147,
      "affl": 6148,
      "claims": 6149,
      "accompan": 6150,
      "associated": 6151,
      "activity": 6152,
      "67": 6153,
      "samp": 6154,
      "##lah": 6155,
      "##iance": 6156,
      "knees": 6157,
      "prefer": 6158,
      "guilt": 6159,
      "invis": 6160,
      "emotion": 6161,
      "hypocrites": 6162,
      "remarkable": 6163,
      "##gend": 6164,
      "fee": 6165,
      "deaths": 6166,
      "consists": 6167,
      "titus": 6168,
      "reaching": 6169,
      "missionary": 6170,
      "francis": 6171,
      "eighth": 6172,
      "gary": 6173,
      "nose": 6174,
      "poem": 6175,
      "assured": 6176,
      "wins": 6177,
      "emper": 6178,
      "britain": 6179,
      "loose": 6180,
      "85": 6181,
      "cro": 6182,
      "deals": 6183,
      "##onym": 6184,
      "referred": 6185,
      "damas": 6186,
      "safely": 6187,
      "discussion": 6188,
      "omg": 6189,
      "nebuch": 6190,
      "gideon": 6191,
      "thick": 6192,
      "sovere": 6193,
      "fears": 6194,
      "sending": 6195,
      "previously": 6196,
      "majority": 6197,
      "volunte": 6198,
      "dave": 6199,
      "supply": 6200,
      "##imelech": 6201,
      "telephone": 6202,
      "diamond": 6203,
      "sovereign": 6204,
      "##isted": 6205,
      "responds": 6206,
      "corner": 6207,
      "dir": 6208,
      "lunch": 6209,
      "pag": 6210,
      "amb": 6211,
      "indic": 6212,
      "restored": 6213,
      "adams": 6214,
      "assigned": 6215,
      "weekend": 6216,
      "struct": 6217,
      "corruption": 6218,
      "chapters": 6219,
      "border": 6220,
      "territory": 6221,
      "ezek": 6222,
      "las": 6223,
      "flu": 6224,
      "jeff": 6225,
      "straw": 6226,
      "forbid": 6227,
      "damascus": 6228,
      "jab": 6229,
      "nov": 6230,
      "judgement": 6231,
      "tribute": 6232,
      "troubled": 6233,
      "washington": 6234,
      "sparrows": 6235,
      "explanation": 6236,
      "tony": 6237,
      "legend": 6238,
      "serves": 6239,
      "emily": 6240,
      "planning": 6241,
      "encoura": 6242,
      "apartment": 6243,
      "latest": 6244,
      "rivers": 6245,
      "nebuchadne": 6246,
      "82": 6247,
      "bh": 6248,
      "jesse": 6249,
      "yan": 6250,
      "##field": 6251,
      "enoch": 6252,
      "##rene": 6253,
      "helper": 6254,
      "yea": 6255,
      "attorn": 6256,
      "urged": 6257,
      "audio": 6258,
      "treasures": 6259,
      "eagle": 6260,
      "nebuchadnezzar": 6261,
      "lover": 6262,
      "proceed": 6263,
      "sets": 6264,
      "greeks": 6265,
      "privilege": 6266,
      "sharing": 6267,
      "##aha": 6268,
      "valent": 6269,
      "encoun": 6270,
      "waves": 6271,
      "habits": 6272,
      "betrayed": 6273,
      "##cra": 6274,
      "bethany": 6275,
      "guns": 6276,
      "instructed": 6277,
      "investig": 6278,
      "muslim": 6279,
      "professor": 6280,
      "dvd": 6281,
      "cub": 6282,
      "fame": 6283,
      "gom": 6284,
      "slept": 6285,
      "cham": 6286,
      "runs": 6287,
      "seconds": 6288,
      "naughty": 6289,
      "convention": 6290,
      "consciousness": 6291,
      "nah": 6292,
      "py": 6293,
      "##uf": 6294,
      "prophesy": 6295,
      "occup": 6296,
      "bind": 6297,
      "##alom": 6298,
      "trick": 6299,
      "restore": 6300,
      "reproach": 6301,
      "kay": 6302,
      "suz": 6303,
      "plus": 6304,
      "acknowled": 6305,
      "rebellion": 6306,
      "resources": 6307,
      "mood": 6308,
      "##orah": 6309,
      "worlds": 6310,
      "suppose": 6311,
      "bitch": 6312,
      "##life": 6313,
      "sne": 6314,
      "mindful": 6315,
      "paint": 6316,
      "plot": 6317,
      "firstborn": 6318,
      "persu": 6319,
      "switch": 6320,
      "##parents": 6321,
      "leaves": 6322,
      "powers": 6323,
      "astonished": 6324,
      "emperor": 6325,
      "jeph": 6326,
      "##gen": 6327,
      "##ville": 6328,
      "##ira": 6329,
      "carol": 6330,
      "amazon": 6331,
      "effective": 6332,
      "##rant": 6333,
      "gosh": 6334,
      "seated": 6335,
      "##oda": 6336,
      "returns": 6337,
      "##ashing": 6338,
      "signed": 6339,
      "submitted": 6340,
      "assistance": 6341,
      "launched": 6342,
      "cens": 6343,
      "ec": 6344,
      "##uous": 6345,
      "companies": 6346,
      "carpenter": 6347,
      "ezekiel": 6348,
      "pump": 6349,
      "##17": 6350,
      "anan": 6351,
      "welcomes": 6352,
      "sickness": 6353,
      "traveling": 6354,
      "pity": 6355,
      "##anne": 6356,
      "hiding": 6357,
      "74": 6358,
      "cart": 6359,
      "##ially": 6360,
      "##df": 6361,
      "##oon": 6362,
      "##you": 6363,
      "loses": 6364,
      "##oses": 6365,
      "mothers": 6366,
      "assy": 6367,
      "ruined": 6368,
      "branch": 6369,
      "intend": 6370,
      "##iber": 6371,
      "embarr": 6372,
      "expensive": 6373,
      "engage": 6374,
      "bowl": 6375,
      "possibly": 6376,
      "invisible": 6377,
      "hong": 6378,
      "##ych": 6379,
      "##utation": 6380,
      "selection": 6381,
      "goods": 6382,
      "starts": 6383,
      "slaught": 6384,
      "ital": 6385,
      "surprising": 6386,
      "descending": 6387,
      "citizens": 6388,
      "aro": 6389,
      "diver": 6390,
      "anton": 6391,
      "answering": 6392,
      "payment": 6393,
      "supports": 6394,
      "damage": 6395,
      "surre": 6396,
      "graduated": 6397,
      "##off": 6398,
      "##18": 6399,
      "##16": 6400,
      "##encing": 6401,
      "fans": 6402,
      "fred": 6403,
      "##pected": 6404,
      "nik": 6405,
      "chain": 6406,
      "whosoever": 6407,
      "##una": 6408,
      "abandoned": 6409,
      "portrait": 6410,
      "math": 6411,
      "ooooo": 6412,
      "hole": 6413,
      "evolution": 6414,
      "maid": 6415,
      "conditions": 6416,
      "bbc": 6417,
      "normal": 6418,
      "##iation": 6419,
      "##non": 6420,
      "##down": 6421,
      "##acious": 6422,
      "abo": 6423,
      "blond": 6424,
      "##empl": 6425,
      "partners": 6426,
      "raw": 6427,
      "levit": 6428,
      "cooking": 6429,
      "##abled": 6430,
      "##roid": 6431,
      "spiritually": 6432,
      "huh": 6433,
      "defeated": 6434,
      "tossed": 6435,
      "##asseh": 6436,
      "##rain": 6437,
      "noise": 6438,
      "aspect": 6439,
      "unex": 6440,
      "mirror": 6441,
      "bethel": 6442,
      "examine": 6443,
      "announce": 6444,
      "hagar": 6445,
      "shaw": 6446,
      "bug": 6447,
      "symp": 6448,
      "##anka": 6449,
      "requested": 6450,
      "discussed": 6451,
      "gro": 6452,
      "##uine": 6453,
      "rein": 6454,
      "colour": 6455,
      "##ribes": 6456,
      "bowed": 6457,
      "tip": 6458,
      "##rick": 6459,
      "meek": 6460,
      "manasseh": 6461,
      "reliable": 6462,
      "portug": 6463,
      "nasb": 6464,
      "route": 6465,
      "thri": 6466,
      "meg": 6467,
      "##essed": 6468,
      "accordance": 6469,
      "entertain": 6470,
      "acquainted": 6471,
      "ransom": 6472,
      "ananias": 6473,
      "upper": 6474,
      "wra": 6475,
      "##enn": 6476,
      "onto": 6477,
      "soap": 6478,
      "myth": 6479,
      "##ooth": 6480,
      "compar": 6481,
      "guitar": 6482,
      "ascended": 6483,
      "##pal": 6484,
      "blows": 6485,
      "messages": 6486,
      "restaur": 6487,
      "villages": 6488,
      "ships": 6489,
      "nurs": 6490,
      "outc": 6491,
      "scar": 6492,
      "apologies": 6493,
      "demanded": 6494,
      "tools": 6495,
      "absolutely": 6496,
      "jun": 6497,
      "ned": 6498,
      "wy": 6499,
      "score": 6500,
      "expressed": 6501,
      "recon": 6502,
      "communic": 6503,
      "orph": 6504,
      "##umbs": 6505,
      "##mael": 6506,
      "advance": 6507,
      "protecting": 6508,
      "pastor": 6509,
      "bowls": 6510,
      "commitment": 6511,
      "sharp": 6512,
      "accurate": 6513,
      "fantastic": 6514,
      "73": 6515,
      "##made": 6516,
      "##19": 6517,
      "##alty": 6518,
      "dun": 6519,
      "cher": 6520,
      "grandparents": 6521,
      "b2": 6522,
      "nab": 6523,
      "uri": 6524,
      "heating": 6525,
      "12th": 6526,
      "gotten": 6527,
      "trusted": 6528,
      "cheer": 6529,
      "weakness": 6530,
      "delighted": 6531,
      "beneath": 6532,
      "##14": 6533,
      "cometh": 6534,
      "thurs": 6535,
      "stir": 6536,
      "lasted": 6537,
      "walks": 6538,
      "arrival": 6539,
      "##board": 6540,
      "rsv": 6541,
      "##wan": 6542,
      "minor": 6543,
      "##uesday": 6544,
      "forgiving": 6545,
      "alexander": 6546,
      "disobedience": 6547,
      "bac": 6548,
      "batter": 6549,
      "yield": 6550,
      "##tr": 6551,
      "foret": 6552,
      "stuck": 6553,
      "hurts": 6554,
      "cave": 6555,
      "##thah": 6556,
      "##imp": 6557,
      "advers": 6558,
      "childhood": 6559,
      "puts": 6560,
      "arts": 6561,
      "##apped": 6562,
      "threatened": 6563,
      "jenn": 6564,
      "bicycle": 6565,
      "##ris": 6566,
      "##inn": 6567,
      "joab": 6568,
      "israeli": 6569,
      "smell": 6570,
      "incred": 6571,
      "transfer": 6572,
      "connected": 6573,
      "ahhhhh": 6574,
      "manifest": 6575,
      "lewis": 6576,
      "##house": 6577,
      "readers": 6578,
      "dumb": 6579,
      "gor": 6580,
      "##ext": 6581,
      "##oration": 6582,
      "wipe": 6583,
      "##cks": 6584,
      "buff": 6585,
      "centuries": 6586,
      "##eddy": 6587,
      "slowly": 6588,
      "tongues": 6589,
      "##zekiah": 6590,
      "sd": 6591,
      "woo": 6592,
      "##etime": 6593,
      "190": 6594,
      "afterward": 6595,
      "dealing": 6596,
      "immor": 6597,
      "ladies": 6598,
      "beside": 6599,
      "foreigners": 6600,
      "oooh": 6601,
      "thursday": 6602,
      "drove": 6603,
      "##iro": 6604,
      "suit": 6605,
      "differences": 6606,
      "lamps": 6607,
      "whoa": 6608,
      "unh": 6609,
      "sleeps": 6610,
      "sadly": 6611,
      "owed": 6612,
      "alpha": 6613,
      "84": 6614,
      "ves": 6615,
      "##bor": 6616,
      "remote": 6617,
      "##ucle": 6618,
      "##ashed": 6619,
      "celebrating": 6620,
      "lest": 6621,
      "wal": 6622,
      "##che": 6623,
      "unus": 6624,
      "margar": 6625,
      "##olate": 6626,
      "scribes": 6627,
      "carries": 6628,
      "begged": 6629,
      "tale": 6630,
      "subst": 6631,
      "driver": 6632,
      "increasing": 6633,
      "persecution": 6634,
      "estimated": 6635,
      "dick": 6636,
      "syria": 6637,
      "counter": 6638,
      "murderer": 6639,
      "crowned": 6640,
      "pursue": 6641,
      "sidon": 6642,
      "##fall": 6643,
      "consult": 6644,
      "latter": 6645,
      "tenth": 6646,
      "farmers": 6647,
      "dropped": 6648,
      "circumst": 6649,
      "criminal": 6650,
      "schedule": 6651,
      "aven": 6652,
      "tuesday": 6653,
      "##60": 6654,
      "perman": 6655,
      "devils": 6656,
      "difficulties": 6657,
      "photography": 6658,
      "depths": 6659,
      "rises": 6660,
      "##33": 6661,
      "resol": 6662,
      "moms": 6663,
      "entitled": 6664,
      "directions": 6665,
      "philippines": 6666,
      "hood": 6667,
      "sites": 6668,
      "haz": 6669,
      "shield": 6670,
      "pattern": 6671,
      "leadership": 6672,
      "doctors": 6673,
      "bun": 6674,
      "##gl": 6675,
      "dean": 6676,
      "10th": 6677,
      "ending": 6678,
      "midian": 6679,
      "constantly": 6680,
      "dwelling": 6681,
      "employees": 6682,
      "bik": 6683,
      "hezekiah": 6684,
      "shy": 6685,
      "upright": 6686,
      "grade": 6687,
      "elimin": 6688,
      "jephthah": 6689,
      "athe": 6690,
      "cope": 6691,
      "ds": 6692,
      "gw": 6693,
      "nad": 6694,
      "tail": 6695,
      "##don": 6696,
      "frust": 6697,
      "deed": 6698,
      "##cho": 6699,
      "##spring": 6700,
      "raising": 6701,
      "##lands": 6702,
      "enjoying": 6703,
      "motion": 6704,
      "trumpets": 6705,
      "plat": 6706,
      "thinks": 6707,
      "ishmael": 6708,
      "attorney": 6709,
      "pink": 6710,
      "canad": 6711,
      "coat": 6712,
      "poet": 6713,
      "acad": 6714,
      "hatred": 6715,
      "abortion": 6716,
      "lines": 6717,
      "##gency": 6718,
      "shoo": 6719,
      "##oops": 6720,
      "##osis": 6721,
      "prompt": 6722,
      "drawing": 6723,
      "detailed": 6724,
      "costs": 6725,
      "cards": 6726,
      "goddess": 6727,
      "tens": 6728,
      "doc": 6729,
      "shore": 6730,
      "withd": 6731,
      "sequ": 6732,
      "shepherds": 6733,
      "fingers": 6734,
      "multiple": 6735,
      "cousin": 6736,
      "slaughtered": 6737,
      "20th": 6738,
      "ads": 6739,
      "implement": 6740,
      "laughs": 6741,
      "mummy": 6742,
      "dirty": 6743,
      "ww": 6744,
      "users": 6745,
      "sixty": 6746,
      "carrying": 6747,
      "sanctify": 6748,
      "attempted": 6749,
      "dh": 6750,
      "sel": 6751,
      "appar": 6752,
      "obtained": 6753,
      "negative": 6754,
      "fer": 6755,
      "##nn": 6756,
      "##ml": 6757,
      "asa": 6758,
      "mos": 6759,
      "somewhere": 6760,
      "cleansed": 6761,
      "tra": 6762,
      "context": 6763,
      "flat": 6764,
      "patients": 6765,
      "legacy": 6766,
      "announced": 6767,
      "empty": 6768,
      "700": 6769,
      "bul": 6770,
      "vain": 6771,
      "##ux": 6772,
      "shoulders": 6773,
      "deceive": 6774,
      "encouragement": 6775,
      "cyrus": 6776,
      "rejoiced": 6777,
      "elephant": 6778,
      "attrib": 6779,
      "headed": 6780,
      "rebel": 6781,
      "balance": 6782,
      "dollar": 6783,
      "subtit": 6784,
      "fel": 6785,
      "##itz": 6786,
      "bruce": 6787,
      "offspring": 6788,
      "sarai": 6789,
      "ooooooooo": 6790,
      "##onel": 6791,
      "offe": 6792,
      "##rel": 6793,
      "stew": 6794,
      "talks": 6795,
      "evangel": 6796,
      "entering": 6797,
      "woods": 6798,
      "absalom": 6799,
      "chronicles": 6800,
      "appropriate": 6801,
      "datab": 6802,
      "##craft": 6803,
      "mut": 6804,
      "lied": 6805,
      "yesh": 6806,
      "youngest": 6807,
      "lust": 6808,
      "drawn": 6809,
      "disobedient": 6810,
      "brew": 6811,
      "cai": 6812,
      "lind": 6813,
      "11th": 6814,
      "##bell": 6815,
      "guest": 6816,
      "files": 6817,
      "strikes": 6818,
      "nucle": 6819,
      "clay": 6820,
      "##bec": 6821,
      "creature": 6822,
      "hay": 6823,
      "tied": 6824,
      "##ado": 6825,
      "eyeb": 6826,
      "furthermore": 6827,
      "williams": 6828,
      "stom": 6829,
      "##osity": 6830,
      "accus": 6831,
      "repay": 6832,
      "distract": 6833,
      "electron": 6834,
      "bing": 6835,
      "pent": 6836,
      "scr": 6837,
      "smiling": 6838,
      "corrupt": 6839,
      "annoyed": 6840,
      "wheat": 6841,
      "arrive": 6842,
      "iran": 6843,
      "devast": 6844,
      "autom": 6845,
      "leviticus": 6846,
      "margaret": 6847,
      "rah": 6848,
      "##50": 6849,
      "mocked": 6850,
      "tested": 6851,
      "feature": 6852,
      "summoned": 6853,
      "facing": 6854,
      "lifetime": 6855,
      "unusual": 6856,
      "dangers": 6857,
      "sr": 6858,
      "1995": 6859,
      "claimed": 6860,
      "editor": 6861,
      "particularly": 6862,
      "euph": 6863,
      "conclusion": 6864,
      "accompanied": 6865,
      "##her": 6866,
      "mario": 6867,
      "genuine": 6868,
      "syd": 6869,
      "sunny": 6870,
      "sadd": 6871,
      "developed": 6872,
      "micro": 6873,
      "b1": 6874,
      "md": 6875,
      "intended": 6876,
      "##veh": 6877,
      "concent": 6878,
      "##orted": 6879,
      "##ioch": 6880,
      "ceased": 6881,
      "victims": 6882,
      "palest": 6883,
      "bottle": 6884,
      "confirmed": 6885,
      "ufo": 6886,
      "amor": 6887,
      "drown": 6888,
      "fishers": 6889,
      "suggested": 6890,
      "myster": 6891,
      "wages": 6892,
      "butter": 6893,
      "spite": 6894,
      "twins": 6895,
      "mini": 6896,
      "breakfast": 6897,
      "idolat": 6898,
      "permitted": 6899,
      "unexpected": 6900,
      "aly": 6901,
      "bos": 6902,
      "13th": 6903,
      "presents": 6904,
      "vietnam": 6905,
      "valentine": 6906,
      "nfl": 6907,
      "tid": 6908,
      "blues": 6909,
      "harry": 6910,
      "marketing": 6911,
      "swedish": 6912,
      "innocent": 6913,
      "mb": 6914,
      "##bie": 6915,
      "reho": 6916,
      "sum": 6917,
      "buildings": 6918,
      "allowing": 6919,
      "1987": 6920,
      "nineveh": 6921,
      "wealthy": 6922,
      "entrance": 6923,
      "awards": 6924,
      "vic": 6925,
      "##ador": 6926,
      "earthly": 6927,
      "##what": 6928,
      "##ieties": 6929,
      "reviews": 6930,
      "graduate": 6931,
      "entrusted": 6932,
      "##owing": 6933,
      "abroad": 6934,
      "plate": 6935,
      "remix": 6936,
      "contain": 6937,
      "steel": 6938,
      "depending": 6939,
      "jimmy": 6940,
      "cooper": 6941,
      "94": 6942,
      "##groom": 6943,
      "heals": 6944,
      "bron": 6945,
      "brows": 6946,
      "foods": 6947,
      "diary": 6948,
      "boyfriend": 6949,
      "pleasant": 6950,
      "secretary": 6951,
      "affairs": 6952,
      "georgia": 6953,
      "identity": 6954,
      "talents": 6955,
      "democratic": 6956,
      "dor": 6957,
      "hip": 6958,
      "pdf": 6959,
      "##istration": 6960,
      "feared": 6961,
      "governing": 6962,
      "practices": 6963,
      "kissed": 6964,
      "##aphas": 6965,
      "bridegroom": 6966,
      "rewarded": 6967,
      "bish": 6968,
      "obe": 6969,
      "tips": 6970,
      "##cca": 6971,
      "visitors": 6972,
      "obvious": 6973,
      "cul": 6974,
      "##oah": 6975,
      "atl": 6976,
      "120": 6977,
      "founder": 6978,
      "swore": 6979,
      "dreamed": 6980,
      "pregnancy": 6981,
      "assembled": 6982,
      "principle": 6983,
      "dna": 6984,
      "afterwards": 6985,
      "##action": 6986,
      "addressed": 6987,
      "virgins": 6988,
      "repentance": 6989,
      "bry": 6990,
      "gaz": 6991,
      "forms": 6992,
      "##acity": 6993,
      "chains": 6994,
      "unw": 6995,
      "scroll": 6996,
      "berlin": 6997,
      "eagles": 6998,
      "ted": 6999,
      "##raw": 7000,
      "listed": 7001,
      "carbon": 7002,
      "secrets": 7003,
      "entry": 7004,
      "##eddon": 7005,
      "nonetheless": 7006,
      "##boam": 7007,
      "calif": 7008,
      "improved": 7009,
      "gomor": 7010,
      "92": 7011,
      "ki": 7012,
      "lanka": 7013,
      "##ildo": 7014,
      "luther": 7015,
      "lucy": 7016,
      "refugees": 7017,
      "horns": 7018,
      "caiaphas": 7019,
      "thro": 7020,
      "##rey": 7021,
      "spell": 7022,
      "pair": 7023,
      "informed": 7024,
      "grabb": 7025,
      "habit": 7026,
      "##oman": 7027,
      "weird": 7028,
      "##ulated": 7029,
      "spear": 7030,
      "israelis": 7031,
      "babe": 7032,
      "easter": 7033,
      "recall": 7034,
      "merch": 7035,
      "worrying": 7036,
      "harmony": 7037,
      "permission": 7038,
      "meditation": 7039,
      "uriah": 7040,
      "9th": 7041,
      "mud": 7042,
      "s1": 7043,
      "votes": 7044,
      "antioch": 7045,
      "flocks": 7046,
      "dil": 7047,
      "mord": 7048,
      "sigh": 7049,
      "##cies": 7050,
      "##ker": 7051,
      "##estic": 7052,
      "sermon": 7053,
      "guar": 7054,
      "lightning": 7055,
      "##uki": 7056,
      "update": 7057,
      "rapid": 7058,
      "##away": 7059,
      "##di": 7060,
      "##nding": 7061,
      "buying": 7062,
      "settle": 7063,
      "stephanie": 7064,
      "surface": 7065,
      "arose": 7066,
      "database": 7067,
      "pc": 7068,
      "ups": 7069,
      "elaine": 7070,
      "funeral": 7071,
      "amongst": 7072,
      "expecting": 7073,
      "damn": 7074,
      "experiences": 7075,
      "options": 7076,
      "vice": 7077,
      "##han": 7078,
      "##keep": 7079,
      "covers": 7080,
      "jude": 7081,
      "distin": 7082,
      "rabbit": 7083,
      "operation": 7084,
      "hesit": 7085,
      "gear": 7086,
      "chest": 7087,
      "caring": 7088,
      "##ological": 7089,
      "##force": 7090,
      "unbelief": 7091,
      "pronoun": 7092,
      "yup": 7093,
      "wasted": 7094,
      "saving": 7095,
      "trials": 7096,
      "##ageddon": 7097,
      "players": 7098,
      "supplies": 7099,
      "##ception": 7100,
      "estate": 7101,
      "devoted": 7102,
      "moral": 7103,
      "economic": 7104,
      "stomach": 7105,
      "m4": 7106,
      "nd": 7107,
      "##hs": 7108,
      "##acco": 7109,
      "fasting": 7110,
      "conducted": 7111,
      "shocked": 7112,
      "ignorance": 7113,
      "##most": 7114,
      "wept": 7115,
      "prem": 7116,
      "critical": 7117,
      "calend": 7118,
      "pacific": 7119,
      "btw": 7120,
      "guarant": 7121,
      "um": 7122,
      "alert": 7123,
      "congr": 7124,
      "perse": 7125,
      "begun": 7126,
      "generous": 7127,
      "intent": 7128,
      "situations": 7129,
      "sacrificed": 7130,
      "robes": 7131,
      "reaction": 7132,
      "euphrates": 7133,
      "sydney": 7134,
      "nba": 7135,
      "##fia": 7136,
      "infect": 7137,
      "chic": 7138,
      "##riel": 7139,
      "earned": 7140,
      "truths": 7141,
      "division": 7142,
      "dresses": 7143,
      "target": 7144,
      "hawaii": 7145,
      "pounds": 7146,
      "sealed": 7147,
      "agency": 7148,
      "19th": 7149,
      "humor": 7150,
      "peaceful": 7151,
      "untitled": 7152,
      "evildo": 7153,
      "armageddon": 7154,
      "divorced": 7155,
      "agrees": 7156,
      "overwhelmed": 7157,
      "vessel": 7158,
      "wilson": 7159,
      "render": 7160,
      "covid": 7161,
      "incor": 7162,
      "advoc": 7163,
      "iphone": 7164,
      "##mark": 7165,
      "reun": 7166,
      "##achi": 7167,
      "opens": 7168,
      "acid": 7169,
      "supported": 7170,
      "describe": 7171,
      "gomorrah": 7172,
      "83": 7173,
      "##sy": 7174,
      "##ripp": 7175,
      "background": 7176,
      "mature": 7177,
      "kills": 7178,
      "warrior": 7179,
      "##cere": 7180,
      "##ez": 7181,
      "##owa": 7182,
      "drama": 7183,
      "owners": 7184,
      "oppressed": 7185,
      "protects": 7186,
      "fifteen": 7187,
      "##ettes": 7188,
      "fixed": 7189,
      "shelter": 7190,
      "ezra": 7191,
      "nursing": 7192,
      "shaken": 7193,
      "exha": 7194,
      "install": 7195,
      "statutes": 7196,
      "literature": 7197,
      "##put": 7198,
      "therap": 7199,
      "accused": 7200,
      "crack": 7201,
      "fearful": 7202,
      "arranged": 7203,
      "branches": 7204,
      "ryan": 7205,
      "awwww": 7206,
      "wills": 7207,
      "18th": 7208,
      "gathering": 7209,
      "crisis": 7210,
      "96": 7211,
      "wet": 7212,
      "tender": 7213,
      "twin": 7214,
      "proved": 7215,
      "eats": 7216,
      "psalmist": 7217,
      "reduce": 7218,
      "virus": 7219,
      "iii": 7220,
      "circumstances": 7221,
      "gum": 7222,
      "##wear": 7223,
      "painful": 7224,
      "driven": 7225,
      "penalty": 7226,
      "characters": 7227,
      "possibility": 7228,
      "repeated": 7229,
      "bor": 7230,
      "il": 7231,
      "oz": 7232,
      "##asy": 7233,
      "livest": 7234,
      "kelly": 7235,
      "highlight": 7236,
      "distingu": 7237,
      "registered": 7238,
      "italian": 7239,
      "sibl": 7240,
      "wounded": 7241,
      "##py": 7242,
      "##aya": 7243,
      "resident": 7244,
      "compos": 7245,
      "whisper": 7246,
      "rehoboam": 7247,
      "siblings": 7248,
      "93": 7249,
      "lk": 7250,
      "si": 7251,
      "stun": 7252,
      "disag": 7253,
      "risks": 7254,
      "ebay": 7255,
      "x2": 7256,
      "##iant": 7257,
      "##god": 7258,
      "##70": 7259,
      "ordained": 7260,
      "customers": 7261,
      "mall": 7262,
      "##zen": 7263,
      "##child": 7264,
      "carl": 7265,
      "guests": 7266,
      "income": 7267,
      "irish": 7268,
      "marrying": 7269,
      "printed": 7270,
      "##nic": 7271,
      "##ran": 7272,
      "##eps": 7273,
      "oldest": 7274,
      "harder": 7275,
      "cells": 7276,
      "planned": 7277,
      "horny": 7278,
      "ot": 7279,
      "sides": 7280,
      "##ining": 7281,
      "##icia": 7282,
      "##adesh": 7283,
      "frame": 7284,
      "upcoming": 7285,
      "14th": 7286,
      "adds": 7287,
      "temper": 7288,
      "housing": 7289,
      "achieved": 7290,
      "susan": 7291,
      "shining": 7292,
      "dele": 7293,
      "originally": 7294,
      "guards": 7295,
      "selected": 7296,
      "whatsapp": 7297,
      "exchange": 7298,
      "71": 7299,
      "oly": 7300,
      "##lor": 7301,
      "altern": 7302,
      "amos": 7303,
      "joel": 7304,
      "boast": 7305,
      "corpor": 7306,
      "##cript": 7307,
      "liked": 7308,
      "honestly": 7309,
      "darling": 7310,
      "livestock": 7311,
      "wand": 7312,
      "##cription": 7313,
      "plays": 7314,
      "properly": 7315,
      "circ": 7316,
      "tweeted": 7317,
      "gabriel": 7318,
      "jung": 7319,
      "reap": 7320,
      "immig": 7321,
      "oklah": 7322,
      "metal": 7323,
      "caesare": 7324,
      "jennifer": 7325,
      "##22": 7326,
      "##utive": 7327,
      "traff": 7328,
      "shower": 7329,
      "##iano": 7330,
      "understands": 7331,
      "insult": 7332,
      "entirely": 7333,
      "californ": 7334,
      "2x": 7335,
      "batt": 7336,
      "tu": 7337,
      "tap": 7338,
      "##arian": 7339,
      "reven": 7340,
      "##ima": 7341,
      "##outs": 7342,
      "##fuck": 7343,
      "airport": 7344,
      "mile": 7345,
      "traged": 7346,
      "laughter": 7347,
      "boaz": 7348,
      "believer": 7349,
      "discl": 7350,
      "richard": 7351,
      "label": 7352,
      "troubles": 7353,
      "entertainment": 7354,
      "fount": 7355,
      "kl": 7356,
      "rail": 7357,
      "tan": 7358,
      "##tion": 7359,
      "cha": 7360,
      "extend": 7361,
      "##agram": 7362,
      "reputation": 7363,
      "charged": 7364,
      "pleases": 7365,
      "employment": 7366,
      "companions": 7367,
      "rejoicing": 7368,
      "josiah": 7369,
      "tobacco": 7370,
      "eyebrows": 7371,
      "##ouri": 7372,
      "doth": 7373,
      "sole": 7374,
      "seas": 7375,
      "choices": 7376,
      "##aka": 7377,
      "extended": 7378,
      "sincere": 7379,
      "craft": 7380,
      "accounts": 7381,
      "demonst": 7382,
      "circumcised": 7383,
      "vegetables": 7384,
      "grabbed": 7385,
      "tai": 7386,
      "semi": 7387,
      "##igan": 7388,
      "flash": 7389,
      "16th": 7390,
      "collab": 7391,
      "chooses": 7392,
      "bearing": 7393,
      "sara": 7394,
      "arguing": 7395,
      "approaching": 7396,
      "surrender": 7397,
      "era": 7398,
      "icon": 7399,
      "##bc": 7400,
      "##thood": 7401,
      "hamm": 7402,
      "awaken": 7403,
      "posts": 7404,
      "valid": 7405,
      "##iko": 7406,
      "educated": 7407,
      "risen": 7408,
      "##ecai": 7409,
      "subtitles": 7410,
      "##ctions": 7411,
      "##istics": 7412,
      "17th": 7413,
      "solutions": 7414,
      "replace": 7415,
      "furious": 7416,
      "argue": 7417,
      "defeat": 7418,
      "oklahoma": 7419,
      "katherine": 7420,
      "gracious": 7421,
      "addicted": 7422,
      "opposed": 7423,
      "pleasures": 7424,
      "canaanites": 7425,
      "batman": 7426,
      "ammonites": 7427,
      "##hu": 7428,
      "theat": 7429,
      "ford": 7430,
      "reass": 7431,
      "whatsoever": 7432,
      "chan": 7433,
      "choc": 7434,
      "abimelech": 7435,
      "##itty": 7436,
      "betty": 7437,
      "haran": 7438,
      "hunt": 7439,
      "madness": 7440,
      "consequently": 7441,
      "dishon": 7442,
      "newspaper": 7443,
      "calendar": 7444,
      "nap": 7445,
      "##64": 7446,
      "thor": 7447,
      "toler": 7448,
      "android": 7449,
      "goat": 7450,
      "stro": 7451,
      "joke": 7452,
      "twain": 7453,
      "psych": 7454,
      "creative": 7455,
      "grey": 7456,
      "superior": 7457,
      "california": 7458,
      "##aam": 7459,
      "weary": 7460,
      "plague": 7461,
      "forgave": 7462,
      "barri": 7463,
      "potip": 7464,
      "formerly": 7465,
      "##kyo": 7466,
      "evildoers": 7467,
      "gle": 7468,
      "iowa": 7469,
      "clar": 7470,
      "awa": 7471,
      "##oked": 7472,
      "responding": 7473,
      "introduced": 7474,
      "muslims": 7475,
      "hub": 7476,
      "mode": 7477,
      "##leness": 7478,
      "thin": 7479,
      "##iders": 7480,
      "assh": 7481,
      "parag": 7482,
      "musings": 7483,
      "nephew": 7484,
      "structure": 7485,
      "via": 7486,
      "isle": 7487,
      "trained": 7488,
      "##ache": 7489,
      "sinful": 7490,
      "salute": 7491,
      "miriam": 7492,
      "##fold": 7493,
      "producer": 7494,
      "sucks": 7495,
      "economy": 7496,
      "adopted": 7497,
      "olymp": 7498,
      "fasc": 7499,
      "hs": 7500,
      "sink": 7501,
      "##fish": 7502,
      "lock": 7503,
      "leah": 7504,
      "gotta": 7505,
      "prodig": 7506,
      "gentle": 7507,
      "gallery": 7508,
      "nuclear": 7509,
      "87": 7510,
      "anonym": 7511,
      "actor": 7512,
      "belonged": 7513,
      "contribute": 7514,
      "chamber": 7515,
      "yeshua": 7516,
      "mordecai": 7517,
      "wing": 7518,
      "##hed": 7519,
      "outl": 7520,
      "unre": 7521,
      "diss": 7522,
      "##shine": 7523,
      "slight": 7524,
      "swing": 7525,
      "survey": 7526,
      "##endous": 7527,
      "protected": 7528,
      "device": 7529,
      "springs": 7530,
      "embarrassed": 7531,
      "offend": 7532,
      "fier": 7533,
      "tub": 7534,
      "zed": 7535,
      "tokyo": 7536,
      "##esa": 7537,
      "troops": 7538,
      "plug": 7539,
      "105": 7540,
      "poison": 7541,
      "decor": 7542,
      "perspect": 7543,
      "skies": 7544,
      "86": 7545,
      "gang": 7546,
      "lp": 7547,
      "##ulate": 7548,
      "theirs": 7549,
      "boing": 7550,
      "fired": 7551,
      "refuses": 7552,
      "esteem": 7553,
      "yanke": 7554,
      "ht": 7555,
      "##ams": 7556,
      "indign": 7557,
      "rooms": 7558,
      "craw": 7559,
      "quietly": 7560,
      "yummy": 7561,
      "eggs": 7562,
      "prostitute": 7563,
      "nico": 7564,
      "sheet": 7565,
      "##bron": 7566,
      "fools": 7567,
      "recording": 7568,
      "dedication": 7569,
      "consumed": 7570,
      "ooh": 7571,
      "seeds": 7572,
      "instrum": 7573,
      "solo": 7574,
      "ignore": 7575,
      "canadian": 7576,
      "caesarea": 7577,
      "core": 7578,
      "dim": 7579,
      "##ti": 7580,
      "##esp": 7581,
      "managed": 7582,
      "spa": 7583,
      "agent": 7584,
      "##ysis": 7585,
      "experts": 7586,
      "fuss": 7587,
      "##oning": 7588,
      "residents": 7589,
      "hobb": 7590,
      "poly": 7591,
      "##ended": 7592,
      "1994": 7593,
      "injust": 7594,
      "pioneer": 7595,
      "andre": 7596,
      "soil": 7597,
      "##chem": 7598,
      "##seless": 7599,
      "coin": 7600,
      "counted": 7601,
      "respected": 7602,
      "controvers": 7603,
      "err": 7604,
      "olives": 7605,
      "faq": 7606,
      "kw": 7607,
      "rever": 7608,
      "##udi": 7609,
      "discern": 7610,
      "eyel": 7611,
      "actual": 7612,
      "##hhhhhh": 7613,
      "continually": 7614,
      "marriages": 7615,
      "intention": 7616,
      "introduction": 7617,
      "ped": 7618,
      "ward": 7619,
      "heirs": 7620,
      "spark": 7621,
      "enth": 7622,
      "classes": 7623,
      "trustworthy": 7624,
      "cornel": 7625,
      "prophesied": 7626,
      "wrapped": 7627,
      "potiphar": 7628,
      "ic": 7629,
      "theft": 7630,
      "prose": 7631,
      "relations": 7632,
      "flies": 7633,
      "##mmmm": 7634,
      "raises": 7635,
      "distant": 7636,
      "domin": 7637,
      "sher": 7638,
      "unin": 7639,
      "acted": 7640,
      "decree": 7641,
      "borne": 7642,
      "badly": 7643,
      "cease": 7644,
      "focusing": 7645,
      "random": 7646,
      "bid": 7647,
      "toe": 7648,
      "##rog": 7649,
      "fearing": 7650,
      "cryst": 7651,
      "judging": 7652,
      "acceptable": 7653,
      "violent": 7654,
      "physician": 7655,
      "federal": 7656,
      "liberty": 7657,
      "arrow": 7658,
      "##izz": 7659,
      "annie": 7660,
      "clothed": 7661,
      "baseball": 7662,
      "jumped": 7663,
      "license": 7664,
      "tight": 7665,
      "##yn": 7666,
      "soda": 7667,
      "shines": 7668,
      "##ppy": 7669,
      "motherfuck": 7670,
      "cheap": 7671,
      "lieuten": 7672,
      "horsemen": 7673,
      "rescued": 7674,
      "##amm": 7675,
      "resign": 7676,
      "smooth": 7677,
      "admit": 7678,
      "duration": 7679,
      "nan": 7680,
      "tn": 7681,
      "##isation": 7682,
      "alice": 7683,
      "leon": 7684,
      "##aia": 7685,
      "denied": 7686,
      "represents": 7687,
      "charlie": 7688,
      "pierced": 7689,
      "converted": 7690,
      "tragedy": 7691,
      "##oa": 7692,
      "stol": 7693,
      "lovers": 7694,
      "fem": 7695,
      "pretend": 7696,
      "fold": 7697,
      "transm": 7698,
      "barb": 7699,
      "obsessed": 7700,
      "imitate": 7701,
      "lt": 7702,
      "va": 7703,
      "##iop": 7704,
      "nope": 7705,
      "##alu": 7706,
      "cafe": 7707,
      "meme": 7708,
      "viewed": 7709,
      "fishing": 7710,
      "detail": 7711,
      "employee": 7712,
      "challenging": 7713,
      "foolishness": 7714,
      "plainly": 7715,
      "arguments": 7716,
      "pearl": 7717,
      "##akk": 7718,
      "flame": 7719,
      "##azzar": 7720,
      "thirteen": 7721,
      "trem": 7722,
      "immort": 7723,
      "constitution": 7724,
      "strive": 7725,
      "circle": 7726,
      "assyria": 7727,
      "amorites": 7728,
      "faster": 7729,
      "hoo": 7730,
      "tie": 7731,
      "##iy": 7732,
      "##rie": 7733,
      "##rem": 7734,
      "flaw": 7735,
      "##azz": 7736,
      "sunshine": 7737,
      "determine": 7738,
      "nun": 7739,
      "amused": 7740,
      "personality": 7741,
      "schem": 7742,
      "assault": 7743,
      "gospels": 7744,
      "senior": 7745,
      "surrounding": 7746,
      "intelligent": 7747,
      "ga": 7748,
      "tents": 7749,
      "##rom": 7750,
      "##ameless": 7751,
      "button": 7752,
      "unle": 7753,
      "pleaded": 7754,
      "roy": 7755,
      "##ika": 7756,
      "1996": 7757,
      "widows": 7758,
      "tyre": 7759,
      "victoria": 7760,
      "anthony": 7761,
      "cerem": 7762,
      "fm": 7763,
      "mouse": 7764,
      "ws": 7765,
      "##gb": 7766,
      "##vi": 7767,
      "##ansas": 7768,
      "##bean": 7769,
      "relevant": 7770,
      "printing": 7771,
      "ceremony": 7772,
      "thumbs": 7773,
      "applied": 7774,
      "carib": 7775,
      "ps3": 7776,
      "romantic": 7777,
      "lambs": 7778,
      "fulfillment": 7779,
      "sufficient": 7780,
      "immorality": 7781,
      "raining": 7782,
      "lily": 7783,
      "manoah": 7784,
      "alf": 7785,
      "##aks": 7786,
      "decides": 7787,
      "opportunities": 7788,
      "balaam": 7789,
      "auto": 7790,
      "masks": 7791,
      "screwed": 7792,
      "imperfect": 7793,
      "argument": 7794,
      "bare": 7795,
      "rud": 7796,
      "t1": 7797,
      "##rence": 7798,
      "##berg": 7799,
      "##uben": 7800,
      "musical": 7801,
      "simeon": 7802,
      "visiting": 7803,
      "values": 7804,
      "illeg": 7805,
      "potential": 7806,
      "rebuild": 7807,
      "categ": 7808,
      "hose": 7809,
      "km": 7810,
      "##mons": 7811,
      "courts": 7812,
      "installed": 7813,
      "accepting": 7814,
      "necessarily": 7815,
      "displayed": 7816,
      "kir": 7817,
      "nancy": 7818,
      "##pet": 7819,
      "thx": 7820,
      "##oul": 7821,
      "##uls": 7822,
      "castle": 7823,
      "galileans": 7824,
      "bib": 7825,
      "odd": 7826,
      "zoo": 7827,
      "##ij": 7828,
      "##arn": 7829,
      "##lle": 7830,
      "inner": 7831,
      "sally": 7832,
      "equip": 7833,
      "penny": 7834,
      "copies": 7835,
      "imprisoned": 7836,
      "basketball": 7837,
      "emphasis": 7838,
      "antonio": 7839,
      "##col": 7840,
      "##iac": 7841,
      "butt": 7842,
      "21st": 7843,
      "billions": 7844,
      "stolen": 7845,
      "tut": 7846,
      "##rist": 7847,
      "toes": 7848,
      "15th": 7849,
      "grows": 7850,
      "welcoming": 7851,
      "steam": 7852,
      "eternity": 7853,
      "1984": 7854,
      "spending": 7855,
      "glorious": 7856,
      "dum": 7857,
      "rape": 7858,
      "sce": 7859,
      "##cha": 7860,
      "flav": 7861,
      "poland": 7862,
      "protest": 7863,
      "choosing": 7864,
      "forehead": 7865,
      "attendance": 7866,
      "custody": 7867,
      "intelligence": 7868,
      "aj": 7869,
      "nich": 7870,
      "inch": 7871,
      "couples": 7872,
      "devotion": 7873,
      "pharisee": 7874,
      "conquered": 7875,
      "##irts": 7876,
      "##uled": 7877,
      "outer": 7878,
      "witnessed": 7879,
      "occurs": 7880,
      "directly": 7881,
      "involves": 7882,
      "cigarettes": 7883,
      "restaurant": 7884,
      "orphans": 7885,
      "cornelius": 7886,
      "sis": 7887,
      "##db": 7888,
      "##gers": 7889,
      "chat": 7890,
      "##ibly": 7891,
      "harden": 7892,
      "transport": 7893,
      "arrange": 7894,
      "breathe": 7895,
      "dutch": 7896,
      "chairman": 7897,
      "groom": 7898,
      "pic": 7899,
      "rice": 7900,
      "##onto": 7901,
      "belly": 7902,
      "anime": 7903,
      "##iration": 7904,
      "##chan": 7905,
      "##rof": 7906,
      "letting": 7907,
      "camped": 7908,
      "stretch": 7909,
      "lm": 7910,
      "##bul": 7911,
      "##rim": 7912,
      "##shop": 7913,
      "monkey": 7914,
      "incident": 7915,
      "patrick": 7916,
      "horri": 7917,
      "systems": 7918,
      "measures": 7919,
      "robin": 7920,
      "astray": 7921,
      "attracted": 7922,
      "lap": 7923,
      "##ui": 7924,
      "##24": 7925,
      "##etown": 7926,
      "##irm": 7927,
      "godly": 7928,
      "##odem": 7929,
      "##agers": 7930,
      "accomm": 7931,
      "laman": 7932,
      "1945": 7933,
      "dwelt": 7934,
      "xd": 7935,
      "peer": 7936,
      "##rol": 7937,
      "launch": 7938,
      "pointed": 7939,
      "1989": 7940,
      "ensla": 7941,
      "susp": 7942,
      "transformed": 7943,
      "persuaded": 7944,
      "lieutenant": 7945,
      "76": 7946,
      "dc": 7947,
      "##mans": 7948,
      "##0s": 7949,
      "##inal": 7950,
      "hebron": 7951,
      "minim": 7952,
      "dreaming": 7953,
      "curious": 7954,
      "regardless": 7955,
      "films": 7956,
      "hosanna": 7957,
      "accommod": 7958,
      "##gie": 7959,
      "goli": 7960,
      "atm": 7961,
      "spake": 7962,
      "blank": 7963,
      "coal": 7964,
      "eyed": 7965,
      "personally": 7966,
      "element": 7967,
      "karma": 7968,
      "domestic": 7969,
      "customs": 7970,
      "forsaken": 7971,
      "ebola": 7972,
      "opposition": 7973,
      "ced": 7974,
      "tas": 7975,
      "waking": 7976,
      "##keys": 7977,
      "nowhere": 7978,
      "excus": 7979,
      "blu": 7980,
      "helen": 7981,
      "regrets": 7982,
      "monthly": 7983,
      "tests": 7984,
      "delivery": 7985,
      "##box": 7986,
      "dishes": 7987,
      "emergency": 7988,
      "split": 7989,
      "##odemus": 7990,
      "ae": 7991,
      "foref": 7992,
      "ank": 7993,
      "brid": 7994,
      "happier": 7995,
      "addo": 7996,
      "coron": 7997,
      "idiot": 7998,
      "deceiving": 7999,
      "produces": 8000,
      "enslaved": 8001,
      "bc": 8002,
      "tables": 8003,
      "voc": 8004,
      "reuben": 8005,
      "consec": 8006,
      "affection": 8007,
      "kevin": 8008,
      "typically": 8009,
      "hotels": 8010,
      "hometown": 8011,
      "ethiop": 8012,
      "complaint": 8013,
      "roughly": 8014,
      "##cribed": 8015,
      "voting": 8016,
      "##pes": 8017,
      "##aning": 8018,
      "cance": 8019,
      "overse": 8020,
      "medi": 8021,
      "harsh": 8022,
      "revol": 8023,
      "1997": 8024,
      "practical": 8025,
      "guardian": 8026,
      "contrast": 8027,
      "nicodemus": 8028,
      "holidays": 8029,
      "repeat": 8030,
      "chicago": 8031,
      "91": 8032,
      "bah": 8033,
      "##rels": 8034,
      "##stairs": 8035,
      "precept": 8036,
      "expand": 8037,
      "##awa": 8038,
      "responses": 8039,
      "robber": 8040,
      "permanent": 8041,
      "duck": 8042,
      "yam": 8043,
      "##boy": 8044,
      "##rep": 8045,
      "wend": 8046,
      "##ads": 8047,
      "greg": 8048,
      "rebuk": 8049,
      "traditions": 8050,
      "conceived": 8051,
      "emotional": 8052,
      "goliath": 8053,
      "ie": 8054,
      "veter": 8055,
      "##onies": 8056,
      "ine": 8057,
      "##icious": 8058,
      "scale": 8059,
      "learnt": 8060,
      "infants": 8061,
      "opin": 8062,
      "promote": 8063,
      "reasonable": 8064,
      "transg": 8065,
      "significance": 8066,
      "s01": 8067,
      "worshipped": 8068,
      "lan": 8069,
      "pod": 8070,
      "whore": 8071,
      "hereafter": 8072,
      "server": 8073,
      "infant": 8074,
      "standards": 8075,
      "conform": 8076,
      "assistant": 8077,
      "writings": 8078,
      "indicates": 8079,
      "##eld": 8080,
      "realm": 8081,
      "abc": 8082,
      "abig": 8083,
      "advis": 8084,
      "antich": 8085,
      "greeted": 8086,
      "eighteen": 8087,
      "bondage": 8088,
      "nyc": 8089,
      "succeeded": 8090,
      "remembers": 8091,
      "scholar": 8092,
      "battery": 8093,
      "anonymous": 8094,
      "torn": 8095,
      "##reh": 8096,
      "##stone": 8097,
      "exclaim": 8098,
      "belsh": 8099,
      "discreet": 8100,
      "complic": 8101,
      "missouri": 8102,
      "1998": 8103,
      "##ecost": 8104,
      "toronto": 8105,
      "pentecost": 8106,
      "kan": 8107,
      "ls": 8108,
      "pard": 8109,
      "##rin": 8110,
      "##icip": 8111,
      "grandchild": 8112,
      "stepped": 8113,
      "maintained": 8114,
      "vacc": 8115,
      "theatre": 8116,
      "opinions": 8117,
      "cable": 8118,
      "mate": 8119,
      "piano": 8120,
      "ugh": 8121,
      "voices": 8122,
      "##bu": 8123,
      "##fs": 8124,
      "excess": 8125,
      "adding": 8126,
      "holiness": 8127,
      "banner": 8128,
      "traditional": 8129,
      "motorcy": 8130,
      "pt": 8131,
      "sack": 8132,
      "tb": 8133,
      "yen": 8134,
      "##90": 8135,
      "##ancing": 8136,
      "##itzer": 8137,
      "prays": 8138,
      "keeper": 8139,
      "##issy": 8140,
      "regarded": 8141,
      "travelled": 8142,
      "organiz": 8143,
      "firmly": 8144,
      "bicycles": 8145,
      "caribbean": 8146,
      "bump": 8147,
      "davis": 8148,
      "giver": 8149,
      "expos": 8150,
      "trusting": 8151,
      "elements": 8152,
      "crossed": 8153,
      "identify": 8154,
      "warnings": 8155,
      "females": 8156,
      "baking": 8157,
      "vast": 8158,
      "##ati": 8159,
      "sean": 8160,
      "abner": 8161,
      "manual": 8162,
      "##abbas": 8163,
      "organized": 8164,
      "malays": 8165,
      "levite": 8166,
      "perspective": 8167,
      "belshazzar": 8168,
      "gym": 8169,
      "miam": 8170,
      "bees": 8171,
      "orch": 8172,
      "##ourse": 8173,
      "##tense": 8174,
      "controlled": 8175,
      "draws": 8176,
      "nephites": 8177,
      "mourning": 8178,
      "benefic": 8179,
      "bin": 8180,
      "jair": 8181,
      "beta": 8182,
      "selfish": 8183,
      "patch": 8184,
      "fooled": 8185,
      "cleaned": 8186,
      "naaman": 8187,
      "compassionate": 8188,
      "humbled": 8189,
      "arabia": 8190,
      "philosophy": 8191,
      "##gal": 8192,
      "tomm": 8193,
      "chem": 8194,
      "leaf": 8195,
      "##iph": 8196,
      "##ashes": 8197,
      "wrongdo": 8198,
      "deceased": 8199,
      "urban": 8200,
      "rumors": 8201,
      "hugs": 8202,
      "halloween": 8203,
      "sustain": 8204,
      "pagan": 8205,
      "m3": 8206,
      "useless": 8207,
      "##vet": 8208,
      "##ican": 8209,
      "mosa": 8210,
      "##osph": 8211,
      "jean": 8212,
      "assess": 8213,
      "purposes": 8214,
      "dominion": 8215,
      "yahoo": 8216,
      "influenced": 8217,
      "athens": 8218,
      "1x": 8219,
      "gad": 8220,
      "jar": 8221,
      "tina": 8222,
      "##21": 8223,
      "##inating": 8224,
      "pocket": 8225,
      "insane": 8226,
      "gentlem": 8227,
      "1941": 8228,
      "boobs": 8229,
      "knocks": 8230,
      "prodigal": 8231,
      "miami": 8232,
      "cake": 8233,
      "hired": 8234,
      "rick": 8235,
      "golf": 8236,
      "shipped": 8237,
      "knight": 8238,
      "mock": 8239,
      "exile": 8240,
      "fever": 8241,
      "moments": 8242,
      "basically": 8243,
      "narrow": 8244,
      "analysis": 8245,
      "cros": 8246,
      "eg": 8247,
      "##dal": 8248,
      "mont": 8249,
      "injustice": 8250,
      "lamanites": 8251,
      "zomb": 8252,
      "##fc": 8253,
      "##fare": 8254,
      "thats": 8255,
      "stumble": 8256,
      "sailed": 8257,
      "##aches": 8258,
      "arc": 8259,
      "##ishes": 8260,
      "##amped": 8261,
      "string": 8262,
      "hopefully": 8263,
      "##ribly": 8264,
      "##iki": 8265,
      "tablet": 8266,
      "devour": 8267,
      "hopes": 8268,
      "projects": 8269,
      "proclaiming": 8270,
      "methods": 8271,
      "hats": 8272,
      "##kia": 8273,
      "##99": 8274,
      "##23": 8275,
      "theory": 8276,
      "misunder": 8277,
      "##ucees": 8278,
      "riding": 8279,
      "disagree": 8280,
      "precepts": 8281,
      "##aniah": 8282,
      "drum": 8283,
      "##ships": 8284,
      "studio": 8285,
      "merry": 8286,
      "swords": 8287,
      "unrighteousness": 8288,
      "dread": 8289,
      "##occ": 8290,
      "intense": 8291,
      "phase": 8292,
      "israelite": 8293,
      "endurance": 8294,
      "hurry": 8295,
      "enjoyable": 8296,
      "advantages": 8297,
      "mixed": 8298,
      "executive": 8299,
      "gorge": 8300,
      "dm": 8301,
      "gem": 8302,
      "ja": 8303,
      "jp": 8304,
      "##ori": 8305,
      "##isl": 8306,
      "shell": 8307,
      "enabled": 8308,
      "commits": 8309,
      "acting": 8310,
      "lux": 8311,
      "baptised": 8312,
      "prevailed": 8313,
      "blasphemy": 8314,
      "scenes": 8315,
      "rat": 8316,
      "tang": 8317,
      "##mel": 8318,
      "##fw": 8319,
      "abom": 8320,
      "globe": 8321,
      "retire": 8322,
      "resulted": 8323,
      "wisely": 8324,
      "sadducees": 8325,
      "excuses": 8326,
      "stan": 8327,
      "stumb": 8328,
      "mans": 8329,
      "begotten": 8330,
      "forgot": 8331,
      "##hhhhhhh": 8332,
      "danny": 8333,
      "considering": 8334,
      "concluded": 8335,
      "##respons": 8336,
      "sample": 8337,
      "asshole": 8338,
      "gand": 8339,
      "rage": 8340,
      "##80": 8341,
      "marsh": 8342,
      "rightly": 8343,
      "keys": 8344,
      "heav": 8345,
      "regions": 8346,
      "marks": 8347,
      "romance": 8348,
      "patri": 8349,
      "colors": 8350,
      "columb": 8351,
      "billy": 8352,
      "observed": 8353,
      "feeding": 8354,
      "holes": 8355,
      "candid": 8356,
      "idolatry": 8357,
      "dou": 8358,
      "##com": 8359,
      "##list": 8360,
      "spam": 8361,
      "moves": 8362,
      "##rot": 8363,
      "joh": 8364,
      "procr": 8365,
      "disord": 8366,
      "juda": 8367,
      "coverage": 8368,
      "tablets": 8369,
      "construct": 8370,
      "sophia": 8371,
      "perceive": 8372,
      "foretold": 8373,
      "xxx": 8374,
      "##zo": 8375,
      "##ishing": 8376,
      "flour": 8377,
      "250": 8378,
      "##mane": 8379,
      "issued": 8380,
      "##oko": 8381,
      "absence": 8382,
      "imprisonment": 8383,
      "climb": 8384,
      "equipment": 8385,
      "oops": 8386,
      "wre": 8387,
      "##ggy": 8388,
      "chase": 8389,
      "canon": 8390,
      "tee": 8391,
      "gras": 8392,
      "barabbas": 8393,
      "capture": 8394,
      "1979": 8395,
      "catching": 8396,
      "redeemed": 8397,
      "blonde": 8398,
      "dilig": 8399,
      "abigail": 8400,
      "diction": 8401,
      "s3": 8402,
      "tay": 8403,
      "teddy": 8404,
      "##hear": 8405,
      "##rees": 8406,
      "##alo": 8407,
      "fees": 8408,
      "candy": 8409,
      "ticket": 8410,
      "renewed": 8411,
      "encounter": 8412,
      "procrast": 8413,
      "jav": 8414,
      "vib": 8415,
      "##rants": 8416,
      "##wr": 8417,
      "wire": 8418,
      "marve": 8419,
      "##aping": 8420,
      "warns": 8421,
      "perfectly": 8422,
      "fisher": 8423,
      "fails": 8424,
      "struggled": 8425,
      "buddh": 8426,
      "interpreted": 8427,
      "cb": 8428,
      "wu": 8429,
      "##lan": 8430,
      "##liness": 8431,
      "##25": 8432,
      "whit": 8433,
      "chart": 8434,
      "##abilities": 8435,
      "##aki": 8436,
      "arth": 8437,
      "minded": 8438,
      "applying": 8439,
      "pillar": 8440,
      "hosea": 8441,
      "ting": 8442,
      "anch": 8443,
      "marine": 8444,
      "herd": 8445,
      "pled": 8446,
      "charges": 8447,
      "sixteen": 8448,
      "##burg": 8449,
      "bishop": 8450,
      "zedek": 8451,
      "noon": 8452,
      "hal": 8453,
      "chop": 8454,
      "##oop": 8455,
      "##vened": 8456,
      "spared": 8457,
      "parties": 8458,
      "arriving": 8459,
      "outcome": 8460,
      "shooting": 8461,
      "hating": 8462,
      "oak": 8463,
      "wah": 8464,
      "##pter": 8465,
      "##40": 8466,
      "init": 8467,
      "##ito": 8468,
      "locked": 8469,
      "sheba": 8470,
      "belt": 8471,
      "hunting": 8472,
      "michelle": 8473,
      "aku": 8474,
      "sanctified": 8475,
      "advertising": 8476,
      "rural": 8477,
      "##ervation": 8478,
      "reck": 8479,
      "nepal": 8480,
      "laod": 8481,
      "125": 8482,
      "builds": 8483,
      "irrespons": 8484,
      "eighty": 8485,
      "festiv": 8486,
      "volume": 8487,
      "platform": 8488,
      "therapy": 8489,
      "jungle": 8490,
      "paragraph": 8491,
      "mosaic": 8492,
      "ker": 8493,
      "tac": 8494,
      "toys": 8495,
      "abd": 8496,
      "##aire": 8497,
      "fourteen": 8498,
      "visions": 8499,
      "claiming": 8500,
      "deserted": 8501,
      "owes": 8502,
      "fortun": 8503,
      "critic": 8504,
      "tattoos": 8505,
      "rahab": 8506,
      "chocolate": 8507,
      "echo": 8508,
      "mun": 8509,
      "pi": 8510,
      "##rition": 8511,
      "##udd": 8512,
      "infuri": 8513,
      "relate": 8514,
      "persia": 8515,
      "spoiled": 8516,
      "salv": 8517,
      "concerns": 8518,
      "reaches": 8519,
      "marched": 8520,
      "episodes": 8521,
      "buddy": 8522,
      "https": 8523,
      "boldly": 8524,
      "##break": 8525,
      "robbers": 8526,
      "electronic": 8527,
      "illegal": 8528,
      "scepter": 8529,
      "zedekiah": 8530,
      "lasts": 8531,
      "debts": 8532,
      "foreigner": 8533,
      "gibeon": 8534,
      "e3": 8535,
      "lick": 8536,
      "tore": 8537,
      "nokia": 8538,
      "socc": 8539,
      "shechem": 8540,
      "blameless": 8541,
      "resolution": 8542,
      "hoor": 8543,
      "roar": 8544,
      "robe": 8545,
      "confusion": 8546,
      "1970": 8547,
      "purchased": 8548,
      "abundantly": 8549,
      "antichrist": 8550,
      "ira": 8551,
      "##bour": 8552,
      "##erving": 8553,
      "item": 8554,
      "##eled": 8555,
      "sworn": 8556,
      "closely": 8557,
      "deceit": 8558,
      "preparation": 8559,
      "connor": 8560,
      "melch": 8561,
      "habakk": 8562,
      "companion": 8563,
      "commercial": 8564,
      "assuredly": 8565,
      "laodice": 8566,
      "habakkuk": 8567,
      "boot": 8568,
      "pest": 8569,
      "tube": 8570,
      "tiny": 8571,
      "yep": 8572,
      "forn": 8573,
      "asp": 8574,
      "amp": 8575,
      "shem": 8576,
      "snap": 8577,
      "sweetness": 8578,
      "teams": 8579,
      "congress": 8580,
      "deborah": 8581,
      "russians": 8582,
      "permit": 8583,
      "humbles": 8584,
      "acknowledge": 8585,
      "adventure": 8586,
      "b3": 8587,
      "gm": 8588,
      "##yers": 8589,
      "##ading": 8590,
      "abused": 8591,
      "##ooo": 8592,
      "thanked": 8593,
      "##ogy": 8594,
      "24th": 8595,
      "correctly": 8596,
      "hyd": 8597,
      "dip": 8598,
      "kansas": 8599,
      "##dens": 8600,
      "##yth": 8601,
      "##just": 8602,
      "##usions": 8603,
      "feb": 8604,
      "brush": 8605,
      "angeles": 8606,
      "wax": 8607,
      "assure": 8608,
      "define": 8609,
      "attacks": 8610,
      "pete": 8611,
      "complained": 8612,
      "apologized": 8613,
      "torment": 8614,
      "navy": 8615,
      "forefathers": 8616,
      "hooray": 8617,
      "cum": 8618,
      "##pus": 8619,
      "##raine": 8620,
      "##fly": 8621,
      "##aria": 8622,
      "lil": 8623,
      "frog": 8624,
      "parables": 8625,
      "desper": 8626,
      "recip": 8627,
      "mins": 8628,
      "assass": 8629,
      "destroying": 8630,
      "additionally": 8631,
      "essays": 8632,
      "bags": 8633,
      "illustration": 8634,
      "historical": 8635,
      "obligation": 8636,
      "##ufact": 8637,
      "dump": 8638,
      "irene": 8639,
      "pics": 8640,
      "##bus": 8641,
      "##eration": 8642,
      "haun": 8643,
      "##itor": 8644,
      "spin": 8645,
      "protein": 8646,
      "searched": 8647,
      "euro": 8648,
      "ruling": 8649,
      "##held": 8650,
      "talent": 8651,
      "brooklyn": 8652,
      "cin": 8653,
      "noble": 8654,
      "welf": 8655,
      "##adays": 8656,
      "alt": 8657,
      "monster": 8658,
      "addiction": 8659,
      "clever": 8660,
      "visible": 8661,
      "midnight": 8662,
      "grandchildren": 8663,
      "fury": 8664,
      "wakes": 8665,
      "##can": 8666,
      "##bian": 8667,
      "##rations": 8668,
      "donations": 8669,
      "manufact": 8670,
      "spy": 8671,
      "lords": 8672,
      "clin": 8673,
      "sympt": 8674,
      "##ucing": 8675,
      "invitation": 8676,
      "charging": 8677,
      "majesty": 8678,
      "melody": 8679,
      "melanie": 8680,
      "hypocrisy": 8681,
      "vinyl": 8682,
      "transgressors": 8683,
      "demonstrated": 8684,
      "soccer": 8685,
      "dign": 8686,
      "ni": 8687,
      "##du": 8688,
      "outs": 8689,
      "nowadays": 8690,
      "disgr": 8691,
      "scot": 8692,
      "remo": 8693,
      "warfare": 8694,
      "assume": 8695,
      "sufferings": 8696,
      "cape": 8697,
      "translations": 8698,
      "magdal": 8699,
      "philistine": 8700,
      "appreciate": 8701,
      "gnashing": 8702,
      "unbelievers": 8703,
      "geth": 8704,
      "##die": 8705,
      "thunder": 8706,
      "##oust": 8707,
      "compelled": 8708,
      "139": 8709,
      "attitudes": 8710,
      "supplic": 8711,
      "destiny": 8712,
      "delay": 8713,
      "evident": 8714,
      "autumn": 8715,
      "welfare": 8716,
      "graph": 8717,
      "ml": 8718,
      "##aa": 8719,
      "##enna": 8720,
      "sting": 8721,
      "frag": 8722,
      "atom": 8723,
      "spies": 8724,
      "##reated": 8725,
      "scare": 8726,
      "1980": 8727,
      "fitness": 8728,
      "behaviour": 8729,
      "democracy": 8730,
      "affliction": 8731,
      "rebuked": 8732,
      "kis": 8733,
      "mitch": 8734,
      "salm": 8735,
      "##bab": 8736,
      "##uits": 8737,
      "##war": 8738,
      "##aned": 8739,
      "hav": 8740,
      "chasing": 8741,
      "##aku": 8742,
      "coins": 8743,
      "overt": 8744,
      "deadly": 8745,
      "regulations": 8746,
      "singles": 8747,
      "memes": 8748,
      "legisl": 8749,
      "detect": 8750,
      "tasted": 8751,
      "customer": 8752,
      "pursuit": 8753,
      "forbidden": 8754,
      "gil": 8755,
      "nom": 8756,
      "wm": 8757,
      "nether": 8758,
      "ench": 8759,
      "gray": 8760,
      "greatness": 8761,
      "crops": 8762,
      "##ivers": 8763,
      "switzer": 8764,
      "refres": 8765,
      "trend": 8766,
      "cleanse": 8767,
      "bothered": 8768,
      "hanging": 8769,
      "##standing": 8770,
      "lonel": 8771,
      "nu": 8772,
      "vent": 8773,
      "yoda": 8774,
      "##inate": 8775,
      "##orus": 8776,
      "lip": 8777,
      "##elu": 8778,
      "##estyle": 8779,
      "comedy": 8780,
      "endured": 8781,
      "##ailing": 8782,
      "monk": 8783,
      "slip": 8784,
      "corresp": 8785,
      "generosity": 8786,
      "despise": 8787,
      "neighborhood": 8788,
      "earthquakes": 8789,
      "##rr": 8790,
      "##mat": 8791,
      "worn": 8792,
      "frost": 8793,
      "hadad": 8794,
      "buck": 8795,
      "tremb": 8796,
      "strongly": 8797,
      "teenager": 8798,
      "appointment": 8799,
      "exhausted": 8800,
      "switzerland": 8801,
      "##88": 8802,
      "##xual": 8803,
      "shattered": 8804,
      "prec": 8805,
      "differently": 8806,
      "grandson": 8807,
      "epic": 8808,
      "experiencing": 8809,
      "requirements": 8810,
      "browser": 8811,
      "obeying": 8812,
      "loneliness": 8813,
      "correspond": 8814,
      "pam": 8815,
      "raped": 8816,
      "thumb": 8817,
      "armed": 8818,
      "adoni": 8819,
      "145": 8820,
      "evalu": 8821,
      "joyful": 8822,
      "intim": 8823,
      "profound": 8824,
      "extent": 8825,
      "1993": 8826,
      "appreciated": 8827,
      "casual": 8828,
      "prosperity": 8829,
      "fornication": 8830,
      "gethse": 8831,
      "81": 8832,
      "gs": 8833,
      "pries": 8834,
      "##stein": 8835,
      "tries": 8836,
      "unch": 8837,
      "medium": 8838,
      "restrict": 8839,
      "bitco": 8840,
      "hunter": 8841,
      "simpl": 8842,
      "practicing": 8843,
      "##zech": 8844,
      "virginia": 8845,
      "writers": 8846,
      "jabesh": 8847,
      "a5": 8848,
      "bash": 8849,
      "js": 8850,
      "mh": 8851,
      "##care": 8852,
      "##pah": 8853,
      "##ras": 8854,
      "##mit": 8855,
      "##vania": 8856,
      "bew": 8857,
      "##idi": 8858,
      "##adel": 8859,
      "##veness": 8860,
      "beck": 8861,
      "retired": 8862,
      "artists": 8863,
      "##ups": 8864,
      "dealt": 8865,
      "bonus": 8866,
      "champions": 8867,
      "ian": 8868,
      "ling": 8869,
      "piz": 8870,
      "##sen": 8871,
      "##itect": 8872,
      "joint": 8873,
      "heroes": 8874,
      "educational": 8875,
      "beaten": 8876,
      "demonstrate": 8877,
      "dictionary": 8878,
      "cm": 8879,
      "jw": 8880,
      "tune": 8881,
      "hah": 8882,
      "saudi": 8883,
      "thereof": 8884,
      "upstairs": 8885,
      "spare": 8886,
      "herds": 8887,
      "sony": 8888,
      "lazy": 8889,
      "honda": 8890,
      "counting": 8891,
      "featuring": 8892,
      "michigan": 8893,
      "separates": 8894,
      "trading": 8895,
      "patiently": 8896,
      "physically": 8897,
      "proceeded": 8898,
      "cheerful": 8899,
      "yuk": 8900,
      "##gi": 8901,
      "nod": 8902,
      "##ghan": 8903,
      "amale": 8904,
      "##illing": 8905,
      "compreh": 8906,
      "impress": 8907,
      "decades": 8908,
      "interact": 8909,
      "babys": 8910,
      "##obi": 8911,
      "instagram": 8912,
      "factors": 8913,
      "doubts": 8914,
      "jessica": 8915,
      "ugly": 8916,
      "malaysia": 8917,
      "nw": 8918,
      "tet": 8919,
      "##ijah": 8920,
      "##mes": 8921,
      "shil": 8922,
      "neut": 8923,
      "lod": 8924,
      "boom": 8925,
      "preced": 8926,
      "empower": 8927,
      "1990": 8928,
      "wolves": 8929,
      "tammy": 8930,
      "francisco": 8931,
      "nicole": 8932,
      "sque": 8933,
      "##xy": 8934,
      "##sea": 8935,
      "##asty": 8936,
      "warrant": 8937,
      "refusing": 8938,
      "advised": 8939,
      "annoying": 8940,
      "ruin": 8941,
      "presentation": 8942,
      "cultural": 8943,
      "footst": 8944,
      "elections": 8945,
      "##carn": 8946,
      "exhibition": 8947,
      "gethsemane": 8948,
      "gam": 8949,
      "nails": 8950,
      "##hand": 8951,
      "heir": 8952,
      "wiped": 8953,
      "truck": 8954,
      "conven": 8955,
      "residence": 8956,
      "follower": 8957,
      "burdens": 8958,
      "princes": 8959,
      "besee": 8960,
      "congregations": 8961,
      "commented": 8962,
      "funds": 8963,
      "loyalty": 8964,
      "derived": 8965,
      "recommended": 8966,
      "marvelous": 8967,
      "reincarn": 8968,
      "cf": 8969,
      "fet": 8970,
      "jop": 8971,
      "pant": 8972,
      "rating": 8973,
      "##ni": 8974,
      "needing": 8975,
      "wayne": 8976,
      "104": 8977,
      "phill": 8978,
      "180": 8979,
      "cats": 8980,
      "affili": 8981,
      "sandals": 8982,
      "pushing": 8983,
      "cabin": 8984,
      "motorcycle": 8985,
      "priesthood": 8986,
      "dorm": 8987,
      "beating": 8988,
      "##usive": 8989,
      "##alia": 8990,
      "shif": 8991,
      "donated": 8992,
      "haste": 8993,
      "generally": 8994,
      "advanced": 8995,
      "preacher": 8996,
      "##appy": 8997,
      "participated": 8998,
      "felix": 8999,
      "tidings": 9000,
      "thorough": 9001,
      "gorgeous": 9002,
      "cord": 9003,
      "czech": 9004,
      "thereafter": 9005,
      "orle": 9006,
      "backs": 9007,
      "110": 9008,
      "offense": 9009,
      "preserve": 9010,
      "institute": 9011,
      "tempor": 9012,
      "denies": 9013,
      "architect": 9014,
      "stretched": 9015,
      "alien": 9016,
      "comparison": 9017,
      "laodicea": 9018,
      "magdalene": 9019,
      "bass": 9020,
      "nc": 9021,
      "##irus": 9022,
      "##kel": 9023,
      "workshop": 9024,
      "strict": 9025,
      "solved": 9026,
      "polish": 9027,
      "capacity": 9028,
      "lament": 9029,
      "freak": 9030,
      "constit": 9031,
      "##ella": 9032,
      "audi": 9033,
      "cycle": 9034,
      "shawn": 9035,
      "traffic": 9036,
      "cod": 9037,
      "dates": 9038,
      "moo": 9039,
      "nag": 9040,
      "tort": 9041,
      "##lings": 9042,
      "purple": 9043,
      "contrad": 9044,
      "manifested": 9045,
      "relatively": 9046,
      "trailer": 9047,
      "goshen": 9048,
      "congrat": 9049,
      "akufo": 9050,
      "dent": 9051,
      "fiction": 9052,
      "jere": 9053,
      "kent": 9054,
      "pand": 9055,
      "stor": 9056,
      "aram": 9057,
      "arrows": 9058,
      "##olf": 9059,
      "verb": 9060,
      "deserved": 9061,
      "implic": 9062,
      "apoll": 9063,
      "staring": 9064,
      "revolution": 9065,
      "lampstand": 9066,
      "brill": 9067,
      "inhabited": 9068,
      "##yyy": 9069,
      "khan": 9070,
      "alternative": 9071,
      "netherlands": 9072,
      "jr": 9073,
      "moore": 9074,
      "lep": 9075,
      "homemade": 9076,
      "clients": 9077,
      "longing": 9078,
      "swift": 9079,
      "spoil": 9080,
      "continuing": 9081,
      "annually": 9082,
      "gradually": 9083,
      "corners": 9084,
      "archives": 9085,
      "uncom": 9086,
      "narr": 9087,
      "furnace": 9088,
      "census": 9089,
      "nabal": 9090,
      "guarantee": 9091,
      "catherine": 9092,
      "dd": 9093,
      "kin": 9094,
      "nana": 9095,
      "pork": 9096,
      "hem": 9097,
      "##iry": 9098,
      "stole": 9099,
      "##essions": 9100,
      "##ilton": 9101,
      "lend": 9102,
      "lets": 9103,
      "transf": 9104,
      "burst": 9105,
      "approval": 9106,
      "craig": 9107,
      "delivers": 9108,
      "descended": 9109,
      "admitted": 9110,
      "blowing": 9111,
      "hym": 9112,
      "##because": 9113,
      "palestin": 9114,
      "ome": 9115,
      "session": 9116,
      "vo": 9117,
      "##look": 9118,
      "##van": 9119,
      "##akh": 9120,
      "wrest": 9121,
      "gluten": 9122,
      "guided": 9123,
      "invented": 9124,
      "attending": 9125,
      "grab": 9126,
      "responsibly": 9127,
      "potter": 9128,
      "swallowed": 9129,
      "rsvp": 9130,
      "persever": 9131,
      "fountain": 9132,
      "stroke": 9133,
      "b4": 9134,
      "bol": 9135,
      "mes": 9136,
      "##hib": 9137,
      "##aba": 9138,
      "marc": 9139,
      "adobe": 9140,
      "##apers": 9141,
      "composed": 9142,
      "##fted": 9143,
      "explaining": 9144,
      "duties": 9145,
      "rejects": 9146,
      "korean": 9147,
      "eun": 9148,
      "hire": 9149,
      "koh": 9150,
      "mik": 9151,
      "nina": 9152,
      "vig": 9153,
      "hee": 9154,
      "tramp": 9155,
      "flip": 9156,
      "bestowed": 9157,
      "sexually": 9158,
      "gender": 9159,
      "homose": 9160,
      "astounded": 9161,
      "bbw": 9162,
      "encourages": 9163,
      "amalek": 9164,
      "cil": 9165,
      "ebook": 9166,
      "##inations": 9167,
      "ungod": 9168,
      "##oto": 9169,
      "##olation": 9170,
      "mug": 9171,
      "hardly": 9172,
      "28th": 9173,
      "teresa": 9174,
      "fullness": 9175,
      "marries": 9176,
      "captivity": 9177,
      "rebels": 9178,
      "scientist": 9179,
      "pillow": 9180,
      "caleb": 9181,
      "aboard": 9182,
      "complicated": 9183,
      "kil": 9184,
      "mk": 9185,
      "zero": 9186,
      "##uish": 9187,
      "##ully": 9188,
      "sov": 9189,
      "bru": 9190,
      "client": 9191,
      "##berry": 9192,
      "##izedek": 9193,
      "sunset": 9194,
      "illum": 9195,
      "touching": 9196,
      "lyn": 9197,
      "humbly": 9198,
      "kit": 9199,
      "ming": 9200,
      "neil": 9201,
      "##sters": 9202,
      "130": 9203,
      "kindly": 9204,
      "replaced": 9205,
      "developing": 9206,
      "classic": 9207,
      "journeyed": 9208,
      "sevent": 9209,
      "executed": 9210,
      "combat": 9211,
      "ignorant": 9212,
      "throat": 9213,
      "lmfa": 9214,
      "exclaimed": 9215,
      "pizza": 9216,
      "bachel": 9217,
      "lum": 9218,
      "yang": 9219,
      "##29": 9220,
      "##orter": 9221,
      "analy": 9222,
      "twist": 9223,
      "127": 9224,
      "decay": 9225,
      "chariot": 9226,
      "divide": 9227,
      "expectations": 9228,
      "equipped": 9229,
      "krist": 9230,
      "aspects": 9231,
      "melchizedek": 9232,
      "ace": 9233,
      "hits": 9234,
      "sung": 9235,
      "heading": 9236,
      "testifies": 9237,
      "rainbow": 9238,
      "darius": 9239,
      "utterly": 9240,
      "mediator": 9241,
      "lmfao": 9242,
      "3x": 9243,
      "boun": 9244,
      "tat": 9245,
      "##gas": 9246,
      "##acles": 9247,
      "deer": 9248,
      "spider": 9249,
      "agric": 9250,
      "everest": 9251,
      "perfection": 9252,
      "speaker": 9253,
      "plane": 9254,
      "worthless": 9255,
      "##abbed": 9256,
      "senate": 9257,
      "commerce": 9258,
      "scorp": 9259,
      "mv": 9260,
      "nests": 9261,
      "tib": 9262,
      "##atoes": 9263,
      "shook": 9264,
      "sauce": 9265,
      "boats": 9266,
      "remaining": 9267,
[...]
