{
  "version": "1.0",
  "truncation": null,
  "padding": null,
  "added_tokens": [
    {
      "id": 0,
      "content": "[PAD]",
      "single_word": false,
      "lstrip": false,
      "rstrip": false,
      "normalized": false,
      "special": true
    },
    {
      "id": 1,
      "content": "[UNK]",
      "single_word": false,
      "lstrip": false,
      "rstrip": false,
      "normalized": false,
      "special": true
    },
    {
      "id": 2,
      "content": "[CLS]",
      "single_word": false,
      "lstrip": false,
      "rstrip": false,
      "normalized": false,
      "special": true
    },
    {
      "id": 3,
      "content": "[SEP]",
      "single_word": false,
      "lstrip": false,
      "rstrip": false,
      "normalized": false,
      "special": true
    },
    {
      "id": 4,
      "content": "[MASK]",
      "single_word": false,
      "lstrip": false,
      "rstrip": false,
      "normalized": false,
      "special": true
    }
  ],
  "normalizer": {
    "type": "BertNormalizer",
    "clean_text": true,
    "handle_chinese_chars": true,
    "strip_accents": null,
    "lowercase": true
  },
  "pre_tokenizer": {
    "type": "BertPreTokenizer"
  },
  "post_processor": null,
  "decoder": {
    "type": "WordPiece",
    "prefix": "##",
    "cleanup": true
  },
  "model": {
    "type": "WordPiece",
    "unk_token": "[UNK]",
    "continuing_subword_prefix": "##",
    "max_input_chars_per_word": 100,
    "vocab": {
      "[PAD]": 0,
      "[UNK]": 1,
      "[CLS]": 2,
      "[SEP]": 3,
      "[MASK]": 4,
      "!": 5,
      "\"": 6,
      "#": 7,
      "$": 8,
      "%": 9,
      "&": 10,
      "'": 11,
      "(": 12,
      ")": 13,
      "*": 14,
      "+": 15,
      ",": 16,
      "-": 17,
      ".": 18,
      "/": 19,
      "0": 20,
      "1": 21,
      "2": 22,
      "3": 23,
      "4": 24,
      "5": 25,
      "6": 26,
      "7": 27,
      "8": 28,
      "9": 29,
      ":": 30,
      ";": 31,
      "<": 32,
      "=": 33,
      ">": 34,
      "?": 35,
      "@": 36,
      "[": 37,
      "]": 38,
      "^": 39,
      "_": 40,
      "a": 41,
      "b": 42,
      "c": 43,
      "d": 44,
      "e": 45,
      "f": 46,
      "g": 47,
      "h": 48,
      "i": 49,
      "j": 50,
      "k": 51,
      "l": 52,
      "m": 53,
      "n": 54,
      "o": 55,
      "p": 56,
      "q": 57,
      "r": 58,
      "s": 59,
      "t": 60,
      "u": 61,
      "v": 62,
      "w": 63,
      "x": 64,
      "y": 65,
      "z": 66,
      "{": 67,
      "|": 68,
      "}": 69,
      "~": 70,
      "ɔ": 71,
      "ɛ": 72,
      "##i": 73,
      "##m": 74,
      "##a": 75,
      "##g": 76,
      "##n": 77,
      "##k": 78,
      "##2": 79,
      "##f": 80,
      "##o": 81,
      "##l": 82,
      "##w": 83,
      "##r": 84,
      "##e": 85,
      "##h": 86,
      "##v": 87,
      "##z": 88,
      "##u": 89,
      "##c": 90,
      "##s": 91,
      "##t": 92,
      "##b": 93,
      "##3": 94,
      "##9": 95,
      "##8": 96,
      "##ɛ": 97,
      "##p": 98,
      "##ɔ": 99,
      "##d": 100,
      "##y": 101,
      "##j": 102,
      "##5": 103,
      "##x": 104,
      "##q": 105,
      "##0": 106,
      "##1": 107,
      "##4": 108,
      "##6": 109,
      "##7": 110,
      "no": 111,
      "##an": 112,
      "##aa": 113,
      "me": 114,
      "wɔ": 115,
      "na": 116,
      "ne": 117,
      "wo": 118,
      "so": 119,
      "sɛ": 120,
      "##re": 121,
      "##ra": 122,
      "##yɛ": 123,
      "##ye": 124,
      "##fo": 125,
      "##ma": 126,
      "##en": 127,
      "yɛ": 128,
      "an": 129,
      "##yi": 130,
      "as": 131,
      "ho": 132,
      "bi": 133,
      "mo": 134,
      "##de": 135,
      "##so": 136,
      "##mm": 137,
      "mu": 138,
      "##ko": 139,
      "##rɛ": 140,
      "##se": 141,
      "##ro": 142,
      "##ka": 143,
      "##am": 144,
      "##ni": 145,
      "ab": 146,
      "##ne": 147,
      "ye": 148,
      "##ou": 149,
      "##ri": 150,
      "##te": 151,
      "##ti": 152,
      "ad": 153,
      "##le": 154,
      "wɔn": 155,
      "##ho": 156,
      "##sa": 157,
      "##su": 158,
      "##wa": 159,
      "be": 160,
      "##bi": 161,
      "##wu": 162,
      "ma": 163,
      "##pa": 164,
      "##ya": 165,
      "##on": 166,
      "##sɛ": 167,
      "##fi": 168,
      "##yerɛ": 169,
      "##um": 170,
      "##ɔn": 171,
      "##di": 172,
      "de": 173,
      "##yin": 174,
      "##om": 175,
      "ka": 176,
      "##in": 177,
      "bɛ": 178,
      "se": 179,
      "##be": 180,
      "you": 181,
      "##to": 182,
      "nk": 183,
      "##yan": 184,
      "ak": 185,
      "##bɛ": 186,
      "yi": 187,
      "on": 188,
      "##ara": 189,
      "yɛn": 190,
      "saa": 191,
      "##me": 192,
      "##we": 193,
      "##ua": 194,
      "##ɛn": 195,
      "##fe": 196,
      "##pɔn": 197,
      "ba": 198,
      "##wo": 199,
      "##ia": 200,
      "##ba": 201,
      "##yanko": 202,
      "##ie": 203,
      "##yankopɔn": 204,
      "##hu": 205,
      "##umi": 206,
      "nea": 207,
      "ko": 208,
      "da": 209,
      "nn": 210,
      "##ɔɔ": 211,
      "nyin": 212,
      "te": 213,
      "onyankopɔn": 214,
      "ani": 215,
      "nni": 216,
      "##wɔ": 217,
      "##ii": 218,
      "ɛn": 219,
      "mm": 220,
      "nyinaa": 221,
      "##wɛ": 222,
      "##ɛm": 223,
      "nso": 224,
      "ah": 225,
      "##mmmm": 226,
      "##da": 227,
      "##fa": 228,
      "wu": 229,
      "kɛ": 230,
      "we": 231,
      "nan": 232,
      "##tumi": 233,
      "fa": 234,
      "kyerɛ": 235,
      "##lɛ": 236,
      "##ow": 237,
      "ase": 238,
      "hɔ": 239,
      "##si": 240,
      "##out": 241,
      "am": 242,
      "about": 243,
      "ag": 244,
      "mi": 245,
      "he": 246,
      "wa": 247,
      "##la": 248,
      "asɛm": 249,
      "pa": 250,
      "##oa": 251,
      "##na": 252,
      "##ta": 253,
      "to": 254,
      "obi": 255,
      "mma": 256,
      "re": 257,
      "##wan": 258,
      "##ase": 259,
      "ara": 260,
      "fo": 261,
      "##bɔ": 262,
      "en": 263,
      "bere": 264,
      "awu": 265,
      "##kɔ": 266,
      "wan": 267,
      "ni": 268,
      "yesu": 269,
      "baa": 270,
      "##ane": 271,
      "##ene": 272,
      "at": 273,
      "wow": 274,
      "nanso": 275,
      "nnipa": 276,
      "##ha": 277,
      "##rade": 278,
      "##un": 279,
      "##sɛm": 280,
      "##kyerɛ": 281,
      "##ww": 282,
      "##gye": 283,
      "aho": 284,
      "mp": 285,
      "anaa": 286,
      "biara": 287,
      "la": 288,
      "##li": 289,
      "nti": 290,
      "##ur": 291,
      "bo": 292,
      "##hwɛ": 293,
      "##he": 294,
      "fi": 295,
      "awurade": 296,
      "afe": 297,
      "##wuma": 298,
      "##yam": 299,
      "##et": 300,
      "si": 301,
      "ade": 302,
      "bɔ": 303,
      "##ware": 304,
      "sa": 305,
      "##row": 306,
      "##ll": 307,
      "##man": 308,
      "##kye": 309,
      "kɔ": 310,
      "di": 311,
      "dɛn": 312,
      "##lo": 313,
      "20": 314,
      "##sua": 315,
      "##uu": 316,
      "##pɛ": 317,
      "##hyɛ": 318,
      "##bo": 319,
      "in": 320,
      "##wi": 321,
      "##kɛ": 322,
      "enti": 323,
      "ama": 324,
      "ha": 325,
      "ɛyɛ": 326,
      "##ena": 327,
      "kyerɛɛ": 328,
      "maa": 329,
      "ti": 330,
      "do": 331,
      "wɔa": 332,
      "ɔn": 333,
      "##ve": 334,
      "nne": 335,
      "##foɔ": 336,
      "won": 337,
      "efi": 338,
      "su": 339,
      "##uan": 340,
      "men": 341,
      "yo": 342,
      "##pe": 343,
      "##nea": 344,
      "akyi": 345,
      "gyi": 346,
      "mon": 347,
      "how": 348,
      "##bu": 349,
      "wor": 350,
      "##st": 351,
      "##ku": 352,
      "##raa": 353,
      "##ren": 354,
      "adi": 355,
      "pii": 356,
      "##ble": 357,
      "##nim": 358,
      "##ron": 359,
      "mɔɔ": 360,
      "##tu": 361,
      "##bɛyɛ": 362,
      "mɛ": 363,
      "##foro": 364,
      "ya": 365,
      "aw": 366,
      "##ee": 367,
      "sɛnea": 368,
      "li": 369,
      "##yia": 370,
      "##ɔfo": 371,
      "##oo": 372,
      "##yɛn": 373,
      "bio": 374,
      "##now": 375,
      "adwuma": 376,
      "##kasa": 377,
      "mom": 378,
      "biri": 379,
      "##ke": 380,
      "home": 381,
      "asase": 382,
      "here": 383,
      "new": 384,
      "##sra": 385,
      "ɛsɛ": 386,
      "biribi": 387,
      "know": 388,
      "man": 389,
      "gye": 390,
      "##el": 391,
      "mmmmm": 392,
      "##ru": 393,
      "nsa": 394,
      "see": 395,
      "bu": 396,
      "aba": 397,
      "nko": 398,
      "##rima": 399,
      "obiara": 400,
      "nok": 401,
      "nkwa": 402,
      "nt": 403,
      "agya": 404,
      "paa": 405,
      "abo": 406,
      "pɛ": 407,
      "bible": 408,
      "woman": 409,
      "ako": 410,
      "wi": 411,
      "##enle": 412,
      "afi": 413,
      "daa": 414,
      "afei": 415,
      "far": 416,
      "ɔyɛ": 417,
      "##ɛma": 418,
      "din": 419,
      "nee": 420,
      "yes": 421,
      "info": 422,
      "##ris": 423,
      "mfe": 424,
      "efisɛ": 425,
      "want": 426,
      "nneɛma": 427,
      "##hi": 428,
      "ayɛ": 429,
      "##maa": 430,
      "nsɛm": 431,
      "nyam": 432,
      "deɛ": 433,
      "##bea": 434,
      "##ɔre": 435,
      "##son": 436,
      "19": 437,
      "oni": 438,
      "ku": 439,
      "ed": 440,
      "nkyɛn": 441,
      "aka": 442,
      "##nee": 443,
      "##saa": 444,
      "now": 445,
      "##iase": 446,
      "##betumi": 447,
      "abu": 448,
      "##hye": 449,
      "kwan": 450,
      "##do": 451,
      "##dɔ": 452,
      "ɔk": 453,
      "##ar": 454,
      "mme": 455,
      "##fu": 456,
      "##mu": 457,
      "##ree": 458,
      "##yina": 459,
      "bɔne": 460,
      "ano": 461,
      "10": 462,
      "##hia": 463,
      "eye": 464,
      "ebi": 465,
      "eyi": 466,
      "woa": 467,
      "nwo": 468,
      "##tie": 469,
      "bɛn": 470,
      "nka": 471,
      "nokware": 472,
      "##dwo": 473,
      "##ck": 474,
      "ɔso": 475,
      "##wee": 476,
      "bɛyɛ": 477,
      "wɔde": 478,
      "ɔwɔ": 479,
      "onipa": 480,
      "kan": 481,
      "wiase": 482,
      "kris": 483,
      "ɛwɔ": 484,
      "ɛnyɛ": 485,
      "po": 486,
      "nkur": 487,
      "adw": 488,
      "mpo": 489,
      "##ry": 490,
      "du": 491,
      "den": 492,
      "hon": 493,
      "##san": 494,
      "ɛno": 495,
      "ɔba": 496,
      "##ten": 497,
      "nyɛ": 498,
      "nu": 499,
      "ɔde": 500,
      "of": 501,
      "##wom": 502,
      "too": 503,
      "anim": 504,
      "##hwe": 505,
      "af": 506,
      "##zu": 507,
      "dɔ": 508,
      "get": 509,
      "ask": 510,
      "ɔka": 511,
      "##yaa": 512,
      "kristo": 513,
      "yu": 514,
      "mɔ": 515,
      "hu": 516,
      "ng": 517,
      "awie": 518,
      "201": 519,
      "fe": 520,
      "##ch": 521,
      "ɔb": 522,
      "for": 523,
      "##ce": 524,
      "pe": 525,
      "kasa": 526,
      "##srael": 527,
      "go": 528,
      "sen": 529,
      "aman": 530,
      "the": 531,
      "work": 532,
      "12": 533,
      "kae": 534,
      "##nn": 535,
      "##gya": 536,
      "##tan": 537,
      "tumi": 538,
      "##kan": 539,
      "##firi": 540,
      "foforo": 541,
      "don": 542,
      "anu": 543,
      "tell": 544,
      "##pae": 545,
      "aso": 546,
      "nna": 547,
      "israel": 548,
      "ɛbɛ": 549,
      "##zi": 550,
      "nkɔ": 551,
      "mere": 552,
      "wei": 553,
      "hwɛ": 554,
      "##how": 555,
      "yɛɛ": 556,
      "##frɛ": 557,
      "11": 558,
      "##den": 559,
      "15": 560,
      "ki": 561,
      "##fra": 562,
      "kɛse": 563,
      "kaa": 564,
      "##ran": 565,
      "asa": 566,
      "ɔbɛ": 567,
      "ap": 568,
      "kɔɔ": 569,
      "yeho": 570,
      "owu": 571,
      "ana": 572,
      "##boa": 573,
      "wɔbɛ": 574,
      "##mma": 575,
      "##kra": 576,
      "##ge": 577,
      "##deɛ": 578,
      "##tee": 579,
      "14": 580,
      "##twe": 581,
      "##taa": 582,
      "baako": 583,
      "##ue": 584,
      "yehowa": 585,
      "bia": 586,
      "min": 587,
      "awe": 588,
      "ahen": 589,
      "yɛa": 590,
      "ta": 591,
      "##mi": 592,
      "koraa": 593,
      "##som": 594,
      "##waa": 595,
      "##nu": 596,
      "##homa": 597,
      "akyerɛ": 598,
      "##sam": 599,
      "aa": 600,
      "##tena": 601,
      "##dow": 602,
      "##hane": 603,
      "##vo": 604,
      "##va": 605,
      "##ze": 606,
      "##amfo": 607,
      "afo": 608,
      "adwene": 609,
      "13": 610,
      "##yɛɛ": 611,
      "##po": 612,
      "nsu": 613,
      "nyankopɔn": 614,
      "18": 615,
      "adu": 616,
      "##ter": 617,
      "more": 618,
      "##tɔ": 619,
      "##hyi": 620,
      "tu": 621,
      "##tion": 622,
      "le": 623,
      "ra": 624,
      "edwɛ": 625,
      "ankasa": 626,
      "lo": 627,
      "adan": 628,
      "nkurɔfo": 629,
      "##nya": 630,
      "##hene": 631,
      "ada": 632,
      "##mfo": 633,
      "##hom": 634,
      "ɔno": 635,
      "ca": 636,
      "mmara": 637,
      "baabi": 638,
      "##dan": 639,
      "edi": 640,
      "##kyi": 641,
      "abi": 642,
      "mmom": 643,
      "17": 644,
      "hi": 645,
      "abusua": 646,
      "biribiara": 647,
      "yiye": 648,
      "bae": 649,
      "##rɔ": 650,
      "mpae": 651,
      "##mmɔ": 652,
      "aww": 653,
      "##huu": 654,
      "##uanom": 655,
      "dan": 656,
      "sika": 657,
      "ati": 658,
      "papa": 659,
      "asua": 660,
      "asom": 661,
      "yen": 662,
      "nyamenle": 663,
      "wee": 664,
      "##mo": 665,
      "adɛn": 666,
      "##uru": 667,
      "yohane": 668,
      "jo": 669,
      "##hɔ": 670,
      "edwɛkɛ": 671,
      "wɔwɔ": 672,
      "fam": 673,
      "momma": 674,
      "ɛbɛyɛ": 675,
      "##sie": 676,
      "akɔ": 677,
      "lu": 678,
      "fie": 679,
      "##th": 680,
      "san": 681,
      "boa": 682,
      "##kum": 683,
      "mose": 684,
      "##rom": 685,
      "anwo": 686,
      "##ga": 687,
      "oh": 688,
      "han": 689,
      "wobɛ": 690,
      "mfa": 691,
      "mede": 692,
      "nhoma": 693,
      "##zo": 694,
      "co": 695,
      "ɛte": 696,
      "aware": 697,
      "gyidi": 698,
      "##some": 699,
      "honhom": 700,
      "anka": 701,
      "##ki": 702,
      "16": 703,
      "wanna": 704,
      "awo": 705,
      "##rt": 706,
      "ahorow": 707,
      "ɛnee": 708,
      "##rew": 709,
      "##daa": 710,
      "mmɔ": 711,
      "fii": 712,
      "##baa": 713,
      "##han": 714,
      "pau": 715,
      "wɔyɛ": 716,
      "##mmm": 717,
      "nkyerɛ": 718,
      "wh": 719,
      "##hunu": 720,
      "ga": 721,
      "kya": 722,
      "##eɛ": 723,
      "ke": 724,
      "nyan": 725,
      "##pɔ": 726,
      "##hwehwɛ": 727,
      "##wen": 728,
      "##du": 729,
      "agye": 730,
      "##dii": 731,
      "abra": 732,
      "mmi": 733,
      "abɔ": 734,
      "ahenni": 735,
      "##enya": 736,
      "##00": 737,
      "##im": 738,
      "ahe": 739,
      "who": 740,
      "##ame": 741,
      "gi": 742,
      "beb": 743,
      "koma": 744,
      "##hat": 745,
      "one": 746,
      "zo": 747,
      "##volɛ": 748,
      "mfi": 749,
      "kye": 750,
      "ahyɛ": 751,
      "##sy": 752,
      "##ban": 753,
      "asi": 754,
      "##nom": 755,
      "mun": 756,
      "##hyia": 757,
      "tee": 758,
      "ok": 759,
      "##haw": 760,
      "noko": 761,
      "yɛyɛ": 762,
      "ro": 763,
      "##ɛɛ": 764,
      "##gu": 765,
      "ɔsoro": 766,
      "mmmmmmmmm": 767,
      "soro": 768,
      "##ld": 769,
      "ɔdɔ": 770,
      "mar": 771,
      "adanse": 772,
      "ato": 773,
      "adam": 774,
      "kwa": 775,
      "ren": 776,
      "can": 777,
      "##kyɛ": 778,
      "##won": 779,
      "koro": 780,
      "gu": 781,
      "asu": 782,
      "##twa": 783,
      "##tin": 784,
      "ɔre": 785,
      "##lem": 786,
      "##kron": 787,
      "nya": 788,
      "show": 789,
      "##suw": 790,
      "hia": 791,
      "bebree": 792,
      "yɛbɛ": 793,
      "fofo": 794,
      "nyame": 795,
      "##za": 796,
      "##ria": 797,
      "##tew": 798,
      "ɛhye": 799,
      "21": 800,
      "bie": 801,
      "24": 802,
      "bisaa": 803,
      "##ly": 804,
      "asuafo": 805,
      "##lu": 806,
      "bɛba": 807,
      "dɛ": 808,
      "anigye": 809,
      "woo": 810,
      "vi": 811,
      "nhyi": 812,
      "aboa": 813,
      "##dua": 814,
      "##too": 815,
      "yere": 816,
      "dii": 817,
      "ansa": 818,
      "akwan": 819,
      "yuda": 820,
      "##nye": 821,
      "afa": 822,
      "##enkan": 823,
      "moa": 824,
      "##ing": 825,
      "life": 826,
      "gyina": 827,
      "##mafo": 828,
      "nim": 829,
      "kron": 830,
      "ɛnn": 831,
      "dodow": 832,
      "from": 833,
      "wɔre": 834,
      "akyiri": 835,
      "##kae": 836,
      "##kwa": 837,
      "woyɛ": 838,
      "mmoa": 839,
      "meyɛ": 840,
      "##raw": 841,
      "##pem": 842,
      "fu": 843,
      "##ham": 844,
      "ɔbarima": 845,
      "ban": 846,
      "ɔhene": 847,
      "##ky": 848,
      "ɔman": 849,
      "nua": 850,
      "mmo": 851,
      "##rd": 852,
      "##ss": 853,
      "##wam": 854,
      "paulo": 855,
      "ea": 856,
      "22": 857,
      "and": 858,
      "asafo": 859,
      "##sii": 860,
      "ahu": 861,
      "ebia": 862,
      "above": 863,
      "kyerɛw": 864,
      "##ny": 865,
      "tie": 866,
      "##nan": 867,
      "nnɛ": 868,
      "win": 869,
      "anan": 870,
      "aye": 871,
      "afoforo": 872,
      "##ent": 873,
      "##mfa": 874,
      "obe": 875,
      "duzu": 876,
      "baan": 877,
      "kakra": 878,
      "gya": 879,
      "what": 880,
      "##bisa": 881,
      "##ted": 882,
      "##no": 883,
      "kronkron": 884,
      "not": 885,
      "som": 886,
      "##kaa": 887,
      "##barima": 888,
      "ate": 889,
      "anadwo": 890,
      "ɔkwan": 891,
      "##aman": 892,
      "are": 893,
      "kra": 894,
      "aduan": 895,
      "##sɛse": 896,
      "##unu": 897,
      "oo": 898,
      "##es": 899,
      "bɔɔ": 900,
      "ja": 901,
      "sua": 902,
      "bra": 903,
      "ɔbɔ": 904,
      "ru": 905,
      "ow": 906,
      "nyansa": 907,
      "awesome": 908,
      "near": 909,
      "gyisɛse": 910,
      "##dɛ": 911,
      "##bɔɔ": 912,
      "wɔan": 913,
      "hot": 914,
      "25": 915,
      "##onyam": 916,
      "wobe": 917,
      "##mme": 918,
      "awa": 919,
      "asɔre": 920,
      "##uae": 921,
      "ɛba": 922,
      "##wid": 923,
      "esi": 924,
      "abe": 925,
      "##vi": 926,
      "##sen": 927,
      "##rɛɛ": 928,
      "mate": 929,
      "odi": 930,
      "##ani": 931,
      "wat": 932,
      "##sei": 933,
      "anya": 934,
      "pet": 935,
      "ten": 936,
      "##ca": 937,
      "ɔte": 938,
      "hena": 939,
      "love": 940,
      "##ad": 941,
      "al": 942,
      "ɔne": 943,
      "fun": 944,
      "betumi": 945,
      "30": 946,
      "##kɔɔ": 947,
      "ɛfiri": 948,
      "23": 949,
      "##suro": 950,
      "momm": 951,
      "my": 952,
      "##kyerɛw": 953,
      "use": 954,
      "##sɔ": 955,
      "yea": 956,
      "200": 957,
      "##win": 958,
      "asan": 959,
      "kurow": 960,
      "pho": 961,
      "some": 962,
      "com": 963,
      "wode": 964,
      "ofi": 965,
      "ɛnnɛ": 966,
      "faa": 967,
      "28": 968,
      "##anyin": 969,
      "nam": 970,
      "eg": 971,
      "##ber": 972,
      "ɛhɔ": 973,
      "nto": 974,
      "abraham": 975,
      "##pi": 976,
      "ntam": 977,
      "dawid": 978,
      "wɔka": 979,
      "##rusa": 980,
      "ɛda": 981,
      "##wonwa": 982,
      "few": 983,
      "why": 984,
      "##wɛn": 985,
      "maame": 986,
      "asomdwo": 987,
      "your": 988,
      "##tos": 989,
      "##sɛe": 990,
      "sɛn": 991,
      "wubetumi": 992,
      "nhwɛ": 993,
      "##sɔre": 994,
      "##rusalem": 995,
      "moyɛ": 996,
      "wom": 997,
      "fɛ": 998,
      "yɛde": 999,
      "##pon": 1000,
      "nnan": 1001,
      "##mmu": 1002,
      "##wie": 1003,
      "##ɔden": 1004,
      "biako": 1005,
      "##at": 1006,
      "emu": 1007,
      "asɛmpa": 1008,
      "www": 1009,
      "big": 1010,
      "wɔfrɛ": 1011,
      "awiei": 1012,
      "ɔkae": 1013,
      "nye": 1014,
      "##pɔw": 1015,
      "hyɛ": 1016,
      "hwee": 1017,
      "dwuma": 1018,
      "yerusalem": 1019,
      "##kuu": 1020,
      "##xt": 1021,
      "anuanom": 1022,
      "law": 1023,
      "pi": 1024,
      "nte": 1025,
      "##riw": 1026,
      "ɛho": 1027,
      "kyɛ": 1028,
      "##ple": 1029,
      "anuonyam": 1030,
      "draw": 1031,
      "petro": 1032,
      "##rk": 1033,
      "##by": 1034,
      "ɛma": 1035,
      "ɛkɛ": 1036,
      "##ok": 1037,
      "ev": 1038,
      "nku": 1039,
      "naa": 1040,
      "##ason": 1041,
      "##wer": 1042,
      "mfo": 1043,
      "##lan": 1044,
      "th": 1045,
      "au": 1046,
      "31": 1047,
      "##bere": 1048,
      "nipa": 1049,
      "ar": 1050,
      "bisa": 1051,
      "esiane": 1052,
      "yare": 1053,
      "kar": 1054,
      "el": 1055,
      "adiyi": 1056,
      "amane": 1057,
      "firi": 1058,
      "nsɛ": 1059,
      "##sia": 1060,
      "watch": 1061,
      "wore": 1062,
      "##hola": 1063,
      "##enu": 1064,
      "bit": 1065,
      "ɔpɛ": 1066,
      "ai": 1067,
      "##sef": 1068,
      "##yare": 1069,
      "26": 1070,
      "mewɔ": 1071,
      "wɔte": 1072,
      "##boro": 1073,
      "yako": 1074,
      "hyɛɛ": 1075,
      "awerɛ": 1076,
      "mmarima": 1077,
      "israelfo": 1078,
      "all": 1079,
      "##koa": 1080,
      "aga": 1081,
      "ago": 1082,
      "asɛn": 1083,
      "nuanom": 1084,
      "ɛre": 1085,
      "##der": 1086,
      "ɔko": 1087,
      "yet": 1088,
      "nyi": 1089,
      "je": 1090,
      "asomdwoe": 1091,
      "akyɛ": 1092,
      "##em": 1093,
      "mekɛ": 1094,
      "##al": 1095,
      "##benya": 1096,
      "mmofra": 1097,
      "##deo": 1098,
      "bɛma": 1099,
      "akwa": 1100,
      "##gyina": 1101,
      "twe": 1102,
      "ɛfa": 1103,
      "kɛzi": 1104,
      "buaa": 1105,
      "nnwuma": 1106,
      "sukuu": 1107,
      "medi": 1108,
      "mepɛ": 1109,
      "baanu": 1110,
      "nta": 1111,
      "##kyere": 1112,
      "ɔbea": 1113,
      "it": 1114,
      "yɛwɔ": 1115,
      "##lease": 1116,
      "is": 1117,
      "ɔbaa": 1118,
      "wube": 1119,
      "ampa": 1120,
      "waa": 1121,
      "##pt": 1122,
      "need": 1123,
      "bon": 1124,
      "dee": 1125,
      "40": 1126,
      "sun": 1127,
      "lon": 1128,
      "ɔkaa": 1129,
      "mateo": 1130,
      "##woo": 1131,
      "anz": 1132,
      "wopɛ": 1133,
      "##ute": 1134,
      "##kuw": 1135,
      "biala": 1136,
      "add": 1137,
      "yudafo": 1138,
      "goo": 1139,
      "time": 1140,
      "gyima": 1141,
      "##or": 1142,
      "##fei": 1143,
      "dua": 1144,
      "pro": 1145,
      "video": 1146,
      "##yame": 1147,
      "meka": 1148,
      "##ty": 1149,
      "ntɛm": 1150,
      "##mmi": 1151,
      "nɔ": 1152,
      "again": 1153,
      "bea": 1154,
      "ɔhaw": 1155,
      "photos": 1156,
      "mmienu": 1157,
      "bow": 1158,
      "mmmm": 1159,
      "asɛ": 1160,
      "munn": 1161,
      "anzɛɛ": 1162,
      "##rin": 1163,
      "hwe": 1164,
      "yɛre": 1165,
      "asante": 1166,
      "##fie": 1167,
      "werɛ": 1168,
      "nnamfo": 1169,
      "nnye": 1170,
      "nin": 1171,
      "##ful": 1172,
      "##ɔnwo": 1173,
      "yie": 1174,
      "yosef": 1175,
      "seesei": 1176,
      "29": 1177,
      "sha": 1178,
      "##tenaa": 1179,
      "##gua": 1180,
      "ɛnna": 1181,
      "##renee": 1182,
      "twi": 1183,
      "dwom": 1184,
      "ɛde": 1185,
      "ɛtɔ": 1186,
      "mode": 1187,
      "abɔfo": 1188,
      "easy": 1189,
      "yee": 1190,
      "##rl": 1191,
      "##faa": 1192,
      "ɛkyerɛ": 1193,
      "hyia": 1194,
      "mmaa": 1195,
      "##ver": 1196,
      "ben": 1197,
      "32": 1198,
      "kpa": 1199,
      "##ut": 1200,
      "hann": 1201,
      "##bie": 1202,
      "##kwan": 1203,
      "##mon": 1204,
      "nokwa": 1205,
      "sta": 1206,
      "27": 1207,
      "##bra": 1208,
      "bɛka": 1209,
      "##tɛ": 1210,
      "if": 1211,
      "sii": 1212,
      "wura": 1213,
      "menli": 1214,
      "ebinom": 1215,
      "ntumi": 1216,
      "care": 1217,
      "kyerɛkyerɛ": 1218,
      "wodi": 1219,
      "baby": 1220,
      "yebetumi": 1221,
      "aban": 1222,
      "abɛ": 1223,
      "nhyira": 1224,
      "##wene": 1225,
      "hen": 1226,
      "ge": 1227,
      "##hyɛɛ": 1228,
      "abien": 1229,
      "ri": 1230,
      "##yo": 1231,
      "cou": 1232,
      "ason": 1233,
      "please": 1234,
      "akɛ": 1235,
      "daakye": 1236,
      "sɔ": 1237,
      "##mɔ": 1238,
      "egy": 1239,
      "##lie": 1240,
      "##brɛ": 1241,
      "##hui": 1242,
      "##susuw": 1243,
      "word": 1244,
      "##yinom": 1245,
      "kristofo": 1246,
      "##hova": 1247,
      "##pu": 1248,
      "awofo": 1249,
      "mobɛ": 1250,
      "yɛne": 1251,
      "ɛto": 1252,
      "ɛnsɛ": 1253,
      "##wɔtwe": 1254,
      "even": 1255,
      "ɔkɔ": 1256,
      "##bolo": 1257,
      "nsam": 1258,
      "ɛwom": 1259,
      "next": 1260,
      "ɛbɛma": 1261,
      "atɛn": 1262,
      "yaw": 1263,
      "##brow": 1264,
      "##ook": 1265,
      "##bun": 1266,
      "azo": 1267,
      "week": 1268,
      "nhwɛso": 1269,
      "ebetumi": 1270,
      "##nanso": 1271,
      "ebe": 1272,
      "##tra": 1273,
      "mr": 1274,
      "##ina": 1275,
      "ao": 1276,
      "##ɛsa": 1277,
      "yeah": 1278,
      "##tua": 1279,
      "##rika": 1280,
      "sam": 1281,
      "ngo": 1282,
      "##tow": 1283,
      "ɔbon": 1284,
      "asomafo": 1285,
      "fee": 1286,
      "##koro": 1287,
      "or": 1288,
      "##afei": 1289,
      "son": 1290,
      "like": 1291,
      "awwww": 1292,
      "eyebrow": 1293,
      "titi": 1294,
      "wobɛyɛ": 1295,
      "ew": 1296,
      "mama": 1297,
      "##kyerɛkyerɛ": 1298,
      "good": 1299,
      "##tia": 1300,
      "nw": 1301,
      "##rim": 1302,
      "tom": 1303,
      "##mmmmmmmm": 1304,
      "mmm": 1305,
      "baebolo": 1306,
      "##go": 1307,
      "mpan": 1308,
      "kuro": 1309,
      "##iew": 1310,
      "wun": 1311,
      "mes": 1312,
      "god": 1313,
      "asetena": 1314,
      "con": 1315,
      "tia": 1316,
      "satan": 1317,
      "ɛka": 1318,
      "ve": 1319,
      "##mmisa": 1320,
      "kpalɛ": 1321,
      "##ting": 1322,
      "##die": 1323,
      "##yɛfo": 1324,
      "bl": 1325,
      "##hyehyɛ": 1326,
      "##fee": 1327,
      "nkye": 1328,
      "lɛ": 1329,
      "##twi": 1330,
      "ɔmaa": 1331,
      "abiɛsa": 1332,
      "afiase": 1333,
      "eyinom": 1334,
      "mp3": 1335,
      "huu": 1336,
      "##sum": 1337,
      "##yɛne": 1338,
      "afɔre": 1339,
      "mfaso": 1340,
      "mmmmmm": 1341,
      "##iel": 1342,
      "mmea": 1343,
      "gyinae": 1344,
      "meda": 1345,
      "egypt": 1346,
      "bɛboro": 1347,
      "nhyiam": 1348,
      "gyihova": 1349,
      "name": 1350,
      "dea": 1351,
      "que": 1352,
      "tete": 1353,
      "##fuw": 1354,
      "##neɛ": 1355,
      "##ɔɔso": 1356,
      "yehu": 1357,
      "##les": 1358,
      "mene": 1359,
      "##rentumi": 1360,
      "##awu": 1361,
      "mam": 1362,
      "000": 1363,
      "##kura": 1364,
      "agu": 1365,
      "momfa": 1366,
      "ahoɔden": 1367,
      "let": 1368,
      "##own": 1369,
      "nwoma": 1370,
      "mogya": 1371,
      "maria": 1372,
      "nana": 1373,
      "ch": 1374,
      "mɛyɛ": 1375,
      "35": 1376,
      "yebe": 1377,
      "ame": 1378,
      "##mber": 1379,
      "long": 1380,
      "##anle": 1381,
      "##ts": 1382,
      "adesua": 1383,
      "anni": 1384,
      "anaasɛ": 1385,
      "mpɛn": 1386,
      "aha": 1387,
      "##fɛ": 1388,
      "nyaa": 1389,
      "ɔpe": 1390,
      "fara": 1391,
      "ɔbɛyɛ": 1392,
      "st": 1393,
      "##yu": 1394,
      "##mmɔne": 1395,
      "mmuae": 1396,
      "anɔ": 1397,
      "mpem": 1398,
      "haw": 1399,
      "peo": 1400,
      "##awurade": 1401,
      "akoma": 1402,
      "bet": 1403,
      "girl": 1404,
      "33": 1405,
      "sɔre": 1406,
      "abofra": 1407,
      "##ome": 1408,
      "wife": 1409,
      "yɛbɛyɛ": 1410,
      "pɛn": 1411,
      "people": 1412,
      "mmu": 1413,
      "##ona": 1414,
      "season": 1415,
      "nkyerɛkyerɛ": 1416,
      "anyɛ": 1417,
      "##rɛw": 1418,
      "nwonwa": 1419,
      "away": 1420,
      "ehia": 1421,
      "od": 1422,
      "##rante": 1423,
      "##aaa": 1424,
      "mete": 1425,
      "mube": 1426,
      "when": 1427,
      "akwaa": 1428,
      "##bisaa": 1429,
      "##her": 1430,
      "##enti": 1431,
      "asoo": 1432,
      "mfiri": 1433,
      "##mmaa": 1434,
      "monn": 1435,
      "die": 1436,
      "##ano": 1437,
      "hwan": 1438,
      "sor": 1439,
      "awww": 1440,
      "##ction": 1441,
      "debie": 1442,
      "misra": 1443,
      "gyee": 1444,
      "works": 1445,
      "##anya": 1446,
      "##tum": 1447,
      "hene": 1448,
      "ii": 1449,
      "mmɔden": 1450,
      "ɔma": 1451,
      "##kafo": 1452,
      "##hua": 1453,
      "nd": 1454,
      "mmere": 1455,
      "##amaa": 1456,
      "yakob": 1457,
      "kosi": 1458,
      "heb": 1459,
      "##je": 1460,
      "##berɛ": 1461,
      "funny": 1462,
      "ɔbonsam": 1463,
      "reba": 1464,
      "ɛyɛɛ": 1465,
      "##rae": 1466,
      "00": 1467,
      "##tofo": 1468,
      "by": 1469,
      "##mso": 1470,
      "code": 1471,
      "wie": 1472,
      "##mp": 1473,
      "wowɔ": 1474,
      "daniel": 1475,
      "wifi": 1476,
      "car": 1477,
      "fɔ": 1478,
      "nnim": 1479,
      "##buaa": 1480,
      "adamfo": 1481,
      "ɛlɛ": 1482,
      "eu": 1483,
      "baabiara": 1484,
      "mfomso": 1485,
      "ɛd": 1486,
      "ose": 1487,
      "tin": 1488,
      "bee": 1489,
      "ninyɛne": 1490,
      "para": 1491,
      "mmmmmmm": 1492,
      "wui": 1493,
      "##lom": 1494,
      "dɔɔnwo": 1495,
      "34": 1496,
      "##gi": 1497,
      "ex": 1498,
      "osu": 1499,
      "ɔha": 1500,
      "##bɔne": 1501,
      "bad": 1502,
      "awia": 1503,
      "farao": 1504,
      "##kenkan": 1505,
      "##yii": 1506,
      "amanaman": 1507,
      "##ɔnko": 1508,
      "ala": 1509,
      "down": 1510,
      "us": 1511,
      "bepɔw": 1512,
      "ɛt": 1513,
      "ɔda": 1514,
      "##hile": 1515,
      "##wɔn": 1516,
      "nwa": 1517,
      "##dze": 1518,
      "cute": 1519,
      "##daw": 1520,
      "tum": 1521,
      "##zon": 1522,
      "##enee": 1523,
      "##cj": 1524,
      "ɔsom": 1525,
      "##res": 1526,
      "nokwasɛm": 1527,
      "zɔ": 1528,
      "##soa": 1529,
      "met": 1530,
      "w8": 1531,
      "awufo": 1532,
      "##daso": 1533,
      "##ɛlɛ": 1534,
      "two": 1535,
      "wofi": 1536,
      "anɔpa": 1537,
      "ɔkye": 1538,
      "sum": 1539,
      "misraim": 1540,
      "make": 1541,
      "saw": 1542,
      "##paa": 1543,
      "w8cj": 1544,
      "36": 1545,
      "ju": 1546,
      "berɛ": 1547,
      "amma": 1548,
      "nkɔm": 1549,
      "sex": 1550,
      "akye": 1551,
      "ɔyɛɛ": 1552,
      "ɔnyɛ": 1553,
      "pon": 1554,
      "##dy": 1555,
      "aku": 1556,
      "kunu": 1557,
      "mayɛ": 1558,
      "taa": 1559,
      "##ana": 1560,
      "##unkum": 1561,
      "adansefo": 1562,
      "per": 1563,
      "yehia": 1564,
      "##leɛ": 1565,
      "ayi": 1566,
      "##enn": 1567,
      "anwu": 1568,
      "dɔn": 1569,
      "##pan": 1570,
      "##ram": 1571,
      "##sisi": 1572,
      "her": 1573,
      "##day": 1574,
      "nimdeɛ": 1575,
      "yɛba": 1576,
      "akosua": 1577,
      "mpa": 1578,
      "with": 1579,
      "yɛka": 1580,
      "hwehwɛ": 1581,
      "meba": 1582,
      "##mfi": 1583,
      "yam": 1584,
      "got": 1585,
      "odiyi": 1586,
      "akwaaba": 1587,
      "##co": 1588,
      "##lea": 1589,
      "##ct": 1590,
      "luck": 1591,
      "ogye": 1592,
      "##wane": 1593,
      "nice": 1594,
      "onyame": 1595,
      "kɛkɛ": 1596,
      "anidaso": 1597,
      "##tes": 1598,
      "ɔbo": 1599,
      "wɔne": 1600,
      "##wwww": 1601,
      "frɛ": 1602,
      "##onna": 1603,
      "##difo": 1604,
      "akan": 1605,
      "wadi": 1606,
      "ɔbɔfo": 1607,
      "nkoa": 1608,
      "##zukoa": 1609,
      "##sh": 1610,
      "##len": 1611,
      "##soro": 1612,
      "asɔ": 1613,
      "ogya": 1614,
      "##gh": 1615,
      "nguan": 1616,
      "37": 1617,
      "##ger": 1618,
      "hanle": 1619,
      "##ous": 1620,
      "##bɛn": 1621,
      "tan": 1622,
      "hye": 1623,
      "mew": 1624,
      "akyɛde": 1625,
      "look": 1626,
      "swe": 1627,
      "##rea": 1628,
      "50": 1629,
      "ayam": 1630,
      "apam": 1631,
      "nɔha": 1632,
      "mmra": 1633,
      "year": 1634,
      "babe": 1635,
      "nokorɛ": 1636,
      "##lose": 1637,
      "afiri": 1638,
      "babarima": 1639,
      "es": 1640,
      "dedaw": 1641,
      "paw": 1642,
      "akɛse": 1643,
      "meet": 1644,
      "titiriw": 1645,
      "kon": 1646,
      "ado": 1647,
      "ans": 1648,
      "kete": 1649,
      "##hoo": 1650,
      "##dwen": 1651,
      "##ui": 1652,
      "asɔredan": 1653,
      "than": 1654,
      "##lua": 1655,
      "ahon": 1656,
      "fili": 1657,
      "mae": 1658,
      "luka": 1659,
      "own": 1660,
      "##ci": 1661,
      "share": 1662,
      "wonni": 1663,
      "ɔkɛ": 1664,
      "##don": 1665,
      "monyɛ": 1666,
      "ɛtane": 1667,
      "##yer": 1668,
      "tɔ": 1669,
      "ken": 1670,
      "wɔayɛ": 1671,
      "kor": 1672,
      "mekɔ": 1673,
      "nnawɔtwe": 1674,
      "onim": 1675,
      "##ds": 1676,
      "nwi": 1677,
      "noa": 1678,
      "nnam": 1679,
      "##20": 1680,
      "kum": 1681,
      "eve": 1682,
      "nɔhalɛ": 1683,
      "##yimfo": 1684,
      "un": 1685,
      "ɔt": 1686,
      "grow": 1687,
      "##tel": 1688,
      "anime": 1689,
      "nkutoo": 1690,
      "##ret": 1691,
      "##volɛma": 1692,
      "nifa": 1693,
      "ɛren": 1694,
      "nkuran": 1695,
      "minim": 1696,
      "wote": 1697,
      "##wun": 1698,
      "ɔbɔɔ": 1699,
      "nipadua": 1700,
      "onni": 1701,
      "frɛɛ": 1702,
      "gonna": 1703,
      "mee": 1704,
      "libra": 1705,
      "hel": 1706,
      "##hoa": 1707,
      "##didi": 1708,
      "##sono": 1709,
      "##duu": 1710,
      "nnya": 1711,
      "##ng": 1712,
      "wunim": 1713,
      "say": 1714,
      "ɛne": 1715,
      "mpanyimfo": 1716,
      "38": 1717,
      "tebea": 1718,
      "mɛni": 1719,
      "yɔnko": 1720,
      "##loa": 1721,
      "kyi": 1722,
      "koto": 1723,
      "asɛnka": 1724,
      "39": 1725,
      "monkɔ": 1726,
      "kyerɛwsɛm": 1727,
      "krataa": 1728,
      "free": 1729,
      "mpaebɔ": 1730,
      "out": 1731,
      "anwuma": 1732,
      "##anee": 1733,
      "best": 1734,
      "many": 1735,
      "boni": 1736,
      "anwonwa": 1737,
      "ste": 1738,
      "##dia": 1739,
      "world": 1740,
      "dabi": 1741,
      "adiyifo": 1742,
      "panyin": 1743,
      "nkonim": 1744,
      "bri": 1745,
      "##bua": 1746,
      "##ɔnten": 1747,
      "honam": 1748,
      "library": 1749,
      "##bon": 1750,
      "akasa": 1751,
      "##hon": 1752,
      "##toa": 1753,
      "##fua": 1754,
      "##urt": 1755,
      "obu": 1756,
      "blo": 1757,
      "tena": 1758,
      "ɛnde": 1759,
      "meren": 1760,
      "nhyɛ": 1761,
      "wuhu": 1762,
      "oko": 1763,
      "yɛe": 1764,
      "back": 1765,
      "obetumi": 1766,
      "##saia": 1767,
      "onua": 1768,
      "vo": 1769,
      "##sifo": 1770,
      "yaa": 1771,
      "yuu": 1772,
      "kenkan": 1773,
      "##sion": 1774,
      "##hin": 1775,
      "##wii": 1776,
      "nnwom": 1777,
      "tɛ": 1778,
      "afahyɛ": 1779,
      "asomfo": 1780,
      "tru": 1781,
      "##uel": 1782,
      "nkɔmmɔ": 1783,
      "##guan": 1784,
      "##rg": 1785,
      "##nwen": 1786,
      "wɔkɔ": 1787,
      "eli": 1788,
      "awerɛhow": 1789,
      "answer": 1790,
      "wɔpɛ": 1791,
      "kak": 1792,
      "ɔkyena": 1793,
      "nhyehyɛ": 1794,
      "wɔbɔɔ": 1795,
      "lucky": 1796,
      "##tam": 1797,
      "ci": 1798,
      "ɔsan": 1799,
      "way": 1800,
      "##kulo": 1801,
      "##siesie": 1802,
      "asraa": 1803,
      "yei": 1804,
      "##shi": 1805,
      "maka": 1806,
      "mea": 1807,
      "foro": 1808,
      "sunsum": 1809,
      "adenle": 1810,
      "eh": 1811,
      "##dee": 1812,
      "ahyia": 1813,
      "##lilɛ": 1814,
      "yɛpɛ": 1815,
      "##red": 1816,
      "##sɛn": 1817,
      "##il": 1818,
      "kɔkɔ": 1819,
      "ewu": 1820,
      "##sin": 1821,
      "ahia": 1822,
      "window": 1823,
      "well": 1824,
      "nie": 1825,
      "wut": 1826,
      "sie": 1827,
      "##ric": 1828,
      "bɛkɔ": 1829,
      "##dɔm": 1830,
      "benya": 1831,
      "##ile": 1832,
      "##orrow": 1833,
      "rekɔ": 1834,
      "wɔren": 1835,
      "ɔnam": 1836,
      "ɔsomaa": 1837,
      "8x": 1838,
      "atɔ": 1839,
      "abrabɔ": 1840,
      "ny": 1841,
      "mem": 1842,
      "##lf": 1843,
      "mat": 1844,
      "dodo": 1845,
      "yɛbɔ": 1846,
      "wonder": 1847,
      "##sea": 1848,
      "##per": 1849,
      "wot": 1850,
      "wɔbɔ": 1851,
      "kare": 1852,
      "41": 1853,
      "atwam": 1854,
      "##nini": 1855,
      "ɔsra": 1856,
      "tomorrow": 1857,
      "##here": 1858,
      "day": 1859,
      "akoa": 1860,
      "ghan": 1861,
      "twin": 1862,
      "##ɛnsa": 1863,
      "sorry": 1864,
      "enni": 1865,
      "apɛ": 1866,
      "adeɛ": 1867,
      "mereka": 1868,
      "ɛso": 1869,
      "lie": 1870,
      "ata": 1871,
      "##rte": 1872,
      "wɔwoo": 1873,
      "##ded": 1874,
      "fuck": 1875,
      "gua": 1876,
      "york": 1877,
      "##rɛn": 1878,
      "job": 1879,
      "art": 1880,
      "eyes": 1881,
      "gene": 1882,
      "atena": 1883,
      "dr": 1884,
      "kofi": 1885,
      "but": 1886,
      "susuw": 1887,
      "sei": 1888,
      "##wenle": 1889,
      "ɛberɛ": 1890,
      "youtu": 1891,
      "hɔn": 1892,
      "ann": 1893,
      "##ft": 1894,
      "sɛdeɛ": 1895,
      "buae": 1896,
      "nhu": 1897,
      "##laa": 1898,
      "ahem": 1899,
      "##low": 1900,
      "nga": 1901,
      "atoro": 1902,
      "babi": 1903,
      "yɛnhwɛ": 1904,
      "##rs": 1905,
      "aaron": 1906,
      "##kyekye": 1907,
      "mmmmmmmm": 1908,
      "ɛhe": 1909,
      "yesaia": 1910,
      "sau": 1911,
      "feel": 1912,
      "mmɔbɔ": 1913,
      "##frama": 1914,
      "##safo": 1915,
      "book": 1916,
      "atia": 1917,
      "44": 1918,
      "sara": 1919,
      "##srɛ": 1920,
      "45": 1921,
      "hui": 1922,
      "##us": 1923,
      "asraafo": 1924,
      "##yesu": 1925,
      "age": 1926,
      "wɔbɛyɛ": 1927,
      "aaa": 1928,
      "reyɛ": 1929,
      "##sage": 1930,
      "##fii": 1931,
      "adiyisɛm": 1932,
      "any": 1933,
      "nkwagye": 1934,
      "ɔpepem": 1935,
      "##mmy": 1936,
      "az": 1937,
      "ɛmaa": 1938,
      "ntama": 1939,
      "asia": 1940,
      "kakraa": 1941,
      "ain": 1942,
      "uni": 1943,
      "foforɔ": 1944,
      "##pɛɛ": 1945,
      "mmmmmmmmmmmmm": 1946,
      "##ying": 1947,
      "ima": 1948,
      "kurom": 1949,
      "amanehunu": 1950,
      "##gbun": 1951,
      "##nes": 1952,
      "nnansa": 1953,
      "##gbunli": 1954,
      "woahu": 1955,
      "por": 1956,
      "##rɔfo": 1957,
      "dog": 1958,
      "##frɛɛ": 1959,
      "cent": 1960,
      "trenee": 1961,
      "tease": 1962,
      "gyam": 1963,
      "ahan": 1964,
      "bro": 1965,
      "##lia": 1966,
      "##hommɔne": 1967,
      "##tions": 1968,
      "mark": 1969,
      "##ben": 1970,
      "beau": 1971,
      "##sɔfo": 1972,
      "atemmu": 1973,
      "##lemgbunli": 1974,
      "bedi": 1975,
      "mɛma": 1976,
      "youtube": 1977,
      "##fofo": 1978,
      "ɔsram": 1979,
      "close": 1980,
      "##gyee": 1981,
      "tiaa": 1982,
      "ɔd": 1983,
      "ns": 1984,
      "##cia": 1985,
      "odiyifo": 1986,
      "##yinaa": 1987,
      "ɛvolɛ": 1988,
      "adwo": 1989,
      "ɔsomafo": 1990,
      "made": 1991,
      "##naa": 1992,
      "nse": 1993,
      "wanted": 1994,
      "##ton": 1995,
      "kile": 1996,
      "ghana": 1997,
      "mmiɛnsa": 1998,
      "dɔɔso": 1999,
      "wok": 2000,
      "wɔyɛɛ": 2001,
      "ɛnrɛ": 2002,
      "help": 2003,
      "et": 2004,
      "shi": 2005,
      "hebri": 2006,
      "wohwɛ": 2007,
      "adɔ": 2008,
      "hun": 2009,
      "feat": 2010,
      "brow": 2011,
      "nwu": 2012,
      "##nii": 2013,
      "faako": 2014,
      "paul": 2015,
      "atamfo": 2016,
      "nkyɛ": 2017,
      "anwonwade": 2018,
      "pu": 2019,
      "twa": 2020,
      "##toro": 2021,
      "wayɛ": 2022,
      "agyan": 2023,
      "##twɛn": 2024,
      "##duru": 2025,
      "thank": 2026,
      "##nɔ": 2027,
      "ale": 2028,
      "##ronko": 2029,
      "##aase": 2030,
      "bb": 2031,
      "owusu": 2032,
      "hope": 2033,
      "##hwerew": 2034,
      "pla": 2035,
      "spa": 2036,
      "nnom": 2037,
      "anum": 2038,
      "ahwɛ": 2039,
      "gɛ": 2040,
      "mframa": 2041,
      "hell": 2042,
      "apa": 2043,
      "##kin": 2044,
      "guu": 2045,
      "katie": 2046,
      "yɛan": 2047,
      "abufuw": 2048,
      "adom": 2049,
      "ewia": 2050,
      "ze": 2051,
      "##nkwa": 2052,
      "tirim": 2053,
      "baasa": 2054,
      "2012": 2055,
      "view": 2056,
      "nson": 2057,
      "##kai": 2058,
      "hear": 2059,
      "tenaa": 2060,
      "##kyiri": 2061,
      "nnamdi": 2062,
      "ɔren": 2063,
      "##hyira": 2064,
      "##zy": 2065,
      "##ob": 2066,
      "ɛnam": 2067,
      "##ja": 2068,
      "belemgbunli": 2069,
      "ahye": 2070,
      "where": 2071,
      "yɛte": 2072,
      "##bɔneyɛfo": 2073,
      "##sta": 2074,
      "owura": 2075,
      "ɔlua": 2076,
      "##woman": 2077,
      "yii": 2078,
      "##chi": 2079,
      "mari": 2080,
      "yɛkɔ": 2081,
      "roma": 2082,
      "mfiase": 2083,
      "ee": 2084,
      "nhwehwɛ": 2085,
      "thoma": 2086,
      "ɔfa": 2087,
      "##soma": 2088,
      "##ink": 2089,
      "##kyerɛn": 2090,
      "nsɛn": 2091,
      "anom": 2092,
      "mowɔ": 2093,
      "##sese": 2094,
      "##tiful": 2095,
      "##wiriw": 2096,
      "amaa": 2097,
      "owe": 2098,
      "web": 2099,
      "twee": 2100,
      "hɛn": 2101,
      "ot": 2102,
      "mf": 2103,
      "##ries": 2104,
      "tag": 2105,
      "mei": 2106,
      "100": 2107,
      "##hen": 2108,
      "ɛdi": 2109,
      "amanneɛ": 2110,
      "##bel": 2111,
      "bar": 2112,
      "rom": 2113,
      "##gyi": 2114,
      "elia": 2115,
      "bɛbɔ": 2116,
      "##bɔlɛ": 2117,
      "ɔkyerɛ": 2118,
      "##sɔɔ": 2119,
      "sweet": 2120,
      "##anom": 2121,
      "guan": 2122,
      "nhyehyɛe": 2123,
      "odo": 2124,
      "##tae": 2125,
      "2017": 2126,
      "nwiɔ": 2127,
      "bike": 2128,
      "mmusua": 2129,
      "begye": 2130,
      "sew": 2131,
      "##rubuaa": 2132,
      "paradi": 2133,
      "nsɛmmisa": 2134,
      "agyapa": 2135,
      "##rubuaarɛ": 2136,
      "samuel": 2137,
      "woka": 2138,
      "asɔfo": 2139,
      "ɛdeɛn": 2140,
      "bara": 2141,
      "wobetumi": 2142,
      "mopɛ": 2143,
      "ntease": 2144,
      "##hun": 2145,
      "199": 2146,
      "##it": 2147,
      "##amma": 2148,
      "sto": 2149,
      "hokwan": 2150,
      "##ese": 2151,
      "woayɛ": 2152,
      "dumi": 2153,
      "koko": 2154,
      "anwumme": 2155,
      "bɔhyɛ": 2156,
      "mommma": 2157,
      "somaa": 2158,
      "nwolɛ": 2159,
      "munnim": 2160,
      "##lon": 2161,
      "##teɛ": 2162,
      "thomas": 2163,
      "bua": 2164,
      "nom": 2165,
      "worry": 2166,
      "ahead": 2167,
      "##use": 2168,
      "atu": 2169,
      "##mpa": 2170,
      "may": 2171,
      "ɛbɛba": 2172,
      "dwɔn": 2173,
      "##id": 2174,
      "##dio": 2175,
      "true": 2176,
      "##busɛm": 2177,
      "##zin": 2178,
      "ewiade": 2179,
      "agyenkwa": 2180,
      "nnyina": 2181,
      "atwa": 2182,
      "reason": 2183,
      "sɛɛ": 2184,
      "akenkan": 2185,
      "rentumi": 2186,
      "somehow": 2187,
      "adwenle": 2188,
      "metumi": 2189,
      "ayare": 2190,
      "besi": 2191,
      "##ture": 2192,
      "hyi": 2193,
      "wɔnyɛ": 2194,
      "aduon": 2195,
      "##tim": 2196,
      "##is": 2197,
      "nnɔn": 2198,
      "courte": 2199,
      "ɔkasa": 2200,
      "sare": 2201,
      "abɔde": 2202,
      "##bom": 2203,
      "tv": 2204,
      "gre": 2205,
      "ɔkɔɔ": 2206,
      "pan": 2207,
      "sou": 2208,
      "befo": 2209,
      "wurubuaarɛ": 2210,
      "courtesy": 2211,
      "suban": 2212,
      "aduane": 2213,
      "fan": 2214,
      "trg": 2215,
      "##ster": 2216,
      "##remp": 2217,
      "hai": 2218,
      "pefee": 2219,
      "##sow": 2220,
      "firii": 2221,
      "sc": 2222,
      "fɛw": 2223,
      "##ames": 2224,
      "paradise": 2225,
      "##ner": 2226,
      "yenya": 2227,
      "##kuro": 2228,
      "joh": 2229,
      "##lle": 2230,
      "##rempren": 2231,
      "odii": 2232,
      "live": 2233,
      "boro": 2234,
      "om": 2235,
      "bom": 2236,
      "wɔakyerɛw": 2237,
      "owia": 2238,
      "menyɛ": 2239,
      "fran": 2240,
      "##umu": 2241,
      "42": 2242,
      "ob": 2243,
      "2013": 2244,
      "sama": 2245,
      "yakobo": 2246,
      "ce": 2247,
      "ɛkɔ": 2248,
      "med": 2249,
      "nneyɛ": 2250,
      "apɛde": 2251,
      "nkra": 2252,
      "ky": 2253,
      "moan": 2254,
      "mprempren": 2255,
      "wone": 2256,
      "dwumadi": 2257,
      "akyin": 2258,
      "##nt": 2259,
      "crew": 2260,
      "wonim": 2261,
      "##sai": 2262,
      "beautiful": 2263,
      "fari": 2264,
      "hotel": 2265,
      "bla": 2266,
      "wɔsan": 2267,
      "akoko": 2268,
      "lee": 2269,
      "afotu": 2270,
      "02": 2271,
      "ufo": 2272,
      "agyina": 2273,
      "tra": 2274,
      "mprɛn": 2275,
      "yosua": 2276,
      "ɛpo": 2277,
      "##land": 2278,
      "43": 2279,
      "ɛsono": 2280,
      "##hyew": 2281,
      "##nsɛm": 2282,
      "kyaw": 2283,
      "tsu": 2284,
      "##nia": 2285,
      "chris": 2286,
      "dahuu": 2287,
      "wɔnam": 2288,
      "##sti": 2289,
      "mean": 2290,
      "2015": 2291,
      "##gɛ": 2292,
      "##ff": 2293,
      "ewiase": 2294,
      "##ennen": 2295,
      "nh": 2296,
      "##ril": 2297,
      "##gyaa": 2298,
      "mihuu": 2299,
      "##jo": 2300,
      "non": 2301,
      "anyan": 2302,
      "menim": 2303,
      "bɔfo": 2304,
      "##kora": 2305,
      "##mote": 2306,
      "##inom": 2307,
      "them": 2308,
      "hurt": 2309,
      "sene": 2310,
      "##asefo": 2311,
      "##waree": 2312,
      "soronko": 2313,
      "##panyin": 2314,
      "dwo": 2315,
      "atua": 2316,
      "net": 2317,
      "ali": 2318,
      "come": 2319,
      "##www": 2320,
      "pɛpɛɛ": 2321,
      "message": 2322,
      "##wampae": 2323,
      "yan": 2324,
      "agyanom": 2325,
      "pɛpɛɛpɛ": 2326,
      "##ete": 2327,
      "war": 2328,
      "mprɛnsa": 2329,
      "kuw": 2330,
      "ahyɛde": 2331,
      "tenten": 2332,
      "##bia": 2333,
      "gyamfi": 2334,
      "mmebusɛm": 2335,
      "ahoj": 2336,
      "##dom": 2337,
      "##winnwen": 2338,
      "che": 2339,
      "##wim": 2340,
      "aseɛ": 2341,
      "##horow": 2342,
      "##rica": 2343,
      "babea": 2344,
      "##book": 2345,
      "ɔye": 2346,
      "monhwɛ": 2347,
      "atifi": 2348,
      "03": 2349,
      "ngye": 2350,
      "munim": 2351,
      "mubehu": 2352,
      "##sto": 2353,
      "etwa": 2354,
      "ɔkyerɛkyerɛ": 2355,
      "gali": 2356,
      "##din": 2357,
      "that": 2358,
      "nsoro": 2359,
      "198": 2360,
      "##kyerɛnne": 2361,
      "blue": 2362,
      "kɛseɛ": 2363,
      "bed": 2364,
      "##ji": 2365,
      "yenim": 2366,
      "before": 2367,
      "atwe": 2368,
      "low": 2369,
      "munni": 2370,
      "abusuafo": 2371,
      "ntoa": 2372,
      "nkɔmhyɛ": 2373,
      "oyi": 2374,
      "##wiki": 2375,
      "ohu": 2376,
      "wontumi": 2377,
      "case": 2378,
      "pre": 2379,
      "##view": 2380,
      "mote": 2381,
      "ɔhwɛ": 2382,
      "yɛayɛ": 2383,
      "throw": 2384,
      "asen": 2385,
      "dare": 2386,
      "##gyae": 2387,
      "ɛle": 2388,
      "blog": 2389,
      "nneyɛe": 2390,
      "sel": 2391,
      "bɛda": 2392,
      "kpo": 2393,
      "##ɛnla": 2394,
      "akyinnye": 2395,
      "asaase": 2396,
      "ahwe": 2397,
      "kasahorow": 2398,
      "metee": 2399,
      "ft": 2400,
      "ohi": 2401,
      "pɔ": 2402,
      "mese": 2403,
      "##sis": 2404,
      "##che": 2405,
      "##ume": 2406,
      "minni": 2407,
      "gyɛ": 2408,
      "bɛtena": 2409,
      "women": 2410,
      "kw": 2411,
      "tew": 2412,
      "efe": 2413,
      "dae": 2414,
      "kana": 2415,
      "media": 2416,
      "nɛ": 2417,
      "ngoane": 2418,
      "ɔse": 2419,
      "fon": 2420,
      "maanle": 2421,
      "apue": 2422,
      "anye": 2423,
      "nsoromma": 2424,
      "midi": 2425,
      "wɔma": 2426,
      "been": 2427,
      "list": 2428,
      "##kpa": 2429,
      "##sk": 2430,
      "##sesebɛ": 2431,
      "adwenem": 2432,
      "##dea": 2433,
      "##lɔ": 2434,
      "nsi": 2435,
      "##doo": 2436,
      "wim": 2437,
      "were": 2438,
      "##sak": 2439,
      "asɔne": 2440,
      "mg": 2441,
      "edu": 2442,
      "skye": 2443,
      "##tor": 2444,
      "##tsu": 2445,
      "##yerɛn": 2446,
      "post": 2447,
      "sing": 2448,
      "hiob": 2449,
      "baba": 2450,
      "bite": 2451,
      "##anea": 2452,
      "mpanyin": 2453,
      "wɔkae": 2454,
      "hin": 2455,
      "2011": 2456,
      "mmabarima": 2457,
      "fare": 2458,
      "yemɔ": 2459,
      "bye": 2460,
      "mmɛ": 2461,
      "va": 2462,
      "nsakra": 2463,
      "woan": 2464,
      "##ɔfoɔ": 2465,
      "yɛle": 2466,
      "ware": 2467,
      "nsuro": 2468,
      "48": 2469,
      "gyei": 2470,
      "nkae": 2471,
      "##wuwu": 2472,
      "ɔkɔm": 2473,
      "west": 2474,
      "akwankyerɛ": 2475,
      "pee": 2476,
      "nwan": 2477,
      "cra": 2478,
      "nkurɔfoɔ": 2479,
      "pen": 2480,
      "kimi": 2481,
      "did": 2482,
      "ɔle": 2483,
      "pow": 2484,
      "sin": 2485,
      "every": 2486,
      "adaka": 2487,
      "bieko": 2488,
      "pin": 2489,
      "saulo": 2490,
      "##furae": 2491,
      "##lt": 2492,
      "##hanle": 2493,
      "nhia": 2494,
      "nhwehwɛmu": 2495,
      "wɔkyerɛ": 2496,
      "ketewa": 2497,
      "kuropɔn": 2498,
      "##hulo": 2499,
      "ll": 2500,
      "suro": 2501,
      "##tanɛ": 2502,
      "##lenlɛ": 2503,
      "46": 2504,
      "teɛ": 2505,
      "##ream": 2506,
      "##kyeree": 2507,
      "news": 2508,
      "kɔn": 2509,
      "korin": 2510,
      "##sode": 2511,
      "2018": 2512,
      "##dzi": 2513,
      "##gyaw": 2514,
      "wɔadi": 2515,
      "adidi": 2516,
      "wobu": 2517,
      "01": 2518,
      "ay": 2519,
      "yɛda": 2520,
      "aberante": 2521,
      "monka": 2522,
      "akyerɛkyerɛ": 2523,
      "nyansahu": 2524,
      "dumien": 2525,
      "yahoo": 2526,
      "##ght": 2527,
      "botae": 2528,
      "enyi": 2529,
      "##fuo": 2530,
      "abɛn": 2531,
      "wobɛtumi": 2532,
      "##paw": 2533,
      "apem": 2534,
      "up": 2535,
      "waka": 2536,
      "##cial": 2537,
      "ɔkɛyɛ": 2538,
      "anyame": 2539,
      "wonya": 2540,
      "binom": 2541,
      "stu": 2542,
      "hoo": 2543,
      "##koma": 2544,
      "##hem": 2545,
      "ɛbɔ": 2546,
      "hom": 2547,
      "mmerɛw": 2548,
      "bɛa": 2549,
      "wotumi": 2550,
      "addon": 2551,
      "madi": 2552,
      "kyerɛwnsɛm": 2553,
      "wutun": 2554,
      "ɔboa": 2555,
      "nnyɛ": 2556,
      "ahonya": 2557,
      "black": 2558,
      "abon": 2559,
      "midii": 2560,
      "euro": 2561,
      "brɛ": 2562,
      "ɛk": 2563,
      "ankyɛ": 2564,
      "##mɛ": 2565,
      "nkyerɛase": 2566,
      "hard": 2567,
      "##que": 2568,
      "oka": 2569,
      "hero": 2570,
      "bosome": 2571,
      "ofii": 2572,
      "wutunhua": 2573,
      "nsuo": 2574,
      "team": 2575,
      "boy": 2576,
      "united": 2577,
      "est": 2578,
      "nnaa": 2579,
      "ahennie": 2580,
      "epi": 2581,
      "##furaefo": 2582,
      "simon": 2583,
      "homeda": 2584,
      "tɔɔ": 2585,
      "ɔnle": 2586,
      "azɛlɛ": 2587,
      "pɛɛ": 2588,
      "ntena": 2589,
      "turo": 2590,
      "wubehu": 2591,
      "ekyi": 2592,
      "2016": 2593,
      "em": 2594,
      "kokoro": 2595,
      "ber": 2596,
      "nyina": 2597,
      "weeks": 2598,
      "tow": 2599,
      "fir": 2600,
      "2020": 2601,
      "mmmmmmmmmm": 2602,
      "manya": 2603,
      "needed": 2604,
      "mua": 2605,
      "mekɔɔ": 2606,
      "susu": 2607,
      "nnua": 2608,
      "ɔluakɛ": 2609,
      "##nin": 2610,
      "04": 2611,
      "kenle": 2612,
      "##for": 2613,
      "ɔsɔfo": 2614,
      "##rene": 2615,
      "##kyɛm": 2616,
      "dwen": 2617,
      "yɛfa": 2618,
      "foo": 2619,
      "asie": 2620,
      "##kou": 2621,
      "##nafo": 2622,
      "mesrɛ": 2623,
      "dɛm": 2624,
      "ɛkwan": 2625,
      "ehu": 2626,
      "wokum": 2627,
      "basa": 2628,
      "##bɔfo": 2629,
      "huh": 2630,
      "2019": 2631,
      "2014": 2632,
      "intanɛ": 2633,
      "meri": 2634,
      "ankɔ": 2635,
      "##zie": 2636,
      "antumi": 2637,
      "op": 2638,
      "##see": 2639,
      "april": 2640,
      "bin": 2641,
      "kɔe": 2642,
      "49": 2643,
      "##ney": 2644,
      "laa": 2645,
      "genesis": 2646,
      "ek": 2647,
      "akon": 2648,
      "##renom": 2649,
      "adua": 2650,
      "##toso": 2651,
      "mifi": 2652,
      "yizi": 2653,
      "yenni": 2654,
      "aze": 2655,
      "andrew": 2656,
      "timote": 2657,
      "apon": 2658,
      "israelfoɔ": 2659,
      "##load": 2660,
      "##mmɛ": 2661,
      "ble": 2662,
      "medɔ": 2663,
      "bɛhyɛ": 2664,
      "ms": 2665,
      "daw": 2666,
      "nho": 2667,
      "bonne": 2668,
      "kyerɛkyerɛɛ": 2669,
      "wogye": 2670,
      "nsakrae": 2671,
      "ɔbaako": 2672,
      "merekɔ": 2673,
      "##boaa": 2674,
      "ɛbɛla": 2675,
      "nnebɔneyɛfo": 2676,
      "yɛnwu": 2677,
      "galilea": 2678,
      "kpole": 2679,
      "pri": 2680,
      "##horo": 2681,
      "centre": 2682,
      "anwummere": 2683,
      "##nefo": 2684,
      "think": 2685,
      "asefo": 2686,
      "##our": 2687,
      "akum": 2688,
      "ɛnne": 2689,
      "meow": 2690,
      "##ary": 2691,
      "##info": 2692,
      "ɛzon": 2693,
      "mmirika": 2694,
      "antwi": 2695,
      "yizila": 2696,
      "download": 2697,
      "asesa": 2698,
      "##pɛn": 2699,
      "##samma": 2700,
      "##mmarima": 2701,
      "##rewa": 2702,
      "##ɛmɔ": 2703,
      "##hyɛn": 2704,
      "lot": 2705,
      "cha": 2706,
      "##bae": 2707,
      "ae": 2708,
      "sonla": 2709,
      "bɛto": 2710,
      "51": 2711,
      "hee": 2712,
      "bbw": 2713,
      "intanɛt": 2714,
      "kin": 2715,
      "yɛahu": 2716,
      "yɛnyɛ": 2717,
      "menya": 2718,
      "yona": 2719,
      "kosii": 2720,
      "mfirihyia": 2721,
      "##basa": 2722,
      "ɔdan": 2723,
      "edin": 2724,
      "late": 2725,
      "dede": 2726,
      "##bee": 2727,
      "yɛanya": 2728,
      "obisaa": 2729,
      "##pam": 2730,
      "##wuru": 2731,
      "sea": 2732,
      "atten": 2733,
      "akee": 2734,
      "befi": 2735,
      "ɛha": 2736,
      "hold": 2737,
      "mad": 2738,
      "ɛrekɔ": 2739,
      "wohu": 2740,
      "ahome": 2741,
      "kam": 2742,
      "wokɔ": 2743,
      "##hwɛfo": 2744,
      "apuei": 2745,
      "adaa": 2746,
      "80": 2747,
      "doo": 2748,
      "mommy": 2749,
      "##bert": 2750,
      "wea": 2751,
      "raa": 2752,
      "##py": 2753,
      "ver": 2754,
      "##toaso": 2755,
      "agyapade": 2756,
      "timoteo": 2757,
      "cu": 2758,
      "twins": 2759,
      "wɔt": 2760,
      "fofolɛ": 2761,
      "##wui": 2762,
      "foto": 2763,
      "farisifo": 2764,
      "dwe": 2765,
      "##aneɛ": 2766,
      "mofo": 2767,
      "ntia": 2768,
      "ananse": 2769,
      "bɛmaa": 2770,
      "mfeɛ": 2771,
      "japan": 2772,
      "somfo": 2773,
      "kɔsɔɔ": 2774,
      "raw": 2775,
      "anti": 2776,
      "jason": 2777,
      "##rman": 2778,
      "selfie": 2779,
      "##mman": 2780,
      "ɛrenkyɛ": 2781,
      "face": 2782,
      "bɛyɛɛ": 2783,
      "55": 2784,
      "wonnim": 2785,
      "ei": 2786,
      "##yaw": 2787,
      "mmua": 2788,
      "##omi": 2789,
      "mise": 2790,
      "##ffe": 2791,
      "##hyiaa": 2792,
      "asantewaa": 2793,
      "asoɔden": 2794,
      "sh": 2795,
      "mit": 2796,
      "ɔhyɛɛ": 2797,
      "mahu": 2798,
      "ɛfata": 2799,
      "ɛleka": 2800,
      "ep": 2801,
      "buy": 2802,
      "ahenkuro": 2803,
      "wam": 2804,
      "owusɔre": 2805,
      "episode": 2806,
      "obaa": 2807,
      "wɔaka": 2808,
      "##ita": 2809,
      "akatua": 2810,
      "##kyuu": 2811,
      "mɛba": 2812,
      "##nni": 2813,
      "nokwarem": 2814,
      "##lee": 2815,
      "05": 2816,
      "195": 2817,
      "akwampae": 2818,
      "yɛnkɔ": 2819,
      "ahotoso": 2820,
      "yɛhwɛ": 2821,
      "##siw": 2822,
      "##yera": 2823,
      "bɛtumi": 2824,
      "eric": 2825,
      "##pere": 2826,
      "haa": 2827,
      "##sesa": 2828,
      "##kɔsɛm": 2829,
      "dwiriw": 2830,
      "kyɛw": 2831,
      "akwasi": 2832,
      "step": 2833,
      "##bɔnten": 2834,
      "sora": 2835,
      "koi": 2836,
      "kyere": 2837,
      "words": 2838,
      "ogua": 2839,
      "##line": 2840,
      "abakɔsɛm": 2841,
      "gyae": 2842,
      "ɛsen": 2843,
      "##my": 2844,
      "agua": 2845,
      "adwen": 2846,
      "##pondɛ": 2847,
      "okyere": 2848,
      "anyin": 2849,
      "dece": 2850,
      "image": 2851,
      "run": 2852,
      "##os": 2853,
      "akɔn": 2854,
      "##bue": 2855,
      "sho": 2856,
      "meyɛɛ": 2857,
      "akosi": 2858,
      "ɛzonlenlɛ": 2859,
      "##wura": 2860,
      "mis": 2861,
      "aduanan": 2862,
      "##lomo": 2863,
      "nation": 2864,
      "##eni": 2865,
      "kɔtenaa": 2866,
      "##ther": 2867,
      "yizilayɛ": 2868,
      "mamma": 2869,
      "ɔbɛma": 2870,
      "##trenee": 2871,
      "ɛnɛ": 2872,
      "47": 2873,
      "##the": 2874,
      "wɔkaa": 2875,
      "08": 2876,
      "denne": 2877,
      "##toho": 2878,
      "##kyile": 2879,
      "gee": 2880,
      "##soade": 2881,
      "tere": 2882,
      "fast": 2883,
      "tweet": 2884,
      "brɛɛ": 2885,
      "ɛbahola": 2886,
      "ahene": 2887,
      "esii": 2888,
      "december": 2889,
      "yemɔti": 2890,
      "nwane": 2891,
      "##rimaa": 2892,
      "states": 2893,
      "kuru": 2894,
      "plan": 2895,
      "wubenya": 2896,
      "sexy": 2897,
      "miss": 2898,
      "kpu": 2899,
      "bɛboa": 2900,
      "ebesi": 2901,
      "##sae": 2902,
      "belemgbunlililɛ": 2903,
      "aduɔ": 2904,
      "apɔ": 2905,
      "naka": 2906,
      "cook": 2907,
      "wɔmfa": 2908,
      "peter": 2909,
      "##kwafo": 2910,
      "anisoade": 2911,
      "mmerante": 2912,
      "##tare": 2913,
      "##zuzu": 2914,
      "osee": 2915,
      "nsɛnkyerɛnne": 2916,
      "kun": 2917,
      "##uruu": 2918,
      "194": 2919,
      "##zukoalɛ": 2920,
      "crazy": 2921,
      "nnu": 2922,
      "koo": 2923,
      "mmmmmmmmmmmmmmmmm": 2924,
      "yɛfrɛ": 2925,
      "ques": 2926,
      "oguammaa": 2927,
      "eza": 2928,
      "yɛmfa": 2929,
      "zɔhane": 2930,
      "baanan": 2931,
      "adwoa": 2932,
      "barima": 2933,
      "har": 2934,
      "awerɛho": 2935,
      "tha": 2936,
      "woren": 2937,
      "fin": 2938,
      "yebenya": 2939,
      "mary": 2940,
      "nnipakuw": 2941,
      "sti": 2942,
      "ser": 2943,
      "coo": 2944,
      "oba": 2945,
      "owuo": 2946,
      "s3": 2947,
      "kpɔ": 2948,
      "yin": 2949,
      "##nyɛ": 2950,
      "##mpɛ": 2951,
      "70": 2952,
      "nai": 2953,
      "##kon": 2954,
      "awɔ": 2955,
      "mika": 2956,
      "##arch": 2957,
      "ang": 2958,
      "##rɔn": 2959,
      "wugye": 2960,
      "gyidie": 2961,
      "didi": 2962,
      "ndɛ": 2963,
      "young": 2964,
      "bisae": 2965,
      "review": 2966,
      "buu": 2967,
      "kyee": 2968,
      "kyerɛkyerɛfo": 2969,
      "amm": 2970,
      "kiss": 2971,
      "ji": 2972,
      "##seɛ": 2973,
      "meme": 2974,
      "mek": 2975,
      "reka": 2976,
      "hua": 2977,
      "wɔbɛka": 2978,
      "##sukoa": 2979,
      "read": 2980,
      "isak": 2981,
      "kom": 2982,
      "##gyinaa": 2983,
      "mfonini": 2984,
      "##daadaa": 2985,
      "usa": 2986,
      "esa": 2987,
      "##twerɛ": 2988,
      "john": 2989,
      "ɛnnyɛ": 2990,
      "mmepɔw": 2991,
      "lewi": 2992,
      "ohuu": 2993,
      "kɔsɔɔti": 2994,
      "trade": 2995,
      "##ste": 2996,
      "asian": 2997,
      "migye": 2998,
      "wɔagye": 2999,
      "197": 3000,
      "##dwene": 3001,
      "ntsi": 3002,
      "mebɔ": 3003,
      "mor": 3004,
      "salomo": 3005,
      "##lli": 3006,
      "owui": 3007,
      "spe": 3008,
      "yɛbahola": 3009,
      "duru": 3010,
      "mmabea": 3011,
      "sisi": 3012,
      "will": 3013,
      "kanaan": 3014,
      "german": 3015,
      "##kula": 3016,
      "ɔsorosoro": 3017,
      "bɛfa": 3018,
      "##ses": 3019,
      "##tle": 3020,
      "korintofo": 3021,
      "ever": 3022,
      "##suaa": 3023,
      "ahemfo": 3024,
      "##borɔ": 3025,
      "##uary": 3026,
      "aseda": 3027,
      "kwadwo": 3028,
      "##umɔ": 3029,
      "akyirikyiri": 3030,
      "onya": 3031,
      "komam": 3032,
      "afu": 3033,
      "##yinla": 3034,
      "india": 3035,
      "kara": 3036,
      "soon": 3037,
      "gyaa": 3038,
      "ahobrɛ": 3039,
      "asɛe": 3040,
      "song": 3041,
      "mpempem": 3042,
      "atɔe": 3043,
      "she": 3044,
      "ɔto": 3045,
      "ohia": 3046,
      "ɔhyɛ": 3047,
      "ɔmfa": 3048,
      "##gar": 3049,
      "mɛka": 3050,
      "mmmmmmmmmmm": 3051,
      "60": 3052,
      "wɔmaa": 3053,
      "ngu": 3054,
      "borɔfo": 3055,
      "ɔbabarima": 3056,
      "abaa": 3057,
      "ɛbɛboa": 3058,
      "much": 3059,
      "akua": 3060,
      "ntade": 3061,
      "amerika": 3062,
      "ɛnneɛ": 3063,
      "ahohia": 3064,
      "agorɔ": 3065,
      "##y3": 3066,
      "##bii": 3067,
      "ran": 3068,
      "kɔka": 3069,
      "yume": 3070,
      "##wunle": 3071,
      "##pte": 3072,
      "kɔkɔɔ": 3073,
      "ɔnrɛ": 3074,
      "yiw": 3075,
      "##19": 3076,
      "##kyee": 3077,
      "07": 3078,
      "whi": 3079,
      "woadi": 3080,
      "marko": 3081,
      "##ked": 3082,
      "mekae": 3083,
      "##rie": 3084,
      "ahyehyɛ": 3085,
      "busy": 3086,
      "anwumabɔ": 3087,
      "##sakra": 3088,
      "ɛnle": 3089,
      "##inta": 3090,
      "redi": 3091,
      "mini": 3092,
      "wɔnkɔ": 3093,
      "##keka": 3094,
      "ahofa": 3095,
      "never": 3096,
      "##pɔnkɔ": 3097,
      "nkasa": 3098,
      "mommɔ": 3099,
      "mike": 3100,
      "bobe": 3101,
      "march": 3102,
      "ntoatoaso": 3103,
      "basabasa": 3104,
      "##rist": 3105,
      "afra": 3106,
      "kwame": 3107,
      "oye": 3108,
      "atumi": 3109,
      "ɔyɛe": 3110,
      "him": 3111,
      "##hwere": 3112,
      "feb": 3113,
      "##kyia": 3114,
      "osi": 3115,
      "great": 3116,
      "mfatoho": 3117,
      "hawa": 3118,
      "52": 3119,
      "phi": 3120,
      "cat": 3121,
      "##wosow": 3122,
      "sim": 3123,
      "filisti": 3124,
      "amra": 3125,
      "akwantu": 3126,
      "##tte": 3127,
      "hana": 3128,
      "sɔhwɛ": 3129,
      "wɔtee": 3130,
      "nani": 3131,
      "##lato": 3132,
      "amanamanmu": 3133,
      "dam": 3134,
      "##yiri": 3135,
      "dɔm": 3136,
      "augu": 3137,
      "aya": 3138,
      "denneennen": 3139,
      "ahengua": 3140,
      "ɛteɛ": 3141,
      "sub": 3142,
      "nkɔso": 3143,
      "ɛbɛlabɔlɛ": 3144,
      "yegye": 3145,
      "sion": 3146,
      "efie": 3147,
      "ahiafo": 3148,
      "##ser": 3149,
      "search": 3150,
      "nude": 3151,
      "wiei": 3152,
      "wodii": 3153,
      "##dei": 3154,
      "nkurow": 3155,
      "otumi": 3156,
      "ayaresa": 3157,
      "##banwu": 3158,
      "pɛnkoro": 3159,
      "ɔdi": 3160,
      "##siane": 3161,
      "ɔkra": 3162,
      "nren": 3163,
      "nsɔ": 3164,
      "hwɛɛ": 3165,
      "ntamadan": 3166,
      "wohuu": 3167,
      "asem": 3168,
      "told": 3169,
      "asɛmmisa": 3170,
      "comm": 3171,
      "##obi": 3172,
      "tuu": 3173,
      "asotwe": 3174,
      "##kuru": 3175,
      "mer": 3176,
      "onii": 3177,
      "better": 3178,
      "boaa": 3179,
      "mosisi": 3180,
      "##bes": 3181,
      "market": 3182,
      "##nie": 3183,
      "hare": 3184,
      "anna": 3185,
      "asubɔnten": 3186,
      "first": 3187,
      "##21": 3188,
      "ɔbayɛ": 3189,
      "benkum": 3190,
      "hyɛn": 3191,
      "dj": 3192,
      "##yɛlɛ": 3193,
      "inter": 3194,
      "tim": 3195,
      "ɔbɛba": 3196,
      "dɔfo": 3197,
      "james": 3198,
      "pra": 3199,
      "wɔfa": 3200,
      "##lele": 3201,
      "nnomaa": 3202,
      "mpaeɛ": 3203,
      "##work": 3204,
      "nnipadɔm": 3205,
      "mmaako": 3206,
      "ebu": 3207,
      "twaa": 3208,
      "minute": 3209,
      "##garet": 3210,
      "yɛlɛ": 3211,
      "asiane": 3212,
      "online": 3213,
      "196": 3214,
      "ɔkile": 3215,
      "woanya": 3216,
      "wanya": 3217,
      "##aw": 3218,
      "nnum": 3219,
      "abrɛ": 3220,
      "2009": 3221,
      "ooo": 3222,
      "nyamesom": 3223,
      "##nyaa": 3224,
      "##somaa": 3225,
      "amfi": 3226,
      "mmammarima": 3227,
      "##hunuu": 3228,
      "##well": 3229,
      "2008": 3230,
      "##lae": 3231,
      "im": 3232,
      "aseten": 3233,
      "duma": 3234,
      "ɔyare": 3235,
      "##koto": 3236,
      "amɛ": 3237,
      "hyiadan": 3238,
      "asetenam": 3239,
      "##tic": 3240,
      "only": 3241,
      "kora": 3242,
      "##lk": 3243,
      "demo": 3244,
      "cre": 3245,
      "tele": 3246,
      "54": 3247,
      "sui": 3248,
      "cana": 3249,
      "baason": 3250,
      "56": 3251,
      "##unlu": 3252,
      "akɔnnɔ": 3253,
      "##gen": 3254,
      "ɔfaa": 3255,
      "ɔsɛn": 3256,
      "neazo": 3257,
      "rema": 3258,
      "romafo": 3259,
      "nsusuw": 3260,
      "anisoadehu": 3261,
      "##bum": 3262,
      "megye": 3263,
      "wel": 3264,
      "woah": 3265,
      "awarefo": 3266,
      "##vin": 3267,
      "dɔnhwerew": 3268,
      "tw": 3269,
      "06": 3270,
      "dream": 3271,
      "##mia": 3272,
      "ntɔ": 3273,
      "##kre": 3274,
      "akyidifo": 3275,
      "hebrifo": 3276,
      "woma": 3277,
      "y3": 3278,
      "##tete": 3279,
      "guy": 3280,
      "##yɛfoɔ": 3281,
      "wɛ": 3282,
      "ɔwɛn": 3283,
      "yɛma": 3284,
      "##lek": 3285,
      "wama": 3286,
      "##lly": 3287,
      "ɔhanle": 3288,
      "ayeforo": 3289,
      "fewer": 3290,
      "nnafua": 3291,
      "perfe": 3292,
      "single": 3293,
      "dye": 3294,
      "afie": 3295,
      "wɔanya": 3296,
      "ɛh": 3297,
      "##ghe": 3298,
      "ahinta": 3299,
      "ɛdoa": 3300,
      "yeinom": 3301,
      "hor": 3302,
      "##soɛ": 3303,
      "##amfa": 3304,
      "wonka": 3305,
      "yeh": 3306,
      "sane": 3307,
      "wɔyɛe": 3308,
      "##lomon": 3309,
      "poo": 3310,
      "seri": 3311,
      "atirim": 3312,
      "##luku": 3313,
      "biase": 3314,
      "real": 3315,
      "into": 3316,
      "naam": 3317,
      "##yɔ": 3318,
      "##cha": 3319,
      "##biza": 3320,
      "adesamma": 3321,
      "pilato": 3322,
      "bɛgye": 3323,
      "efeso": 3324,
      "apɔw": 3325,
      "obenya": 3326,
      "wɔbɛma": 3327,
      "ele": 3328,
      "wɔtaa": 3329,
      "mame": 3330,
      "##lam": 3331,
      "moren": 3332,
      "amfa": 3333,
      "##ves": 3334,
      "##dwe": 3335,
      "anigyeɛ": 3336,
      "shadow": 3337,
      "ly": 3338,
      "##one": 3339,
      "##vie": 3340,
      "bibi": 3341,
      "oto": 3342,
      "kyɛfa": 3343,
      "samaria": 3344,
      "90": 3345,
      "prin": 3346,
      "ɛhyɛ": 3347,
      "##kwaa": 3348,
      "ahi": 3349,
      "wawu": 3350,
      "ɔtenaa": 3351,
      "tea": 3352,
      "##uraa": 3353,
      "09": 3354,
      "tua": 3355,
      "ahemman": 3356,
      "misii": 3357,
      "jan": 3358,
      "##ɔho": 3359,
      "safe": 3360,
      "kwasi": 3361,
      "##ven": 3362,
      "social": 3363,
      "akyire": 3364,
      "yedidi": 3365,
      "queen": 3366,
      "##bre": 3367,
      "##duan": 3368,
      "hokafo": 3369,
      "nnwan": 3370,
      "wobɛka": 3371,
      "ww": 3372,
      "solomon": 3373,
      "agyi": 3374,
      "##mmoa": 3375,
      "tenenee": 3376,
      "##defo": 3377,
      "kɔm": 3378,
      "skin": 3379,
      "53": 3380,
      "super": 3381,
      "soo": 3382,
      "##koraa": 3383,
      "##denle": 3384,
      "##rou": 3385,
      "kasam": 3386,
      "fifo": 3387,
      "##honam": 3388,
      "sig": 3389,
      "obegye": 3390,
      "yer": 3391,
      "amo": 3392,
      "was": 3393,
      "hunu": 3394,
      "fata": 3395,
      "##dwa": 3396,
      "gyata": 3397,
      "##ford": 3398,
      "dwu": 3399,
      "bɔbɔ": 3400,
      "wii": 3401,
      "call": 3402,
      "yedi": 3403,
      "##kuo": 3404,
      "ton": 3405,
      "amumɔ": 3406,
      "wobegye": 3407,
      "august": 3408,
      "cam": 3409,
      "akokoduru": 3410,
      "mmabaa": 3411,
      "rut": 3412,
      "##dwu": 3413,
      "mmmmmmmmmmmm": 3414,
      "afɔ": 3415,
      "photo": 3416,
      "wub": 3417,
      "yerenom": 3418,
      "map": 3419,
      "ɛyaa": 3420,
      "akontaa": 3421,
      "##kɔm": 3422,
      "highe": 3423,
      "highest": 3424,
      "##rong": 3425,
      "abam": 3426,
      "##kola": 3427,
      "simma": 3428,
      "##bikye": 3429,
      "##zɛ": 3430,
      "soma": 3431,
      "mudi": 3432,
      "worries": 3433,
      "munnye": 3434,
      "sur": 3435,
      "##reneefo": 3436,
      "##tou": 3437,
      "##yamin": 3438,
      "also": 3439,
      "iu": 3440,
      "nsow": 3441,
      "mie": 3442,
      "ou": 3443,
      "##anim": 3444,
      "##rii": 3445,
      "amakye": 3446,
      "wɔahu": 3447,
      "gui": 3448,
      "##ans": 3449,
      "wɔra": 3450,
      "wannabe": 3451,
      "wobedi": 3452,
      "mɛla": 3453,
      "##nnipa": 3454,
      "ɔhonam": 3455,
      "musi": 3456,
      "wafa": 3457,
      "ɔsɛ": 3458,
      "##as": 3459,
      "##ness": 3460,
      "nkwasea": 3461,
      "anwosesebɛ": 3462,
      "wobenya": 3463,
      "munnsuro": 3464,
      "ohio": 3465,
      "afrika": 3466,
      "##tuu": 3467,
      "user": 3468,
      "##new": 3469,
      "mbo": 3470,
      "##14": 3471,
      "ac": 3472,
      "abɛyɛ": 3473,
      "##ɛno": 3474,
      "minya": 3475,
      "joe": 3476,
      "yizilayɛma": 3477,
      "dun": 3478,
      "##sus": 3479,
      "ɛmfa": 3480,
      "casa": 3481,
      "mas": 3482,
      "nno": 3483,
      "ahonhommɔne": 3484,
      "wɔhwɛ": 3485,
      "snow": 3486,
      "pɔtee": 3487,
      "onyan": 3488,
      "sere": 3489,
      "twice": 3490,
      "diedi": 3491,
      "wɔkɔɔ": 3492,
      "rus": 3493,
      "aduasa": 3494,
      "dze": 3495,
      "thi": 3496,
      "kama": 3497,
      "wonnye": 3498,
      "ndwom": 3499,
      "south": 3500,
      "sad": 3501,
      "ngakyile": 3502,
      "kit": 3503,
      "kdei": 3504,
      "hewɔ": 3505,
      "##vid": 3506,
      "bran": 3507,
      "##home": 3508,
      "mmabun": 3509,
      "nkete": 3510,
      "ateasefo": 3511,
      "animu": 3512,
      "ntu": 3513,
      "ita": 3514,
      "ɛbaa": 3515,
      "boafo": 3516,
      "aduonum": 3517,
      "table": 3518,
      "nyinara": 3519,
      "##ronya": 3520,
      "kulo": 3521,
      "bue": 3522,
      "apo": 3523,
      "ɛboa": 3524,
      "##vre": 3525,
      "hilele": 3526,
      "dwetɛ": 3527,
      "zi": 3528,
      "bun": 3529,
      "##tii": 3530,
      "test": 3531,
      "nsen": 3532,
      "ɔfrɛɛ": 3533,
      "moro": 3534,
      "serious": 3535,
      "yɛbɛtumi": 3536,
      "nnɔnhwerew": 3537,
      "##mw": 3538,
      "ɛboro": 3539,
      "gla": 3540,
      "awwwww": 3541,
      "ahobrɛase": 3542,
      "sɛe": 3543,
      "lam": 3544,
      "sy": 3545,
      "##ks": 3546,
      "##mmerɛ": 3547,
      "yetumi": 3548,
      "blow": 3549,
      "swim": 3550,
      "amon": 3551,
      "mihu": 3552,
      "cool": 3553,
      "dwumadibea": 3554,
      "jaa": 3555,
      "nganeɛ": 3556,
      "abɔfoɔ": 3557,
      "wagye": 3558,
      "archi": 3559,
      "annye": 3560,
      "ɛdoavolɛma": 3561,
      "nkum": 3562,
      "mmuaeɛ": 3563,
      "kenya": 3564,
      "oguan": 3565,
      "ɛsom": 3566,
      "makyerɛ": 3567,
      "ahɔho": 3568,
      "lawyer": 3569,
      "aniwa": 3570,
      "facebook": 3571,
      "perfect": 3572,
      "ebɛ": 3573,
      "solo": 3574,
      "room": 3575,
      "straw": 3576,
      "addo": 3577,
      "nz": 3578,
      "asobi": 3579,
      "ahofadi": 3580,
      "adepa": 3581,
      "##wife": 3582,
      "asomdwoeɛ": 3583,
      "58": 3584,
      "ɔgye": 3585,
      "mɛkɔ": 3586,
      "ɛwɔkɛ": 3587,
      "abɔnefo": 3588,
      "roman": 3589,
      "##oma": 3590,
      "##yɛde": 3591,
      "dead": 3592,
      "mobɛyɛ": 3593,
      "adɔfo": 3594,
      "power": 3595,
      "album": 3596,
      "##buu": 3597,
      "septe": 3598,
      "gra": 3599,
      "mema": 3600,
      "twit": 3601,
      "benyamin": 3602,
      "says": 3603,
      "##sefo": 3604,
      "##wurubɔfo": 3605,
      "ankyerɛ": 3606,
      "aduonu": 3607,
      "nsia": 3608,
      "otwa": 3609,
      "##nny": 3610,
      "mebae": 3611,
      "elisa": 3612,
      "##ment": 3613,
      "anto": 3614,
      "aduru": 3615,
      "nnamfonom": 3616,
      "pue": 3617,
      "##base": 3618,
      "##vale": 3619,
      "september": 3620,
      "yɛren": 3621,
      "site": 3622,
      "lin": 3623,
      "oku": 3624,
      "##maje": 3625,
      "adwe": 3626,
      "bɛmma": 3627,
      "kɛmaje": 3628,
      "nuabea": 3629,
      "slow": 3630,
      "wf": 3631,
      "komm": 3632,
      "nnɔ": 3633,
      "yareɛ": 3634,
      "atreneefo": 3635,
      "jen": 3636,
      "par": 3637,
      "amanamanmufo": 3638,
      "mia": 3639,
      "mmerɛ": 3640,
      "##onyankopɔn": 3641,
      "srɛɛ": 3642,
      "##sou": 3643,
      "wiki": 3644,
      "korɔn": 3645,
      "kain": 3646,
      "enye": 3647,
      "fifi": 3648,
      "cookware": 3649,
      "nasa": 3650,
      "##taw": 3651,
      "rea": 3652,
      "menka": 3653,
      "coa": 3654,
      "fitaa": 3655,
      "part": 3656,
      "kanea": 3657,
      "awieleɛ": 3658,
      "annee": 3659,
      "wɔrekɔ": 3660,
      "proble": 3661,
      "srɛ": 3662,
      "wɔba": 3663,
      "sekai": 3664,
      "hap": 3665,
      "kaesa": 3666,
      "wɔbɛfrɛ": 3667,
      "wol": 3668,
      "owi": 3669,
      "lasa": 3670,
      "sue": 3671,
      "mpɛ": 3672,
      "##pee": 3673,
      "below": 3674,
      "ngyegye": 3675,
      "kpɔkɛ": 3676,
      "wet": 3677,
      "anafo": 3678,
      "alex": 3679,
      "afuw": 3680,
      "twam": 3681,
      "##thew": 3682,
      "hela": 3683,
      "mmɔborɔ": 3684,
      "##anyɛ": 3685,
      "seet": 3686,
      "nuhua": 3687,
      "gɛn": 3688,
      "##nua": 3689,
      "kɔsi": 3690,
      "wɔda": 3691,
      "##fon": 3692,
      "fine": 3693,
      "atie": 3694,
      "wɔhyɛ": 3695,
      "mid": 3696,
      "matthew": 3697,
      "ahoɔ": 3698,
      "woyii": 3699,
      "##lɛma": 3700,
      "akyerɛw": 3701,
      "ngyegyelɛ": 3702,
      "##fraa": 3703,
      "ilaa": 3704,
      "anzi": 3705,
      "moayɛ": 3706,
      "ear": 3707,
      "mum": 3708,
      "##cto": 3709,
      "##sɛpɛ": 3710,
      "wonderful": 3711,
      "bem": 3712,
      "##stan": 3713,
      "kɛmɔ": 3714,
      "lua": 3715,
      "suru": 3716,
      "##cy": 3717,
      "woho": 3718,
      "henanom": 3719,
      "meh": 3720,
      "akyerɛkyerɛfo": 3721,
      "##anwu": 3722,
      "mii": 3723,
      "memfa": 3724,
      "set": 3725,
      "##bɛbo": 3726,
      "kyu": 3727,
      "smi": 3728,
      "problem": 3729,
      "ɔlɛ": 3730,
      "mehwɛ": 3731,
      "rep": 3732,
      "wɔabɔ": 3733,
      "animuonyam": 3734,
      "##wow": 3735,
      "gyidifo": 3736,
      "57": 3737,
      "##sɛɛ": 3738,
      "toaa": 3739,
      "etumi": 3740,
      "mpoano": 3741,
      "wen": 3742,
      "atɛntrenee": 3743,
      "##siee": 3744,
      "##come": 3745,
      "##kota": 3746,
      "##rance": 3747,
      "kai": 3748,
      "osii": 3749,
      "maw": 3750,
      "mono": 3751,
      "okay": 3752,
      "there": 3753,
      "kristoni": 3754,
      "obedi": 3755,
      "rebe": 3756,
      "a1": 3757,
      "kik": 3758,
      "ahonle": 3759,
      "nen": 3760,
      "anibere": 3761,
      "wosuro": 3762,
      "##thing": 3763,
      "buronya": 3764,
      "anwodo": 3765,
      "##gy": 3766,
      "##dwenle": 3767,
      "##suo": 3768,
      "##pepem": 3769,
      "seetan": 3770,
      "##tɔn": 3771,
      "mehia": 3772,
      "##fini": 3773,
      "nidi": 3774,
      "lasaro": 3775,
      "wɔfaa": 3776,
      "sick": 3777,
      "off": 3778,
      "za": 3779,
      "jack": 3780,
      "monnyɛ": 3781,
      "kee": 3782,
      "yɛaka": 3783,
      "event": 3784,
      "onna": 3785,
      "wanting": 3786,
      "fit": 3787,
      "kpuya": 3788,
      "america": 3789,
      "##way": 3790,
      "menni": 3791,
      "cli": 3792,
      "rare": 3793,
      "wrong": 3794,
      "##xe": 3795,
      "mbu": 3796,
      "fri": 3797,
      "mai": 3798,
      "##imfoɔ": 3799,
      "mempɛ": 3800,
      "atade": 3801,
      "yor": 3802,
      "poli": 3803,
      "yɛreka": 3804,
      "##nnnn": 3805,
      "##gan": 3806,
      "wɔdɔ": 3807,
      "panin": 3808,
      "wɔato": 3809,
      "fat": 3810,
      "asɛnni": 3811,
      "soɔ": 3812,
      "##sar": 3813,
      "emma": 3814,
      "##anu": 3815,
      "ahwehwɛ": 3816,
      "wolf": 3817,
      "ɛnte": 3818,
      "marta": 3819,
      "kuruwa": 3820,
      "hehe": 3821,
      "anhyɛ": 3822,
      "movie": 3823,
      "nantew": 3824,
      "monkae": 3825,
      "ɔbɛka": 3826,
      "ahuru": 3827,
      "bata": 3828,
      "##muka": 3829,
      "osuani": 3830,
      "##kya": 3831,
      "ayeyi": 3832,
      "soa": 3833,
      "bahola": 3834,
      "yeremia": 3835,
      "abosome": 3836,
      "pas": 3837,
      "music": 3838,
      "rɛ": 3839,
      "wususuw": 3840,
      "boo": 3841,
      "ɔmma": 3842,
      "##forɔ": 3843,
      "kɔmaa": 3844,
      "##hh": 3845,
      "afebɔɔ": 3846,
      "kɔbɔɔ": 3847,
      "hebrew": 3848,
      "nfa": 3849,
      "asram": 3850,
      "house": 3851,
      "dinn": 3852,
      "ɛreba": 3853,
      "ɔhɔ": 3854,
      "adawurubɔfo": 3855,
      "mba": 3856,
      "yɛmaa": 3857,
      "bewu": 3858,
      "##kile": 3859,
      "ofo": 3860,
      "ɛsɔ": 3861,
      "stay": 3862,
      "nva": 3863,
      "comment": 3864,
      "##ffee": 3865,
      "mubedi": 3866,
      "dou": 3867,
      "shaw": 3868,
      "##ker": 3869,
      "horow": 3870,
      "denn": 3871,
      "##kyo": 3872,
      "behu": 3873,
      "nketewa": 3874,
      "ɛkaa": 3875,
      "amansan": 3876,
      "wɔtoo": 3877,
      "mommfa": 3878,
      "wia": 3879,
      "##rɛlɛ": 3880,
      "wɔreyɛ": 3881,
      "wri": 3882,
      "ease": 3883,
      "old": 3884,
      "##87": 3885,
      "##efi": 3886,
      "wai": 3887,
      "193": 3888,
      "ɛhia": 3889,
      "##yere": 3890,
      "##saw": 3891,
      "insu": 3892,
      "boase": 3893,
      "knee": 3894,
      "mɛsan": 3895,
      "asɔrefie": 3896,
      "yebehu": 3897,
      "bur": 3898,
      "nii": 3899,
      "title": 3900,
      "dom": 3901,
      "prɛ": 3902,
      "##tw": 3903,
      "##ral": 3904,
      "dase": 3905,
      "##hyem": 3906,
      "city": 3907,
      "yɛrentumi": 3908,
      "##ɛnam": 3909,
      "##roo": 3910,
      "bɛte": 3911,
      "member": 3912,
      "##nyae": 3913,
      "odiyifoɔ": 3914,
      "nvasoɛ": 3915,
      "abisa": 3916,
      "letra": 3917,
      "aguaman": 3918,
      "yɛhyɛ": 3919,
      "nnwiki": 3920,
      "nyansahufo": 3921,
      "boɛ": 3922,
      "adwumaden": 3923,
      "mpanimfoɔ": 3924,
      "same": 3925,
      "hour": 3926,
      "worky": 3927,
      "##bsa": 3928,
      "then": 3929,
      "kura": 3930,
      "les": 3931,
      "ananmu": 3932,
      "yɛdi": 3933,
      "nsom": 3934,
      "##zule": 3935,
      "ɔrekɔ": 3936,
      "##lyn": 3937,
      "mihui": 3938,
      "dia": 3939,
      "pat": 3940,
      "mpren": 3941,
      "dw": 3942,
      "ram": 3943,
      "##nyi": 3944,
      "ode": 3945,
      "##aseɛ": 3946,
      "ayera": 3947,
      "pono": 3948,
      "fɛɛ": 3949,
      "wotofo": 3950,
      "##ɛlɛle": 3951,
      "vote": 3952,
      "mc": 3953,
      "onyaa": 3954,
      "obiaa": 3955,
      "amammerɛ": 3956,
      "nuabarima": 3957,
      "london": 3958,
      "ɔbɛtumi": 3959,
      "adae": 3960,
      "happy": 3961,
      "ɔpanyin": 3962,
      "##set": 3963,
      "glad": 3964,
      "mrs": 3965,
      "game": 3966,
      "mmɛn": 3967,
      "wata": 3968,
      "nkoaa": 3969,
      "ape": 3970,
      "wɔhyɛɛ": 3971,
      "still": 3972,
      "toa": 3973,
      "ante": 3974,
      "ɔsɛnkafo": 3975,
      "mikasa": 3976,
      "welcome": 3977,
      "##kyin": 3978,
      "woh": 3979,
      "ene": 3980,
      "worekɔ": 3981,
      "mɔdenle": 3982,
      "ɔpepepem": 3983,
      "##tinn": 3984,
      "kili": 3985,
      "ɔwoo": 3986,
      "raalɛ": 3987,
      "mfiti": 3988,
      "moahu": 3989,
      "ɔkola": 3990,
      "amua": 3991,
      "court": 3992,
      "nokwafo": 3993,
      "adekyee": 3994,
      "oyii": 3995,
      "woda": 3996,
      "mmeae": 3997,
      "ɔhyew": 3998,
      "beae": 3999,
      "moda": 4000,
      "king": 4001,
      "##ken": 4002,
      "adagye": 4003,
      "join": 4004,
      "onifuraefo": 4005,
      "edwuma": 4006,
      "mag": 4007,
      "##las": 4008,
      "2010": 4009,
      "##rrow": 4010,
      "##ɔhene": 4011,
      "ɔbra": 4012,
      "##pons": 4013,
      "##kete": 4014,
      "##rɔm": 4015,
      "##mas": 4016,
      "yɛdɔ": 4017,
      "bɛdi": 4018,
      "pintinn": 4019,
      "ewie": 4020,
      "red": 4021,
      "wudi": 4022,
      "abodoo": 4023,
      "##moa": 4024,
      "yiren": 4025,
      "##kɔkɔɔ": 4026,
      "tɔn": 4027,
      "##zia": 4028,
      "wowee": 4029,
      "##fer": 4030,
      "try": 4031,
      "africa": 4032,
      "person": 4033,
      "bɛsɔre": 4034,
      "woate": 4035,
      "ɔreka": 4036,
      "ɔsɔre": 4037,
      "##get": 4038,
      "mebaa": 4039,
      "insurance": 4040,
      "##wia": 4041,
      "ɛnwu": 4042,
      "adwumayɛfo": 4043,
      "ire": 4044,
      "##kɔn": 4045,
      "minnim": 4046,
      "##inasai": 4047,
      "99": 4048,
      "yɛrebɛ": 4049,
      "afɔrebɔ": 4050,
      "nsra": 4051,
      "##foo": 4052,
      "edidi": 4053,
      "sɔɔ": 4054,
      "##lebɛbo": 4055,
      "sesa": 4056,
      "kyɛn": 4057,
      "##bara": 4058,
      "money": 4059,
      "adesoa": 4060,
      "atom": 4061,
      "nsase": 4062,
      "wowwwww": 4063,
      "##kia": 4064,
      "##xi": 4065,
      "naw": 4066,
      "asetra": 4067,
      "mɛkyerɛ": 4068,
      "awerɛhyem": 4069,
      "amuala": 4070,
      "##sete": 4071,
      "##nai": 4072,
      "muntie": 4073,
      "nkyene": 4074,
      "ndi": 4075,
      "wɔsom": 4076,
      "woyi": 4077,
      "sikakɔkɔɔ": 4078,
      "mmf": 4079,
      "##zalɛ": 4080,
      "ahurusi": 4081,
      "obia": 4082,
      "jesus": 4083,
      "##susu": 4084,
      "rahe": 4085,
      "gen": 4086,
      "mekaa": 4087,
      "wuyi": 4088,
      "ɔnkɔ": 4089,
      "afɔremuka": 4090,
      "luu": 4091,
      "tem": 4092,
      "wah": 4093,
      "wou": 4094,
      "defo": 4095,
      "##ununkum": 4096,
      "edwɛne": 4097,
      "nsusuwii": 4098,
      "dɔla": 4099,
      "##boaboa": 4100,
      "wɔbɛtumi": 4101,
      "phili": 4102,
      "##dge": 4103,
      "sɛso": 4104,
      "nnaadaa": 4105,
      "kikinasai": 4106,
      "##tintim": 4107,
      "babies": 4108,
      "crear": 4109,
      "##ɔne": 4110,
      "##yie": 4111,
      "umi": 4112,
      "boasetɔ": 4113,
      "awi": 4114,
      "wobɔ": 4115,
      "wɔbɛfa": 4116,
      "coffee": 4117,
      "otum": 4118,
      "##ffo": 4119,
      "nke": 4120,
      "bɔle": 4121,
      "wɔawo": 4122,
      "abarimaa": 4123,
      "##xx": 4124,
      "moka": 4125,
      "eng": 4126,
      "ohui": 4127,
      "wobisaa": 4128,
      "yirenkyi": 4129,
      "sp": 4130,
      "canada": 4131,
      "ty": 4132,
      "knew": 4133,
      "osuro": 4134,
      "num": 4135,
      "nfo": 4136,
      "wɔdi": 4137,
      "##unom": 4138,
      "##tus": 4139,
      "arane": 4140,
      "qui": 4141,
      "##mom": 4142,
      "gone": 4143,
      "wwii": 4144,
      "##12": 4145,
      "awieeɛ": 4146,
      "wɛbsa": 4147,
      "chan": 4148,
      "##bena": 4149,
      "wɔto": 4150,
      "##sere": 4151,
      "##dodɔ": 4152,
      "org": 4153,
      "spain": 4154,
      "aap": 4155,
      "nyarewa": 4156,
      "yordan": 4157,
      "ext": 4158,
      "akwanhyia": 4159,
      "ɔsorosoroni": 4160,
      "tou": 4161,
      "sol": 4162,
      "ahoni": 4163,
      "nkuro": 4164,
      "akodi": 4165,
      "filipo": 4166,
      "##tt": 4167,
      "##hemaa": 4168,
      "abotare": 4169,
      "abufuo": 4170,
      "questions": 4171,
      "2021": 4172,
      "##ties": 4173,
      "##des": 4174,
      "afrɛ": 4175,
      "dont": 4176,
      "mpaa": 4177,
      "wont": 4178,
      "mehu": 4179,
      "obo": 4180,
      "500": 4181,
      "pam": 4182,
      "rekasa": 4183,
      "ɔbotan": 4184,
      "8xq": 4185,
      "##qua": 4186,
      "nnyinaso": 4187,
      "toɔ": 4188,
      "ahosɛpɛ": 4189,
      "wunnim": 4190,
      "ɛse": 4191,
      "##sɔn": 4192,
      "mele": 4193,
      "abɔn": 4194,
      "asɛyɛde": 4195,
      "##fraase": 4196,
      "ngoko": 4197,
      "ohene": 4198,
      "##sane": 4199,
      "wɔtenaa": 4200,
      "wogyina": 4201,
      "hey": 4202,
      "66": 4203,
      "##eyi": 4204,
      "base": 4205,
      "farewell": 4206,
      "##gle": 4207,
      "this": 4208,
      "hɔle": 4209,
      "chi": 4210,
      "etoro": 4211,
      "##lson": 4212,
      "asoma": 4213,
      "debiezukoalɛ": 4214,
      "heart": 4215,
      "##10": 4216,
      "adɔe": 4217,
      "ɛtwa": 4218,
      "##ctions": 4219,
      "akra": 4220,
      "ahintasɛm": 4221,
      "lea": 4222,
      "##nyaw": 4223,
      "wobɛte": 4224,
      "bam": 4225,
      "##dane": 4226,
      "febr": 4227,
      "dadwen": 4228,
      "wada": 4229,
      "cares": 4230,
      "adagyew": 4231,
      "kyaa": 4232,
      "##ɛberɛ": 4233,
      "tex": 4234,
      "anwodozo": 4235,
      "prɛko": 4236,
      "gyinaa": 4237,
      "amumu": 4238,
      "boom": 4239,
      "##tional": 4240,
      "##lielɛ": 4241,
      "kɛn": 4242,
      "lisa": 4243,
      "wɔfrɛɛ": 4244,
      "bamaa": 4245,
      "##sem": 4246,
      "yummy": 4247,
      "yɛbɛsom": 4248,
      "awerɛhosɛm": 4249,
      "willi": 4250,
      "tri": 4251,
      "abom": 4252,
      "##tain": 4253,
      "ɛbɛn": 4254,
      "eat": 4255,
      "wubedi": 4256,
      "tebe": 4257,
      "wfn": 4258,
      "nha": 4259,
      "65": 4260,
      "gɔnwo": 4261,
      "anwumabɔvolɛma": 4262,
      "karen": 4263,
      "nyinii": 4264,
      "hoa": 4265,
      "fai": 4266,
      "yudafoɔ": 4267,
      "##pene": 4268,
      "wɔwo": 4269,
      "page": 4270,
      "wonhu": 4271,
      "ogu": 4272,
      "ahyehyɛde": 4273,
      "asɛnnibea": 4274,
      "##ud": 4275,
      "##rai": 4276,
      "deal": 4277,
      "mɛtumi": 4278,
      "##ns": 4279,
      "nkan": 4280,
      "##gra": 4281,
      "##hy": 4282,
      "wɔkyerɛw": 4283,
      "anata": 4284,
      "##care": 4285,
      "apɔnkɔ": 4286,
      "mmofraase": 4287,
      "france": 4288,
      "nsuyiri": 4289,
      "abɔnten": 4290,
      "##doɔ": 4291,
      "##iɛ": 4292,
      "anon": 4293,
      "twitter": 4294,
      "yɛbɛkɔ": 4295,
      "mmusuakuw": 4296,
      "kamfo": 4297,
      "hum": 4298,
      "##gyinla": 4299,
      "##aaaa": 4300,
      "asked": 4301,
      "##hora": 4302,
      "paan": 4303,
      "adehye": 4304,
      "nyimpa": 4305,
      "tiawa": 4306,
      "mufo": 4307,
      "toto": 4308,
      "nove": 4309,
      "deɛn": 4310,
      "abue": 4311,
      "february": 4312,
      "ntie": 4313,
      "ron": 4314,
      "##tse": 4315,
      "##mmo": 4316,
      "germany": 4317,
      "ɛtoo": 4318,
      "kato": 4319,
      "yera": 4320,
      "abɔfra": 4321,
      "afraid": 4322,
      "nf": 4323,
      "swee": 4324,
      "##yuu": 4325,
      "afifi": 4326,
      "mfie": 4327,
      "cla": 4328,
      "yesua": 4329,
      "bɛkaa": 4330,
      "asɔrefi": 4331,
      "william": 4332,
      "mt": 4333,
      "yɛsukoa": 4334,
      "abusuakuw": 4335,
      "##alth": 4336,
      "##sraa": 4337,
      "##antew": 4338,
      "addi": 4339,
      "famous": 4340,
      "##efisɛ": 4341,
      "testo": 4342,
      "worehwehwɛ": 4343,
      "anifuraefo": 4344,
      "##soo": 4345,
      "##iii": 4346,
      "asasewosow": 4347,
      "mfɛ": 4348,
      "##ak": 4349,
      "salu": 4350,
      "sang": 4351,
      "ɔtoro": 4352,
      "##anan": 4353,
      "rebɔ": 4354,
      "kanu": 4355,
      "christ": 4356,
      "mb": 4357,
      "mpɔ": 4358,
      "adult": 4359,
      "2007": 4360,
      "59": 4361,
      "aust": 4362,
      "babilon": 4363,
      "hunuu": 4364,
      "dwa": 4365,
      "##eee": 4366,
      "ɔbono": 4367,
      "##nd": 4368,
      "dann": 4369,
      "hyiae": 4370,
      "omununkum": 4371,
      "##enaa": 4372,
      "##zonle": 4373,
      "version": 4374,
      "sigaret": 4375,
      "nkumaa": 4376,
      "alo": 4377,
      "idea": 4378,
      "ɛbanwu": 4379,
      "yeamaa": 4380,
      "bayɛ": 4381,
      "kyerɛwee": 4382,
      "##llow": 4383,
      "lol": 4384,
      "sky": 4385,
      "ol": 4386,
      "##num": 4387,
      "##kunu": 4388,
      "##nadze": 4389,
      "ebɛnadze": 4390,
      "##rɛma": 4391,
      "mmae": 4392,
      "left": 4393,
      "dada": 4394,
      "asuafoɔ": 4395,
      "reasons": 4396,
      "fool": 4397,
      "##trɛw": 4398,
      "nnuan": 4399,
      "##tiriw": 4400,
      "lan": 4401,
      "##ju": 4402,
      "##foforo": 4403,
      "sini": 4404,
      "ɔhyia": 4405,
      "##yim": 4406,
      "ɔnom": 4407,
      "merebɛ": 4408,
      "##ronkron": 4409,
      "egya": 4410,
      "aten": 4411,
      "ɔbɛyɛɛ": 4412,
      "mɛn": 4413,
      "osua": 4414,
      "david": 4415,
      "b3": 4416,
      "manfo": 4417,
      "ataa": 4418,
      "filipi": 4419,
      "wɔbaa": 4420,
      "mona": 4421,
      "##rio": 4422,
      "kakula": 4423,
      "ogyee": 4424,
      "esau": 4425,
      "fuw": 4426,
      "amanneɛbɔ": 4427,
      "anyansafo": 4428,
      "aan": 4429,
      "mmɔfra": 4430,
      "nhyia": 4431,
      "mepa": 4432,
      "wɔahyɛ": 4433,
      "eko": 4434,
      "mera": 4435,
      "mekyerɛ": 4436,
      "bɛsi": 4437,
      "ɔyɛle": 4438,
      "papayɛ": 4439,
      "ɔkyerɛkyerɛfo": 4440,
      "guru": 4441,
      "ɔtee": 4442,
      "##naba": 4443,
      "winter": 4444,
      "##guu": 4445,
      "mmɔborɔhunu": 4446,
      "dra": 4447,
      "ɔtan": 4448,
      "none": 4449,
      "babes": 4450,
      "nwe": 4451,
      "##hwi": 4452,
      "##pen": 4453,
      "yɛnyia": 4454,
      "bɔkɔɔ": 4455,
      "hate": 4456,
      "ɔnni": 4457,
      "mommra": 4458,
      "atenae": 4459,
      "##zen": 4460,
      "yɛfi": 4461,
      "desu": 4462,
      "sakra": 4463,
      "nkrataa": 4464,
      "os": 4465,
      "yɛnim": 4466,
      "bare": 4467,
      "korɔ": 4468,
      "flo": 4469,
      "nyanko": 4470,
      "onnim": 4471,
      "##lls": 4472,
      "roa": 4473,
      "mewu": 4474,
      "mentumi": 4475,
      "mereyɛ": 4476,
      "army": 4477,
      "ɛdeɛ": 4478,
      "yɛsrɛ": 4479,
      "bɛhwɛ": 4480,
      "wɔbɛkɔ": 4481,
      "afoa": 4482,
      "agyei": 4483,
      "##kanee": 4484,
      "model": 4485,
      "64": 4486,
      "tun": 4487,
      "yudea": 4488,
      "##wari": 4489,
      "ɛyɛe": 4490,
      "##mone": 4491,
      "ntoboa": 4492,
      "##reneeni": 4493,
      "##kpo": 4494,
      "##aam": 4495,
      "mebɔɔ": 4496,
      "livre": 4497,
      "tat": 4498,
      "##room": 4499,
      "dodoɔ": 4500,
      "ahunu": 4501,
      "cd": 4502,
      "ɔfiri": 4503,
      "##11": 4504,
      "wobisa": 4505,
      "saka": 4506,
      "after": 4507,
      "##hur": 4508,
      "amen": 4509,
      "##adeɛ": 4510,
      "yɛhu": 4511,
      "kase": 4512,
      "bɛtwe": 4513,
      "##tafo": 4514,
      "bane": 4515,
      "dwene": 4516,
      "vale": 4517,
      "##kunkum": 4518,
      "mubetumi": 4519,
      "##bet": 4520,
      "ɔyere": 4521,
      "##nɛ": 4522,
      "nkita": 4523,
      "ɛbɛtumi": 4524,
      "##hoahoa": 4525,
      "zoo": 4526,
      "##tal": 4527,
      "wonnya": 4528,
      "mintumi": 4529,
      "##twom": 4530,
      "adanseɛ": 4531,
      "##mmufo": 4532,
      "ɛdɛn": 4533,
      "ewule": 4534,
      "bmw": 4535,
      "##amu": 4536,
      "ahohora": 4537,
      "oda": 4538,
      "##dwazo": 4539,
      "##dd": 4540,
      "bɛhɔ": 4541,
      "europa": 4542,
      "aniwu": 4543,
      "asɛmfua": 4544,
      "##hwehwɛɛ": 4545,
      "cheese": 4546,
      "nde": 4547,
      "boat": 4548,
      "##min": 4549,
      "bufo": 4550,
      "luusua": 4551,
      "wokae": 4552,
      "a2": 4553,
      "wunn": 4554,
      "##lah": 4555,
      "##kɔbea": 4556,
      "wed": 4557,
      "ɔrebɛ": 4558,
      "extra": 4559,
      "lou": 4560,
      "##kala": 4561,
      "ababaa": 4562,
      "kuma": 4563,
      "a4": 4564,
      "##mmra": 4565,
      "##kɛse": 4566,
      "ketewaa": 4567,
      "abedi": 4568,
      "ɔkyerɛw": 4569,
      "##kotow": 4570,
      "kolose": 4571,
      "##boam": 4572,
      "ntew": 4573,
      "ɛhaw": 4574,
      "wofa": 4575,
      "##omu": 4576,
      "awɔw": 4577,
      "##ao": 4578,
      "##tefo": 4579,
      "wear": 4580,
      "nteɛ": 4581,
      "wofii": 4582,
      "nrenya": 4583,
      "75": 4584,
      "##sha": 4585,
      "##amoa": 4586,
      "lau": 4587,
      "wusua": 4588,
      "minna": 4589,
      "twerɛ": 4590,
      "##men": 4591,
      "##donia": 4592,
      "bɛnya": 4593,
      "16na": 4594,
      "##krɛma": 4595,
      "wotie": 4596,
      "wosusuw": 4597,
      "##ranom": 4598,
      "ɔrentumi": 4599,
      "wodɔ": 4600,
      "mou": 4601,
      "kwabena": 4602,
      "gɛnen": 4603,
      "bag": 4604,
      "play": 4605,
      "cen": 4606,
      "##bbi": 4607,
      "ɔtaa": 4608,
      "nsono": 4609,
      "##kes": 4610,
      "nyaatwom": 4611,
      "araa": 4612,
      "mibisa": 4613,
      "smith": 4614,
      "wohwehwɛ": 4615,
      "modɔ": 4616,
      "##uma": 4617,
      "sabi": 4618,
      "gree": 4619,
      "ore": 4620,
      "##wumi": 4621,
      "years": 4622,
      "mehyɛ": 4623,
      "##kyea": 4624,
      "tiri": 4625,
      "##gba": 4626,
      "koe": 4627,
      "nkitaho": 4628,
      "pɛe": 4629,
      "##gola": 4630,
      "atirimpɔw": 4631,
      "kunkum": 4632,
      "pay": 4633,
      "toma": 4634,
      "proud": 4635,
      "##sefi": 4636,
      "meho": 4637,
      "ontumi": 4638,
      "asɛde": 4639,
      "water": 4640,
      "ph": 4641,
      "top": 4642,
      "archives": 4643,
      "br": 4644,
      "tre": 4645,
      "daabi": 4646,
      "##gie": 4647,
      "wɔrentumi": 4648,
      "anko": 4649,
      "abena": 4650,
      "nokwaredi": 4651,
      "ebon": 4652,
      "amoa": 4653,
      "wonyɛ": 4654,
      "blew": 4655,
      "nwɔtwe": 4656,
      "oho": 4657,
      "anrɛɛ": 4658,
      "musu": 4659,
      "bepɔ": 4660,
      "eden": 4661,
      "egyina": 4662,
      "crow": 4663,
      "nyia": 4664,
      "##von": 4665,
      "ntwa": 4666,
      "subane": 4667,
      "kyia": 4668,
      "naomi": 4669,
      "nr": 4670,
      "##anfo": 4671,
      "obehu": 4672,
      "kumaa": 4673,
      "simple": 4674,
      "ɛm": 4675,
      "og": 4676,
      "1914": 4677,
      "anansesɛm": 4678,
      "kaesare": 4679,
      "abɔnsam": 4680,
      "wogyee": 4681,
      "mugye": 4682,
      "ɔkwa": 4683,
      "akuma": 4684,
      "iyi": 4685,
      "ɛkɔɔ": 4686,
      "ahoy": 4687,
      "afua": 4688,
      "kela": 4689,
      "ebusua": 4690,
      "##anza": 4691,
      "mpofiri": 4692,
      "wɔbɛsɛe": 4693,
      "eb": 4694,
      "##net": 4695,
      "##ono": 4696,
      "wayi": 4697,
      "bokura": 4698,
      "abuse": 4699,
      "yoo": 4700,
      "kyekyeree": 4701,
      "dennen": 4702,
      "parade": 4703,
      "amrado": 4704,
      "##tifo": 4705,
      "ɔtoo": 4706,
      "amu": 4707,
      "ntoma": 4708,
      "##nsu": 4709,
      "##sulo": 4710,
      "hwɛe": 4711,
      "minyaa": 4712,
      "nzi": 4713,
      "mawu": 4714,
      "mensuro": 4715,
      "monni": 4716,
      "nkorɔfo": 4717,
      "bɛnrɛ": 4718,
      "etu": 4719,
      "##sure": 4720,
      "edwɛkpa": 4721,
      "kelaese": 4722,
      "tur": 4723,
      "nyane": 4724,
      "egye": 4725,
      "mren": 4726,
      "##ress": 4727,
      "##umua": 4728,
      "##bete": 4729,
      "asɛnnua": 4730,
      "confu": 4731,
      "sr": 4732,
      "##twam": 4733,
      "##you": 4734,
      "tɛkrɛma": 4735,
      "nhi": 4736,
      "mpataa": 4737,
      "##lɔn": 4738,
      "ɔmanfo": 4739,
      "makedonia": 4740,
      "wine": 4741,
      "geor": 4742,
      "ham": 4743,
      "loo": 4744,
      "##pue": 4745,
      "mehunu": 4746,
      "bird": 4747,
      "wutumi": 4748,
      "daselɛ": 4749,
      "62": 4750,
      "boka": 4751,
      "brown": 4752,
      "wank": 4753,
      "afee": 4754,
      "ɔnokwafo": 4755,
      "beach": 4756,
      "ɛlɔ": 4757,
      "##fɔ": 4758,
      "anno": 4759,
      "sime": 4760,
      "adwumayɛ": 4761,
      "dɔte": 4762,
      "##kani": 4763,
      "ɛkyɛn": 4764,
      "duu": 4765,
      "afoforɔ": 4766,
      "radio": 4767,
      "zɛ": 4768,
      "##duruu": 4769,
      "##ward": 4770,
      "##gyakyi": 4771,
      "moses": 4772,
      "oi": 4773,
      "##tene": 4774,
      "awulae": 4775,
      "adiyifoɔ": 4776,
      "polisifo": 4777,
      "twɛn": 4778,
      "##lin": 4779,
      "woduu": 4780,
      "##banyia": 4781,
      "annua": 4782,
      "##hulolɛ": 4783,
      "selɛ": 4784,
      "kodi": 4785,
      "ahojte": 4786,
      "ayaresabea": 4787,
      "omo": 4788,
      "yɛgɛ": 4789,
      "wɔnn": 4790,
      "bel": 4791,
      "##eeɛ": 4792,
      "wants": 4793,
      "tattoo": 4794,
      "eva": 4795,
      "##chuu": 4796,
      "biza": 4797,
      "##sɛee": 4798,
      "fl": 4799,
      "pour": 4800,
      "nowa": 4801,
      "sai": 4802,
      "##rɔw": 4803,
      "ɛnrɛhola": 4804,
      "nwanwa": 4805,
      "europe": 4806,
      "bre": 4807,
      "##haa": 4808,
      "##anz": 4809,
      "##yen": 4810,
      "##salo": 4811,
      "fapem": 4812,
      "wahu": 4813,
      "ɔtreneeni": 4814,
      "babu": 4815,
      "##wide": 4816,
      "nkyem": 4817,
      "mfitiase": 4818,
      "bɔn": 4819,
      "woaka": 4820,
      "ɔdaye": 4821,
      "ɛhulolɛ": 4822,
      "ɔbɔfoɔ": 4823,
      "ɔkyerɛɛ": 4824,
      "text": 4825,
      "##mmer": 4826,
      "aane": 4827,
      "##bli": 4828,
      "kata": 4829,
      "release": 4830,
      "moab": 4831,
      "kilisi": 4832,
      "##gram": 4833,
      "##srɛɛ": 4834,
      "behin": 4835,
      "bat": 4836,
      "sae": 4837,
      "wiee": 4838,
      "ogyina": 4839,
      "moanya": 4840,
      "##wiee": 4841,
      "nkyekyɛm": 4842,
      "ireland": 4843,
      "wohui": 4844,
      "wuu": 4845,
      "wait": 4846,
      "2000": 4847,
      "done": 4848,
      "manka": 4849,
      "esum": 4850,
      "ɔfoforo": 4851,
      "##ah": 4852,
      "wufi": 4853,
      "mifii": 4854,
      "bone": 4855,
      "ewura": 4856,
      "wohia": 4857,
      "##wɛmfo": 4858,
      "nohɔ": 4859,
      "##kar": 4860,
      "##amfoɔ": 4861,
      "ahosɛpɛw": 4862,
      "##bedi": 4863,
      "yentumi": 4864,
      "ahodoɔ": 4865,
      "bii": 4866,
      "##oman": 4867,
      "fuwii": 4868,
      "kyɛɛ": 4869,
      "mli": 4870,
      "w7": 4871,
      "nnyi": 4872,
      "kɛkala": 4873,
      "suku": 4874,
      "##muden": 4875,
      "##dani": 4876,
      "texas": 4877,
      "aden": 4878,
      "mak": 4879,
      "##ddy": 4880,
      "wotu": 4881,
      "2006": 4882,
      "enjo": 4883,
      "yɛate": 4884,
      "##fw": 4885,
      "##sonsom": 4886,
      "##sc": 4887,
      "yebu": 4888,
      "teen": 4889,
      "##mmea": 4890,
      "68": 4891,
      "yɛto": 4892,
      "devi": 4893,
      "give": 4894,
      "ɛbae": 4895,
      "##ps": 4896,
      "metew": 4897,
      "##boah": 4898,
      "wod": 4899,
      "awura": 4900,
      "early": 4901,
      "nda": 4902,
      "ɔdaa": 4903,
      "ɛlie": 4904,
      "##funu": 4905,
      "bagua": 4906,
      "suaa": 4907,
      "akumaa": 4908,
      "wobɛkɔ": 4909,
      "dwosefi": 4910,
      "efra": 4911,
      "note": 4912,
      "worse": 4913,
      "600": 4914,
      "aforo": 4915,
      "self": 4916,
      "cow": 4917,
      "mekulo": 4918,
      "maga": 4919,
      "yennim": 4920,
      "mpofirim": 4921,
      "a3": 4922,
      "adaduan": 4923,
      "gemma": 4924,
      "adaduanan": 4925,
      "##iro": 4926,
      "##sui": 4927,
      "yɛnrɛ": 4928,
      "wobehu": 4929,
      "ofie": 4930,
      "ɛzin": 4931,
      "paanoo": 4932,
      "ɛzinzalɛ": 4933,
      "gy": 4934,
      "ɔpon": 4935,
      "##yee": 4936,
      "teri": 4937,
      "anokwafo": 4938,
      "onuawa": 4939,
      "wɛbsaet": 4940,
      "moma": 4941,
      "##suani": 4942,
      "um": 4943,
      "toro": 4944,
      "wit": 4945,
      "hotwife": 4946,
      "iukoto": 4947,
      "##bam": 4948,
      "nkron": 4949,
      "kyekye": 4950,
      "ɔreyɛ": 4951,
      "saul": 4952,
      "##kee": 4953,
      "sodom": 4954,
      "mui": 4955,
      "##int": 4956,
      "dapɛn": 4957,
      "anisɔ": 4958,
      "ɔdebɔneyɛfo": 4959,
      "ɛsɔfo": 4960,
      "mekenkan": 4961,
      "##nis": 4962,
      "##ler": 4963,
      "bɛan": 4964,
      "nananom": 4965,
      "poma": 4966,
      "awerɛkyekye": 4967,
      "nsonoe": 4968,
      "bebu": 4969,
      "abram": 4970,
      "kou": 4971,
      "nor": 4972,
      "dedi": 4973,
      "afia": 4974,
      "api": 4975,
      "kotoba": 4976,
      "amumɔyɛfo": 4977,
      "mabɔ": 4978,
      "wonky": 4979,
      "hit": 4980,
      "sikasɛm": 4981,
      "austra": 4982,
      "cho": 4983,
      "##table": 4984,
      "##uano": 4985,
      "##tuw": 4986,
      "wunya": 4987,
      "ngɛ": 4988,
      "herode": 4989,
      "maba": 4990,
      "ɔkronkron": 4991,
      "mpɔtam": 4992,
      "##saloni": 4993,
      "##nw": 4994,
      "mukou": 4995,
      "health": 4996,
      "send": 4997,
      "kronn": 4998,
      "auto": 4999,
      "akufo": 5000,
      "aleɛ": 5001,
      "ɔsɛe": 5002,
      "##hwee": 5003,
      "nih": 5004,
      "thanks": 5005,
      "lii": 5006,
      "sɛee": 5007,
      "kɛtɛ": 5008,
      "nante": 5009,
      "agyaa": 5010,
      "kro": 5011,
      "dem": 5012,
      "ahab": 5013,
      "akyere": 5014,
      "waw": 5015,
      "siesie": 5016,
      "##ryin": 5017,
      "##mmɔn": 5018,
      "ahoba": 5019,
      "abibi": 5020,
      "asisi": 5021,
      "nwuanz": 5022,
      "guankɔbea": 5023,
      "##anwuanza": 5024,
      "nwuanzanwuanza": 5025,
      "gan": 5026,
      "osetie": 5027,
      "minhu": 5028,
      "wobɛfa": 5029,
      "gala": 5030,
      "pl": 5031,
      "kɛyɛ": 5032,
      "##boo": 5033,
      "mɔmɔ": 5034,
      "hyiraa": 5035,
      "nasaret": 5036,
      "##ompo": 5037,
      "mmrɛ": 5038,
      "buluku": 5039,
      "yɛnam": 5040,
      "##hae": 5041,
      "habel": 5042,
      "awovolɛ": 5043,
      "mfinim": 5044,
      "2005": 5045,
      "twetia": 5046,
      "muhu": 5047,
      "park": 5048,
      "sar": 5049,
      "##sual": 5050,
      "zu": 5051,
      "##wase": 5052,
      "yɛbɛka": 5053,
      "philip": 5054,
      "behind": 5055,
      "ezukoa": 5056,
      "nsie": 5057,
      "woow": 5058,
      "sal": 5059,
      "wunni": 5060,
      "ɔtamfo": 5061,
      "ɛhwɛ": 5062,
      "yeri": 5063,
      "##tufo": 5064,
      "cry": 5065,
      "mw": 5066,
      "ahum": 5067,
      "mantam": 5068,
      "barnaba": 5069,
      "mododɔ": 5070,
      "makɔ": 5071,
      "cle": 5072,
      "moo": 5073,
      "mimi": 5074,
      "rebɛ": 5075,
      "atum": 5076,
      "nwomasua": 5077,
      "didn": 5078,
      "##zɛkye": 5079,
      "md": 5080,
      "##tiee": 5081,
      "##hohoro": 5082,
      "mmmmmmmmmmmmmm": 5083,
      "johnny": 5084,
      "kɔkaa": 5085,
      "rabi": 5086,
      "fame": 5087,
      "69": 5088,
      "medaa": 5089,
      "baal": 5090,
      "porn": 5091,
      "worst": 5092,
      "##tɔyam": 5093,
      "hours": 5094,
      "ie": 5095,
      "tesaloni": 5096,
      "okunu": 5097,
      "adaemone": 5098,
      "mfinimfini": 5099,
      "nrɛlɛ": 5100,
      "swi": 5101,
      "nrɛlɛbɛ": 5102,
      "##yei": 5103,
      "##hilele": 5104,
      "ɛkulo": 5105,
      "##dɛnla": 5106,
      "yedii": 5107,
      "hw": 5108,
      "ɔsa": 5109,
      "laban": 5110,
      "nsw": 5111,
      "boakye": 5112,
      "pret": 5113,
      "yew": 5114,
      "fotos": 5115,
      "mani": 5116,
      "10na": 5117,
      "edit": 5118,
      "akasakasa": 5119,
      "##sama": 5120,
      "kɔma": 5121,
      "##sani": 5122,
      "mfu": 5123,
      "wowo": 5124,
      "ɔreba": 5125,
      "mmoro": 5126,
      "2004": 5127,
      "safo": 5128,
      "reply": 5129,
      "##juu": 5130,
      "mone": 5131,
      "serew": 5132,
      "ahyi": 5133,
      "mereko": 5134,
      "agyede": 5135,
      "mra": 5136,
      "##uw": 5137,
      "nah": 5138,
      "mɛɛ": 5139,
      "##lanle": 5140,
      "gyɛne": 5141,
      "##nwinnwen": 5142,
      "##ph": 5143,
      "sees": 5144,
      "nyunlu": 5145,
      "ebony": 5146,
      "mbrɛ": 5147,
      "sobo": 5148,
      "##bis": 5149,
      "subete": 5150,
      "##rent": 5151,
      "mente": 5152,
      "monwɛn": 5153,
      "wɔtetee": 5154,
      "latest": 5155,
      "##hor": 5156,
      "andrea": 5157,
      "atoyerɛn": 5158,
      "cul": 5159,
      "mfɛfo": 5160,
      "atoyerɛnkyɛm": 5161,
      "sian": 5162,
      "ayamye": 5163,
      "ori": 5164,
      "nket": 5165,
      "awareness": 5166,
      "##r3": 5167,
      "eduu": 5168,
      "wiasefo": 5169,
      "moate": 5170,
      "##kari": 5171,
      "mite": 5172,
      "nwon": 5173,
      "wob": 5174,
      "nkyɛm": 5175,
      "uk": 5176,
      "ɛsan": 5177,
      "dear": 5178,
      "mmɔnten": 5179,
      "##cu": 5180,
      "russe": 5181,
      "mesan": 5182,
      "##tai": 5183,
      "ent": 5184,
      "eba": 5185,
      "##bow": 5186,
      "amy": 5187,
      "mprenu": 5188,
      "eee": 5189,
      "##kun": 5190,
      "##tro": 5191,
      "baboa": 5192,
      "##difoɔ": 5193,
      "ahummɔ": 5194,
      "##bɛnto": 5195,
      "turodoo": 5196,
      "b2": 5197,
      "sra": 5198,
      "ɔkulo": 5199,
      "##tɛn": 5200,
      "mitumi": 5201,
      "woahyɛ": 5202,
      "july": 5203,
      "ɔkronkronni": 5204,
      "##kwo": 5205,
      "seen": 5206,
      "nyinsɛn": 5207,
      "wowww": 5208,
      "tabi": 5209,
      "alase": 5210,
      "zele": 5211,
      "sraa": 5212,
      "##sons": 5213,
      "kasasua": 5214,
      "otoko": 5215,
      "##ɛfiri": 5216,
      "##hyehye": 5217,
      "ɛdwenle": 5218,
      "sold": 5219,
      "nnka": 5220,
      "atra": 5221,
      "monte": 5222,
      "martin": 5223,
      "muala": 5224,
      "doa": 5225,
      "##zing": 5226,
      "merentumi": 5227,
      "data": 5228,
      "papaa": 5229,
      "app": 5230,
      "ɛzo": 5231,
      "mel": 5232,
      "ɔbɛkɔ": 5233,
      "munnnwinnwen": 5234,
      "##kware": 5235,
      "##ley": 5236,
      "nsɛmmɔne": 5237,
      "britain": 5238,
      "alasevolɛ": 5239,
      "cin": 5240,
      "sore": 5241,
      "nien": 5242,
      "ɔdefo": 5243,
      "##dendɛ": 5244,
      "rock": 5245,
      "seasons": 5246,
      "tran": 5247,
      "bɛkyerɛ": 5248,
      "ɛna": 5249,
      "mɛi": 5250,
      "ɔbɛnya": 5251,
      "tamfo": 5252,
      "sodifo": 5253,
      "ransom": 5254,
      "ntuano": 5255,
      "de3": 5256,
      "##yane": 5257,
      "yoh": 5258,
      "##ntompo": 5259,
      "pretty": 5260,
      "nsɛe": 5261,
      "woke": 5262,
      "##end": 5263,
      "wobɛma": 5264,
      "onesie": 5265,
      "gyaw": 5266,
      "dza": 5267,
      "ɔtɔ": 5268,
      "gt": 5269,
      "##ies": 5270,
      "##kyekyere": 5271,
      "##gal": 5272,
      "brazi": 5273,
      "wro": 5274,
      "del": 5275,
      "siane": 5276,
      "danger": 5277,
      "bank": 5278,
      "ɔbɔadeɛ": 5279,
      "ɔkɛse": 5280,
      "porno": 5281,
      "##zuzulɛ": 5282,
      "ɔhe": 5283,
      "wɔnni": 5284,
      "##vel": 5285,
      "anyinam": 5286,
      "ɔtorofo": 5287,
      "ahobammɔ": 5288,
      "otu": 5289,
      "ɔmpɛ": 5290,
      "pos": 5291,
      "mfimfi": 5292,
      "rose": 5293,
      "mission": 5294,
      "write": 5295,
      "bɛwo": 5296,
      "##woa": 5297,
      "##huna": 5298,
      "nantwi": 5299,
      "nwosu": 5300,
      "##ried": 5301,
      "##ball": 5302,
      "ɛbahulo": 5303,
      "nsem": 5304,
      "move": 5305,
      "sale": 5306,
      "nkoto": 5307,
      "future": 5308,
      "christi": 5309,
      "everyone": 5310,
      "efiri": 5311,
      "mpaebo": 5312,
      "anantwi": 5313,
      "kɔkɔbɔ": 5314,
      "menn": 5315,
      "mennim": 5316,
      "abosonsom": 5317,
      "amaneɛ": 5318,
      "wamma": 5319,
      "onyanko": 5320,
      "wɔtete": 5321,
      "mesia": 5322,
      "odwen": 5323,
      "nzuzulɛ": 5324,
      "ass": 5325,
      "mɛtena": 5326,
      "nkabom": 5327,
      "dɔkota": 5328,
      "adalɛ": 5329,
      "hyew": 5330,
      "ahohiahia": 5331,
      "##med": 5332,
      "##zed": 5333,
      "sorrow": 5334,
      "tinting": 5335,
      "##yar": 5336,
      "haha": 5337,
      "ɛzoan": 5338,
      "munafo": 5339,
      "##lead": 5340,
      "atete": 5341,
      "ɛwo": 5342,
      "nnianim": 5343,
      "ntaban": 5344,
      "just": 5345,
      "emomu": 5346,
      "makoma": 5347,
      "ahoi": 5348,
      "anammɔn": 5349,
      "filistifoɔ": 5350,
      "b1": 5351,
      "filipifo": 5352,
      "##kpondɛ": 5353,
      "wɔkyeree": 5354,
      "##nnennen": 5355,
      "nsɛnnennen": 5356,
      "woreyɛ": 5357,
      "nsonsono": 5358,
      "##kode": 5359,
      "bɛtɔ": 5360,
      "wann": 5361,
      "wɔawuwu": 5362,
      "ɔsomfoɔ": 5363,
      "ɛdan": 5364,
      "wuhuu": 5365,
      "menu": 5366,
      "krado": 5367,
      "ɔkorow": 5368,
      "white": 5369,
      "nhom": 5370,
      "def": 5371,
      "aki": 5372,
      "hese": 5373,
      "##urum": 5374,
      "manle": 5375,
      "3d": 5376,
      "octo": 5377,
      "wobɔɔ": 5378,
      "begu": 5379,
      "maan": 5380,
      "antique": 5381,
      "wlo": 5382,
      "##jhe": 5383,
      "mebɛ": 5384,
      "anyo": 5385,
      "nienwu": 5386,
      "soft": 5387,
      "krata": 5388,
      "onyansafo": 5389,
      "sweetie": 5390,
      "wua": 5391,
      "##ise": 5392,
      "##ade": 5393,
      "biaa": 5394,
      "##dwolɛ": 5395,
      "rap": 5396,
      "wɔanhu": 5397,
      "nyɛn": 5398,
      "ɛzukoalɛ": 5399,
      "babaa": 5400,
      "yɛadi": 5401,
      "hyiaa": 5402,
      "click": 5403,
      "australia": 5404,
      "400": 5405,
      "betwe": 5406,
      "wabɔ": 5407,
      "mɛle": 5408,
      "price": 5409,
      "catwoman": 5410,
      "papaapa": 5411,
      "adze": 5412,
      "##turo": 5413,
      "listen": 5414,
      "asiesie": 5415,
      "simeon": 5416,
      "nun": 5417,
      "yɛnn": 5418,
      "israelhene": 5419,
      "mfimfini": 5420,
      "er": 5421,
      "ɔvi": 5422,
      "woko": 5423,
      "pae": 5424,
      "kwasida": 5425,
      "foa": 5426,
      "hd": 5427,
      "stupi": 5428,
      "##con": 5429,
      "anhwɛ": 5430,
      "sele": 5431,
      "ampo": 5432,
      "nnanu": 5433,
      "eni": 5434,
      "##soɔ": 5435,
      "ɔbɛbɔ": 5436,
      "##vinli": 5437,
      "renee": 5438,
      "wose": 5439,
      "aneɛ": 5440,
      "##biara": 5441,
      "onhu": 5442,
      "wɔreka": 5443,
      "nhyiamu": 5444,
      "mmmmmmmmmmmmmmm": 5445,
      "kpanyin": 5446,
      "wobeyi": 5447,
      "ohiani": 5448,
      "jenni": 5449,
      "kpanyinli": 5450,
      "wɔtow": 5451,
      "##rani": 5452,
      "anigyesɛm": 5453,
      "yebedi": 5454,
      "##fom": 5455,
      "##ɛmba": 5456,
      "ahenle": 5457,
      "wani": 5458,
      "nneka": 5459,
      "aduro": 5460,
      "ɔbisaa": 5461,
      "wosua": 5462,
      "asaman": 5463,
      "mofrɛ": 5464,
      "misuaa": 5465,
      "##rɔmfo": 5466,
      "robert": 5467,
      "##ned": 5468,
      "##tures": 5469,
      "w7q": 5470,
      "annya": 5471,
      "##mere": 5472,
      "tokyo": 5473,
      "##perna": 5474,
      "sia": 5475,
      "ɔsaa": 5476,
      "##gɔ": 5477,
      "woe": 5478,
      "bɛkyɛ": 5479,
      "##sian": 5480,
      "##sini": 5481,
      "monnn": 5482,
      "ahantan": 5483,
      "attention": 5484,
      "horny": 5485,
      "##kpɔ": 5486,
      "bir": 5487,
      "said": 5488,
      "atew": 5489,
      "woso": 5490,
      "hea": 5491,
      "lɔ": 5492,
      "nloa": 5493,
      "mosom": 5494,
      "kore": 5495,
      "has": 5496,
      "ari": 5497,
      "myin": 5498,
      "kaperna": 5499,
      "wae": 5500,
      "agyapadeɛ": 5501,
      "kapernaum": 5502,
      "ɔti": 5503,
      "ɔteɛ": 5504,
      "##korabea": 5505,
      "november": 5506,
      "russell": 5507,
      "nhow": 5508,
      "##mee": 5509,
      "ayarefo": 5510,
      "tse": 5511,
      "mehuu": 5512,
      "##yianle": 5513,
      "mori": 5514,
      "diction": 5515,
      "rɛle": 5516,
      "ewuradze": 5517,
      "tho": 5518,
      "##esiane": 5519,
      "asikre": 5520,
      "beer": 5521,
      "wrote": 5522,
      "##hwɛɛ": 5523,
      "nkogu": 5524,
      "muse": 5525,
      "ahyɛn": 5526,
      "question": 5527,
      "##kran": 5528,
      "##sun": 5529,
      "else": 5530,
      "ngakula": 5531,
      "plu": 5532,
      "basaa": 5533,
      "tiee": 5534,
      "titili": 5535,
      "##tem": 5536,
      "remfi": 5537,
      "sure": 5538,
      "sukoa": 5539,
      "october": 5540,
      "ammu": 5541,
      "neare": 5542,
      "susan": 5543,
      "leban": 5544,
      "##wadeɛ": 5545,
      "mako": 5546,
      "mil": 5547,
      "three": 5548,
      "anyelielɛ": 5549,
      "ndɛne": 5550,
      "ɛya": 5551,
      "mexi": 5552,
      "agɔnwo": 5553,
      "##bono": 5554,
      "devidi": 5555,
      "anyone": 5556,
      "ɛko": 5557,
      "##15": 5558,
      "noo": 5559,
      "mahyɛ": 5560,
      "nkontompo": 5561,
      "##hyiam": 5562,
      "yonatan": 5563,
      "##pg": 5564,
      "kolaa": 5565,
      "##bobɔ": 5566,
      "blon": 5567,
      "ɔwo": 5568,
      "##mmum": 5569,
      "##kout": 5570,
      "mante": 5571,
      "paapa": 5572,
      "kyeree": 5573,
      "nnompe": 5574,
      "##rn": 5575,
      "nelson": 5576,
      "akuraa": 5577,
      "wantie": 5578,
      "jose": 5579,
      "##mmmmmmmmmmmm": 5580,
      "##hool": 5581,
      "kilehile": 5582,
      "aduɔson": 5583,
      "##kw": 5584,
      "##bri": 5585,
      "comple": 5586,
      "awɛmfo": 5587,
      "ankra": 5588,
      "falo": 5589,
      "##dolɛ": 5590,
      "mfasoɔ": 5591,
      "stupid": 5592,
      "nae": 5593,
      "##bari": 5594,
      "##fat": 5595,
      "bebre": 5596,
      "beef": 5597,
      "hwehwɛɛ": 5598,
      "##lɛm": 5599,
      "wuwui": 5600,
      "borrow": 5601,
      "nkon": 5602,
      "tube": 5603,
      "miles": 5604,
      "mɛbɔ": 5605,
      "yɛatumi": 5606,
      "lebanon": 5607,
      "ef": 5608,
      "mbe": 5609,
      "##kob": 5610,
      "tutu": 5611,
      "##dɛla": 5612,
      "dabiara": 5613,
      "samariafo": 5614,
      "##18": 5615,
      "anyi": 5616,
      "montie": 5617,
      "##kyire": 5618,
      "waba": 5619,
      "ɛbɛbɔ": 5620,
      "start": 5621,
      "efesofo": 5622,
      "##yɛle": 5623,
      "pain": 5624,
      "find": 5625,
      "ɛlɔlɛ": 5626,
      "moi": 5627,
      "##kosi": 5628,
      "yean": 5629,
      "asefoɔ": 5630,
      "mask": 5631,
      "afura": 5632,
      "elisabet": 5633,
      "efraim": 5634,
      "nkosi": 5635,
      "##teetee": 5636,
      "kyɛe": 5637,
      "nketen": 5638,
      "kane": 5639,
      "bɛsɔ": 5640,
      "##1987": 5641,
      "makyerɛw": 5642,
      "akin": 5643,
      "monhwehwɛ": 5644,
      "fom": 5645,
      "bɛkae": 5646,
      "mayi": 5647,
      "awuwu": 5648,
      "192": 5649,
      "bless": 5650,
      "wogu": 5651,
      "morentumi": 5652,
      "mawie": 5653,
      "nniso": 5654,
      "amazing": 5655,
      "wonyaa": 5656,
      "kim": 5657,
      "kill": 5658,
      "nwanwane": 5659,
      "ahonyade": 5660,
      "miri": 5661,
      "hagar": 5662,
      "ɛtete": 5663,
      "kraa": 5664,
      "wɔayi": 5665,
      "ɛdawɔ": 5666,
      "dɔɔ": 5667,
      "mein": 5668,
      "moon": 5669,
      "mokyekye": 5670,
      "mase": 5671,
      "hem": 5672,
      "adwin": 5673,
      "asomd": 5674,
      "main": 5675,
      "eyeem": 5676,
      "##kwaw": 5677,
      "january": 5678,
      "nsan": 5679,
      "ant": 5680,
      "ami": 5681,
      "kese": 5682,
      "star": 5683,
      "dictionary": 5684,
      "mesua": 5685,
      "##wah": 5686,
      "widow": 5687,
      "joel": 5688,
      "aboagye": 5689,
      "other": 5690,
      "ɔkyerɛwee": 5691,
      "##phi": 5692,
      "yɛbɛhyia": 5693,
      "##konam": 5694,
      "mbuluku": 5695,
      "medii": 5696,
      "modi": 5697,
      "kojo": 5698,
      "didii": 5699,
      "ɛtwe": 5700,
      "mumfi": 5701,
      "later": 5702,
      "edward": 5703,
      "##hyehyɛɛ": 5704,
      "east": 5705,
      "rules": 5706,
      "crea": 5707,
      "##bole": 5708,
      "nkata": 5709,
      "amanyɔ": 5710,
      "trɛw": 5711,
      "hora": 5712,
      "##nifo": 5713,
      "afeha": 5714,
      "ɔsomfo": 5715,
      "kasae": 5716,
      "salute": 5717,
      "between": 5718,
      "mokɔ": 5719,
      "feli": 5720,
      "##wontofo": 5721,
      "type": 5722,
      "##gee": 5723,
      "mefa": 5724,
      "wogyaw": 5725,
      "yɛgye": 5726,
      "##sit": 5727,
      "mɔlebɛbo": 5728,
      "mexico": 5729,
      "##rf": 5730,
      "antie": 5731,
      "amankwa": 5732,
      "nearby": 5733,
      "dawn": 5734,
      "ɛke": 5735,
      "##lfo": 5736,
      "betena": 5737,
      "silas": 5738,
      "town": 5739,
      "##ema": 5740,
      "##mmfa": 5741,
      "bɛsan": 5742,
      "night": 5743,
      "##tsena": 5744,
      "dzi": 5745,
      "##bubu": 5746,
      "woama": 5747,
      "asakura": 5748,
      "ngyehyɛ": 5749,
      "emi": 5750,
      "gaa": 5751,
      "##bbe": 5752,
      "##pti": 5753,
      "motee": 5754,
      "nimfo": 5755,
      "fida": 5756,
      "tired": 5757,
      "nnɔbae": 5758,
      "nsonsonoe": 5759,
      "meto": 5760,
      "wɔsɔre": 5761,
      "pere": 5762,
      "mateyu": 5763,
      "tɔgɛ": 5764,
      "##cam": 5765,
      "anzo": 5766,
      "mmarimaa": 5767,
      "suna": 5768,
      "animgua": 5769,
      "##chen": 5770,
      "yeehaw": 5771,
      "story": 5772,
      "adɔɔso": 5773,
      "mason": 5774,
      "##risto": 5775,
      "luke": 5776,
      "coupon": 5777,
      "yɛanyia": 5778,
      "avinli": 5779,
      "##zaa": 5780,
      "bɛlɛ": 5781,
      "abosom": 5782,
      "italy": 5783,
      "wednes": 5784,
      "kwo": 5785,
      "lyin": 5786,
      "mpɔn": 5787,
      "pm": 5788,
      "mmon": 5789,
      "##lim": 5790,
      "yudani": 5791,
      "basabasayɛ": 5792,
      "okye": 5793,
      "memaa": 5794,
      "yewu": 5795,
      "##say": 5796,
      "awufoɔ": 5797,
      "##pong": 5798,
      "fra": 5799,
      "##shuu": 5800,
      "remma": 5801,
      "google": 5802,
      "kilisiene": 5803,
      "ese": 5804,
      "##nam": 5805,
      "##fta": 5806,
      "##mar": 5807,
      "luca": 5808,
      "##ai": 5809,
      "mumu": 5810,
      "edom": 5811,
      "hontou": 5812,
      "amanne": 5813,
      "danee": 5814,
      "yɛkae": 5815,
      "motra": 5816,
      "yero": 5817,
      "wowwww": 5818,
      "bridge": 5819,
      "meadow": 5820,
      "nrenyia": 5821,
      "##site": 5822,
      "nnedi": 5823,
      "mɛto": 5824,
      "nkwadaa": 5825,
      "nufu": 5826,
      "weapons": 5827,
      "rebeka": 5828,
      "dum": 5829,
      "tam": 5830,
      "wɔama": 5831,
      "enjoy": 5832,
      "wednesday": 5833,
      "##hou": 5834,
      "worentumi": 5835,
      "micha": 5836,
      "exci": 5837,
      "opre": 5838,
      "ebook": 5839,
      "kno": 5840,
      "##ls": 5841,
      "nkamfo": 5842,
      "school": 5843,
      "sina": 5844,
      "woɔ": 5845,
      "gilead": 5846,
      "confuse": 5847,
      "twu": 5848,
      "ɛze": 5849,
      "yehuu": 5850,
      "beyi": 5851,
      "honhommɔne": 5852,
      "atiri": 5853,
      "sakaria": 5854,
      "9na": 5855,
      "ɔsen": 5856,
      "watan": 5857,
      "angel": 5858,
      "drew": 5859,
      "tiger": 5860,
      "##tutu": 5861,
      "pɔn": 5862,
      "bɛtɛ": 5863,
      "nsɛmma": 5864,
      "wɔbɛgye": 5865,
      "audio": 5866,
      "##zer": 5867,
      "oso": 5868,
      "nkrante": 5869,
      "ngyi": 5870,
      "##fɛlɛ": 5871,
      "oa": 5872,
      "##lehem": 5873,
      "sell": 5874,
      "wotan": 5875,
      "baho": 5876,
      "bob": 5877,
      "20na": 5878,
      "george": 5879,
      "wɔatwerɛ": 5880,
      "supɔw": 5881,
      "11na": 5882,
      "gayi": 5883,
      "stre": 5884,
      "internet": 5885,
      "apɔwmuden": 5886,
      "aguamansɛm": 5887,
      "yon": 5888,
      "walk": 5889,
      "toom": 5890,
      "enwiki": 5891,
      "honoo": 5892,
      "michael": 5893,
      "##lm": 5894,
      "##ning": 5895,
      "tetee": 5896,
      "mano": 5897,
      "nyɛɛ": 5898,
      "ndz": 5899,
      "##anso": 5900,
      "betel": 5901,
      "mapa": 5902,
      "adwumam": 5903,
      "##gyaee": 5904,
      "##kita": 5905,
      "##nante": 5906,
      "sɔree": 5907,
      "attendee": 5908,
      "korakora": 5909,
      "asikreyare": 5910,
      "nano": 5911,
      "nteaseɛnam": 5912,
      "nketenkete": 5913,
      "##nnn": 5914,
      "right": 5915,
      "nkwagyeɛ": 5916,
      "ur": 5917,
      "ɔhwehwɛ": 5918,
      "nkɔn": 5919,
      "munhu": 5920,
      "abandon": 5921,
      "fane": 5922,
      "fuu": 5923,
      "##brew": 5924,
      "##ɔde": 5925,
      "ake": 5926,
      "agen": 5927,
      "awoda": 5928,
      "odwan": 5929,
      "wokunkum": 5930,
      "##rase": 5931,
      "ahn": 5932,
      "body": 5933,
      "ɔbɔnefo": 5934,
      "ɛbayɛ": 5935,
      "hindi": 5936,
      "##ston": 5937,
      "12nanso": 5938,
      "kronkronbea": 5939,
      "ampofo": 5940,
      "##pun": 5941,
      "##dwinnwen": 5942,
      "bɛha": 5943,
      "baha": 5944,
      "wɔatwa": 5945,
      "montena": 5946,
      "onyin": 5947,
      "ɔbamaa": 5948,
      "open": 5949,
      "images": 5950,
      "anwumabɔvolɛ": 5951,
      "oprehyɛn": 5952,
      "ndzɛmba": 5953,
      "##zɔ": 5954,
      "anloa": 5955,
      "hota": 5956,
      "##inwii": 5957,
      "##fere": 5958,
      "ahotɔ": 5959,
      "memene": 5960,
      "mekyerɛw": 5961,
      "wokura": 5962,
      "yebesua": 5963,
      "##hilelɛ": 5964,
      "ɔnrɛhyɛ": 5965,
      "ntwe": 5966,
      "##hwa": 5967,
      "moto": 5968,
      "wɔnom": 5969,
      "aboro": 5970,
      "woatumi": 5971,
      "asorɔ": 5972,
      "aalɔn": 5973,
      "mgban": 5974,
      "deɛmɔ": 5975,
      "ɔmantam": 5976,
      "mobɛhunu": 5977,
      "exam": 5978,
      "aduɔkron": 5979,
      "deɛmɔti": 5980,
      "##enfo": 5981,
      "bosea": 5982,
      "##ɛɛfɛ": 5983,
      "exc": 5984,
      "nnyinasosɛm": 5985,
      "yoa": 5986,
      "##gue": 5987,
      "wotwa": 5988,
      "ankonam": 5989,
      "anika": 5990,
      "##yosef": 5991,
      "names": 5992,
      "tenabea": 5993,
      "gar": 5994,
      "kr": 5995,
      "##nema": 5996,
      "wuhia": 5997,
      "ahoma": 5998,
      "woagye": 5999,
      "sɛnkyerɛnne": 6000,
      "char": 6001,
      "##fam": 6002,
      "neho": 6003,
      "wosomaa": 6004,
      "##huru": 6005,
      "menkɔ": 6006,
      "greek": 6007,
      "asorɔkye": 6008,
      "shin": 6009,
      "zile": 6010,
      "anwan": 6011,
      "abro": 6012,
      "menam": 6013,
      "##him": 6014,
      "hyehyɛ": 6015,
      "chur": 6016,
      "ɔwu": 6017,
      "mefi": 6018,
      "##dela": 6019,
      "##ros": 6020,
      "ɔnn": 6021,
      "adap": 6022,
      "fɛye": 6023,
      "wɔkyerɛɛ": 6024,
      "brazil": 6025,
      "##bin": 6026,
      "##hovah": 6027,
      "ebo": 6028,
      "##fan": 6029,
      "month": 6030,
      "io": 6031,
      "okum": 6032,
      "##yewa": 6033,
      "enn": 6034,
      "##manom": 6035,
      "poor": 6036,
      "##nv": 6037,
      "##anuanom": 6038,
      "yɛboa": 6039,
      "adee": 6040,
      "morofo": 6041,
      "kpondɛ": 6042,
      "##bb": 6043,
      "nnebɔne": 6044,
      "ɔbrɛ": 6045,
      "ewim": 6046,
      "##pet": 6047,
      "nnedua": 6048,
      "agoru": 6049,
      "##yuda": 6050,
      "mormon": 6051,
      "myint": 6052,
      "busuani": 6053,
      "yɛakasa": 6054,
      "akron": 6055,
      "##wear": 6056,
      "nige": 6057,
      "mpaboa": 6058,
      "nkwaseafo": 6059,
      "additional": 6060,
      "nla": 6061,
      "##dam": 6062,
      "amgba": 6063,
      "betlehem": 6064,
      "ɔsɔ": 6065,
      "woto": 6066,
      "##meka": 6067,
      "##dawid": 6068,
      "kann": 6069,
      "tui": 6070,
      "filistifo": 6071,
      "gin": 6072,
      "ɛkan": 6073,
      "canna": 6074,
      "mobɛka": 6075,
      "##rics": 6076,
      "ahummɔbɔ": 6077,
      "excited": 6078,
      "yɛkola": 6079,
      "bill": 6080,
      "wɔnte": 6081,
      "##ding": 6082,
      "koduu": 6083,
      "afanan": 6084,
      "yɛbɛhwɛ": 6085,
      "dere": 6086,
      "end": 6087,
      "##lonia": 6088,
      "workout": 6089,
      "dubaa": 6090,
      "baeɛ": 6091,
      "memeneda": 6092,
      "tro": 6093,
      "##poo": 6094,
      "wokyerɛ": 6095,
      "ank": 6096,
      "##biri": 6097,
      "pita": 6098,
      "##ring": 6099,
      "windows": 6100,
      "church": 6101,
      "##iee": 6102,
      "save": 6103,
      "##boka": 6104,
      "wɔamfa": 6105,
      "anso": 6106,
      "adware": 6107,
      "##wenee": 6108,
      "road": 6109,
      "aj": 6110,
      "##gin": 6111,
      "mefo": 6112,
      "sono": 6113,
      "##ɛnyɛ": 6114,
      "##nal": 6115,
      "##ury": 6116,
      "##wentwɛn": 6117,
      "fɛfɛ": 6118,
      "exo": 6119,
      "kono": 6120,
      "dwobu": 6121,
      "##wampaefo": 6122,
      "metenaa": 6123,
      "wotaa": 6124,
      "ahh": 6125,
      "wobɛhu": 6126,
      "##pul": 6127,
      "kenobi": 6128,
      "ɛrenyɛ": 6129,
      "##fɛɛfɛ": 6130,
      "nnidi": 6131,
      "wɔate": 6132,
      "##pira": 6133,
      "meikyuu": 6134,
      "ayɔnko": 6135,
      "quick": 6136,
      "alone": 6137,
      "72": 6138,
      "97": 6139,
      "yebisa": 6140,
      "asere": 6141,
      "nusu": 6142,
      "asuo": 6143,
      "abere": 6144,
      "romano": 6145,
      "nhwi": 6146,
      "dawuru": 6147,
      "mana": 6148,
      "gom": 6149,
      "##hw": 6150,
      "##hwie": 6151,
      "fire": 6152,
      "nton": 6153,
      "afri": 6154,
      "akwaboah": 6155,
      "nkyerɛkyerɛmu": 6156,
      "goa": 6157,
      "##mam": 6158,
      "tera": 6159,
      "obama": 6160,
      "wɔbaanyɛ": 6161,
      "street": 6162,
      "b4": 6163,
      "mesi": 6164,
      "kawa": 6165,
      "anokwa": 6166,
      "8na": 6167,
      "ɛmma": 6168,
      "##lla": 6169,
      "meli": 6170,
      "wall": 6171,
      "ahonim": 6172,
      "abaw": 6173,
      "##cle": 6174,
      "wɔtan": 6175,
      "##nio": 6176,
      "wɔadɛla": 6177,
      "monsom": 6178,
      "##waam": 6179,
      "hito": 6180,
      "nsrahwɛ": 6181,
      "gun": 6182,
      "anwon": 6183,
      "miko": 6184,
      "awful": 6185,
      "afobu": 6186,
      "pata": 6187,
      "1afei": 6188,
      "duruu": 6189,
      "nyo": 6190,
      "##yae": 6191,
      "wontie": 6192,
      "akode": 6193,
      "aduo": 6194,
      "##duro": 6195,
      "answers": 6196,
      "kolosefo": 6197,
      "sow": 6198,
      "##kam": 6199,
      "mamfa": 6200,
      "ɔdii": 6201,
      "##ɛe": 6202,
      "wɔkenkan": 6203,
      "annan": 6204,
      "##yifo": 6205,
      "mix": 6206,
      "##nah": 6207,
      "18na": 6208,
      "gaya": 6209,
      "adoma": 6210,
      "rahel": 6211,
      "6na": 6212,
      "nɛɛ": 6213,
      "anhu": 6214,
      "abia": 6215,
      "mahunu": 6216,
      "##berem": 6217,
      "apataa": 6218,
      "##afo": 6219,
      "yɛyɛɛ": 6220,
      "##fofofofo": 6221,
      "ɔpa": 6222,
      "##dɛn": 6223,
      "woro": 6224,
      "yɛhɔ": 6225,
      "mal": 6226,
      "weak": 6227,
      "##yon": 6228,
      "mena": 6229,
      "##dabi": 6230,
      "##enade": 6231,
      "##nodɔ": 6232,
      "center": 6233,
      "fla": 6234,
      "##kakra": 6235,
      "abua": 6236,
      "##rifo": 6237,
      "baka": 6238,
      "monhyɛ": 6239,
      "kununom": 6240,
      "nware": 6241,
      "##mmua": 6242,
      "##huam": 6243,
      "waree": 6244,
      "fɛfɛɛfɛ": 6245,
      "bedroom": 6246,
      "##dɔɔso": 6247,
      "##tere": 6248,
      "belle": 6249,
      "nkakran": 6250,
      "13na": 6251,
      "ɔfata": 6252,
      "thu": 6253,
      "##dwi": 6254,
      "##tiaa": 6255,
      "akɛn": 6256,
      "asekyerɛ": 6257,
      "awotwe": 6258,
      "kyer": 6259,
      "aberewa": 6260,
      "2003": 6261,
      "##deen": 6262,
      "adwa": 6263,
      "ntaa": 6264,
      "nia": 6265,
      "meni": 6266,
      "##dwoo": 6267,
      "##reak": 6268,
      "3na": 6269,
      "oui": 6270,
      "had": 6271,
      "akuafo": 6272,
      "katolek": 6273,
      "yetie": 6274,
      "ahmed": 6275,
      "monsan": 6276,
      "arrow": 6277,
      "akɛseɛ": 6278,
      "8xg": 6279,
      "lyrics": 6280,
      "annual": 6281,
      "nkakrankakra": 6282,
      "##dwuma": 6283,
      "moment": 6284,
      "akwaba": 6285,
      "kratafa": 6286,
      "yeroboam": 6287,
      "bear": 6288,
      "masi": 6289,
      "defi": 6290,
      "last": 6291,
      "oduu": 6292,
      "zɛhae": 6293,
      "software": 6294,
      "owo": 6295,
      "ue": 6296,
      "##rian": 6297,
      "yafunu": 6298,
      "culture": 6299,
      "jon": 6300,
      "bɛva": 6301,
      "sir": 6302,
      "doc": 6303,
      "nkoko": 6304,
      "wuram": 6305,
      "hyira": 6306,
      "lewifo": 6307,
      "akɛnra": 6308,
      "5na": 6309,
      "nv": 6310,
      "otie": 6311,
      "##ɛndɛ": 6312,
      "sil": 6313,
      "jehovah": 6314,
      "nteɛso": 6315,
      "iro": 6316,
      "##hare": 6317,
      "aber": 6318,
      "akomatɔyam": 6319,
      "girls": 6320,
      "bikes": 6321,
      "nzule": 6322,
      "onye": 6323,
      "##side": 6324,
      "hello": 6325,
      "games": 6326,
      "shia": 6327,
      "yg": 6328,
      "mmammaa": 6329,
      "##hee": 6330,
      "abusuabɔ": 6331,
      "cannabis": 6332,
      "aduosia": 6333,
      "neɛ": 6334,
      "yɛsom": 6335,
      "colle": 6336,
      "rennya": 6337,
      "biakoyɛ": 6338,
      "##puta": 6339,
      "death": 6340,
      "tint": 6341,
      "ɔkɛseɛ": 6342,
      "coast": 6343,
      "ɛserɛ": 6344,
      "jw": 6345,
      "##dae": 6346,
      "wate": 6347,
      "ɔnan": 6348,
      "henry": 6349,
      "av": 6350,
      "pia": 6351,
      "##mg": 6352,
      "##suasua": 6353,
      "duaa": 6354,
      "ɔboda": 6355,
      "everyday": 6356,
      "slee": 6357,
      "wɔgye": 6358,
      "nkwan": 6359,
      "akoda": 6360,
      "mmisa": 6361,
      "miriam": 6362,
      "##pn": 6363,
      "yilae": 6364,
      "koyi": 6365,
      "ahode": 6366,
      "jew": 6367,
      "stef": 6368,
      "tags": 6369,
      "kokoam": 6370,
      "came": 6371,
      "row": 6372,
      "ɔgyinaa": 6373,
      "wɔm": 6374,
      "wɔmmɔ": 6375,
      "follow": 6376,
      "wɔasiesie": 6377,
      "wobekum": 6378,
      "arti": 6379,
      "wɔtɔn": 6380,
      "tuntum": 6381,
      "ɛbikye": 6382,
      "ono": 6383,
      "##kyekyɛ": 6384,
      "fami": 6385,
      "kyen": 6386,
      "##zaya": 6387,
      "akuw": 6388,
      "fre": 6389,
      "mala": 6390,
      "yensusuw": 6391,
      "aboard": 6392,
      "wɔrebɔ": 6393,
      "##pono": 6394,
      "kɛmɔti": 6395,
      "ɛtɛ": 6396,
      "##lii": 6397,
      "##13": 6398,
      "tells": 6399,
      "ɔhɔho": 6400,
      "organi": 6401,
      "##hyerɛn": 6402,
      "farm": 6403,
      "nc": 6404,
      "ɔze": 6405,
      "wosan": 6406,
      "added": 6407,
      "atwi": 6408,
      "luna": 6409,
      "full": 6410,
      "##wwwww": 6411,
      "nkoasom": 6412,
      "pure": 6413,
      "akɛnrasesebɛ": 6414,
      "ɛra": 6415,
      "##ɔbarima": 6416,
      "homes": 6417,
      "##lɛn": 6418,
      "wɔbisaa": 6419,
      "retwɛn": 6420,
      "pete": 6421,
      "nyanee": 6422,
      "pic": 6423,
      "conne": 6424,
      "##hintaw": 6425,
      "300": 6426,
      "##eyinom": 6427,
      "##sky": 6428,
      "woyɛɛ": 6429,
      "##dasu": 6430,
      "wanka": 6431,
      "bui": 6432,
      "kyena": 6433,
      "vidio": 6434,
      "nkyekyɛ": 6435,
      "noah": 6436,
      "brew": 6437,
      "lɛɛ": 6438,
      "pɔɔ": 6439,
      "unu": 6440,
      "##qui": 6441,
      "##sir": 6442,
      "kɔsii": 6443,
      "##mun": 6444,
      "yigyi": 6445,
      "wus": 6446,
      "awuranom": 6447,
      "homebrew": 6448,
      "##twafo": 6449,
      "##bisabisa": 6450,
      "gradua": 6451,
      "yigyibi": 6452,
      "melɛ": 6453,
      "paris": 6454,
      "agyae": 6455,
      "dɛba": 6456,
      "ahonhom": 6457,
      "wubb": 6458,
      "mmfi": 6459,
      "yoru": 6460,
      "ɛbɛto": 6461,
      "wɔantie": 6462,
      "wompɛ": 6463,
      "awwwwww": 6464,
      "##wunlɛ": 6465,
      "okunafo": 6466,
      "iii": 6467,
      "ane": 6468,
      "abba": 6469,
      "adie": 6470,
      "abakan": 6471,
      "##ject": 6472,
      "kɔmputa": 6473,
      "ɔnnɔ": 6474,
      "agyalɛ": 6475,
      "medame": 6476,
      "pur": 6477,
      "nabi": 6478,
      "summer": 6479,
      "mandela": 6480,
      "pɔɔlo": 6481,
      "forum": 6482,
      "sɔnea": 6483,
      "atiefo": 6484,
      "akyerɛwfo": 6485,
      "sɛm": 6486,
      "muntumi": 6487,
      "titiri": 6488,
      "mmmmmmmmmmmmmmmm": 6489,
      "party": 6490,
      "bene": 6491,
      "dwi": 6492,
      "xd": 6493,
      "##pp": 6494,
      "neh": 6495,
      "##enyi": 6496,
      "yesusuw": 6497,
      "ɔnyɛɛ": 6498,
      "##ooo": 6499,
      "renyɛ": 6500,
      "##seni": 6501,
      "##fɛre": 6502,
      "abono": 6503,
      "ayaya": 6504,
      "desi": 6505,
      "nnn": 6506,
      "misusuw": 6507,
      "dance": 6508,
      "kwaku": 6509,
      "brain": 6510,
      "aut": 6511,
      "deep": 6512,
      "boys": 6513,
      "nnommum": 6514,
      "dubaako": 6515,
      "gɔ": 6516,
      "ɛtaa": 6517,
      "##tea": 6518,
      "ennu": 6519,
      "yoon": 6520,
      "##tutuu": 6521,
      "mankɔ": 6522,
      "yester": 6523,
      "##ntɛm": 6524,
      "amumuyɛ": 6525,
      "dwane": 6526,
      "joo": 6527,
      "kwaa": 6528,
      "hohommɔne": 6529,
      "##tohɔ": 6530,
      "enkosi": 6531,
      "wɔafa": 6532,
      "##dus": 6533,
      "##ziezie": 6534,
      "otumfoɔ": 6535,
      "800": 6536,
      "##mage": 6537,
      "##gulo": 6538,
      "bɛkasa": 6539,
      "##toto": 6540,
      "nnome": 6541,
      "atamfoɔ": 6542,
      "stop": 6543,
      "amumɔyɛ": 6544,
      "hoahoa": 6545,
      "##pm": 6546,
      "nehem": 6547,
      "##fia": 6548,
      "babilonia": 6549,
      "atuatew": 6550,
      "nationwide": 6551,
      "gary": 6552,
      "osoro": 6553,
      "##fena": 6554,
      "nkyerɛw": 6555,
      "osian": 6556,
      "minutes": 6557,
      "gbɛ": 6558,
      "##tis": 6559,
      "##yakob": 6560,
      "bɛsom": 6561,
      "bai": 6562,
      "buee": 6563,
      "15na": 6564,
      "ɔbɔle": 6565,
      "ntetee": 6566,
      "ekyir": 6567,
      "joseph": 6568,
      "stew": 6569,
      "##ssa": 6570,
      "makes": 6571,
      "sweden": 6572,
      "irene": 6573,
      "yefi": 6574,
      "yehui": 6575,
      "##hosan": 6576,
      "bɛle": 6577,
      "joy": 6578,
      "atorɔ": 6579,
      "akwampaefo": 6580,
      "baseball": 6581,
      "m3": 6582,
      "ɔvale": 6583,
      "ɛboaa": 6584,
      "##mae": 6585,
      "bɛfɛlɛ": 6586,
      "mɛkyerɛw": 6587,
      "nkyerɛwee": 6588,
      "moannya": 6589,
      "adansefoɔ": 6590,
      "owari": 6591,
      "sɔfo": 6592,
      "ɔmo": 6593,
      "##22": 6594,
      "mekasa": 6595,
      "abou": 6596,
      "abusuafoɔ": 6597,
      "mediema": 6598,
      "today": 6599,
      "moreyɛ": 6600,
      "baanum": 6601,
      "akyekye": 6602,
      "wɔbɛyɛɛ": 6603,
      "ɛkɔm": 6604,
      "complete": 6605,
      "wubbzy": 6606,
      "meko": 6607,
      "tuo": 6608,
      "ndɛndɛ": 6609,
      "marie": 6610,
      "ohemaa": 6611,
      "sofo": 6612,
      "##kaw": 6613,
      "nt7": 6614,
      "daadaa": 6615,
      "wɔantumi": 6616,
      "kokoram": 6617,
      "yɛdayɛ": 6618,
      "awerɛhoɔ": 6619,
      "ayeforohyia": 6620,
      "ena": 6621,
      "monk": 6622,
      "##dor": 6623,
      "morehwehwɛ": 6624,
      "nhumu": 6625,
      "ammo": 6626,
      "excuse": 6627,
      "79": 6628,
      "glo": 6629,
      "jpg": 6630,
      "nwunle": 6631,
      "wm": 6632,
      "ɔrebe": 6633,
      "wɔrebe": 6634,
      "ɔnim": 6635,
      "##ofi": 6636,
      "##fin": 6637,
      "##mede": 6638,
      "##pɛne": 6639,
      "##boni": 6640,
      "tak": 6641,
      "wobɛhwɛ": 6642,
      "rennante": 6643,
      "nguankuw": 6644,
      "adwempa": 6645,
      "bebrebe": 6646,
      "sinai": 6647,
      "84": 6648,
      "spo": 6649,
      "##mfoɔ": 6650,
      "memo": 6651,
      "##yinii": 6652,
      "des": 6653,
      "kat": 6654,
      "##wano": 6655,
      "apaa": 6656,
      "akɔyɛ": 6657,
      "##nhyira": 6658,
      "okora": 6659,
      "lɔɔ": 6660,
      "##leham": 6661,
      "wɔnka": 6662,
      "midwen": 6663,
      "ebileham": 6664,
      "ɛbɛsi": 6665,
      "akwahosan": 6666,
      "times": 6667,
      "afɔdeɛ": 6668,
      "amonom": 6669,
      "yigyibiti": 6670,
      "##israel": 6671,
      "##fy": 6672,
      "sesae": 6673,
      "nnii": 6674,
      "mpe": 6675,
      "botan": 6676,
      "haran": 6677,
      "kɛseyɛ": 6678,
      "asuade": 6679,
      "##cation": 6680,
      "bewa": 6681,
      "ntɛn": 6682,
      "they": 6683,
      "renni": 6684,
      "befikre": 6685,
      "nearer": 6686,
      "ip": 6687,
      "una": 6688,
      "ɔpo": 6689,
      "aguan": 6690,
      "waan": 6691,
      "wayera": 6692,
      "enya": 6693,
      "menwu": 6694,
      "##kifo": 6695,
      "tumfoɔ": 6696,
      "kumfɔ": 6697,
      "number": 6698,
      "pie": 6699,
      "wɛn": 6700,
      "##zee": 6701,
      "##lew": 6702,
      "dapɛne": 6703,
      "latin": 6704,
      "##rlin": 6705,
      "bou": 6706,
      "medo": 6707,
      "edzi": 6708,
      "##fura": 6709,
      "dɔne": 6710,
      "##shii": 6711,
      "61": 6712,
      "sma": 6713,
      "##ends": 6714,
      "##kafoɔ": 6715,
      "borɔ": 6716,
      "onipadua": 6717,
      "nkɔyɛ": 6718,
      "okun": 6719,
      "lies": 6720,
      "stephen": 6721,
      "nigeria": 6722,
      "dwoo": 6723,
      "##dwiriw": 6724,
      "hohoro": 6725,
      "##teaa": 6726,
      "bɛkulo": 6727,
      "##wɔde": 6728,
      "boku": 6729,
      "##vonin": 6730,
      "atitiriw": 6731,
      "asɔneyɛlɛ": 6732,
      "drama": 6733,
      "torobɛnto": 6734,
      "nehemia": 6735,
      "##voninli": 6736,
      "action": 6737,
      "nolo": 6738,
      "##melek": 6739,
      "ahaa": 6740,
      "mɛsoma": 6741,
      "russ": 6742,
      "95": 6743,
      "wosii": 6744,
      "miam": 6745,
      "ponogra": 6746,
      "kwok": 6747,
      "ponografi": 6748,
      "meye": 6749,
      "##life": 6750,
      "kɔtoo": 6751,
      "efii": 6752,
      "mobɛte": 6753,
      "ester": 6754,
      "ohoni": 6755,
      "wop": 6756,
      "##mmedi": 6757,
      "ayayade": 6758,
      "nhaw": 6759,
      "ɔpɔnkɔ": 6760,
      "##wn": 6761,
      "must": 6762,
      "##fufu": 6763,
      "yusu": 6764,
      "##mise": 6765,
      "mmɔho": 6766,
      "wubebisa": 6767,
      "ɔyerenom": 6768,
      "oil": 6769,
      "bete": 6770,
      "nkɛn": 6771,
      "wabi": 6772,
      "woww": 6773,
      "side": 6774,
      "wonn": 6775,
      "nkɔsi": 6776,
      "rufo": 6777,
      "ih": 6778,
      "sohwɛfo": 6779,
      "##uafo": 6780,
      "##lahoma": 6781,
      "lady": 6782,
      "##tania": 6783,
      "pipul": 6784,
      "ntɛmntɛm": 6785,
      "wɔrenhu": 6786,
      "##dum": 6787,
      "natan": 6788,
      "holy": 6789,
      "##deon": 6790,
      "pala": 6791,
      "dofo": 6792,
      "homework": 6793,
      "##hanlɛ": 6794,
      "books": 6795,
      "kua": 6796,
      "ɔtwe": 6797,
      "ansi": 6798,
      "kari": 6799,
      "asomu": 6800,
      "2001": 6801,
      "webcam": 6802,
      "mmonnaa": 6803,
      "ɔntumi": 6804,
      "awsome": 6805,
      "manhu": 6806,
      "adwenade": 6807,
      "nyamekye": 6808,
      "##benyan": 6809,
      "ntoaso": 6810,
      "##ons": 6811,
      "##mei": 6812,
      "kola": 6813,
      "##kyelɛ": 6814,
      "hama": 6815,
      "awkwa": 6816,
      "##dwoa": 6817,
      "ise": 6818,
      "kni": 6819,
      "##17": 6820,
      "muni": 6821,
      "fafiri": 6822,
      "hei": 6823,
      "rale": 6824,
      "ntow": 6825,
      "esther": 6826,
      "##imfo": 6827,
      "##twaa": 6828,
      "resu": 6829,
      "##sonle": 6830,
      "abɛtena": 6831,
      "website": 6832,
      "england": 6833,
      "shiawase": 6834,
      "##teɛm": 6835,
      "adebɔ": 6836,
      "manyɛ": 6837,
      "wɔanyia": 6838,
      "adore": 6839,
      "ngyehyɛleɛ": 6840,
      "mk": 6841,
      "yɛkyerɛ": 6842,
      "biki": 6843,
      "mus": 6844,
      "##risi": 6845,
      "##tani": 6846,
      "moremfa": 6847,
      "wt": 6848,
      "meat": 6849,
      "abura": 6850,
      "abusu": 6851,
      "##lands": 6852,
      "ndenle": 6853,
      "national": 6854,
      "really": 6855,
      "tar": 6856,
      "afew": 6857,
      "merebɛyɛ": 6858,
      "boas": 6859,
      "kele": 6860,
      "##sense": 6861,
      "ɔkorɔmfo": 6862,
      "sigam": 6863,
      "tesalonikafo": 6864,
      "1awurade": 6865,
      "hyerɛn": 6866,
      "yum": 6867,
      "##rko": 6868,
      "hos": 6869,
      "gets": 6870,
      "ɔbɛfa": 6871,
      "ooh": 6872,
      "nyansahyɛ": 6873,
      "mfoni": 6874,
      "mamo": 6875,
      "morenhu": 6876,
      "ɛvo": 6877,
      "##tom": 6878,
      "biom": 6879,
      "deute": 6880,
      "mɛfa": 6881,
      "deuteron": 6882,
      "res": 6883,
      "ahohommɔne": 6884,
      "ntra": 6885,
      "##gas": 6886,
      "bobesa": 6887,
      "musume": 6888,
      "##gn": 6889,
      "##dees": 6890,
      "edwɛn": 6891,
      "nut": 6892,
      "luku": 6893,
      "##wunmi": 6894,
      "ax": 6895,
      "imɔ": 6896,
      "adin": 6897,
      "##sah": 6898,
      "ahom": 6899,
      "asobase": 6900,
      "ɔbɛbrɛ": 6901,
      "oklahoma": 6902,
      "nhunu": 6903,
      "wha": 6904,
      "##bs": 6905,
      "meg": 6906,
      "mmma": 6907,
      "wakɔ": 6908,
      "ɔbɛhwɛ": 6909,
      "karte": 6910,
      "ɛkame": 6911,
      "nsesa": 6912,
      "kyou": 6913,
      "antonio": 6914,
      "okorafor": 6915,
      "ɛsiane": 6916,
      "##koko": 6917,
      "mare": 6918,
      "##fit": 6919,
      "dude": 6920,
      "ɔkyerɛkyerɛfoɔ": 6921,
      "kpuyia": 6922,
      "pyare": 6923,
      "ɛbu": 6924,
      "wusiw": 6925,
      "goes": 6926,
      "2002": 6927,
      "krist": 6928,
      "sk": 6929,
      "ɔtena": 6930,
      "ɔhen": 6931,
      "##tur": 6932,
      "##ante": 6933,
      "fore": 6934,
      "islam": 6935,
      "eti": 6936,
      "gyan": 6937,
      "hmmmm": 6938,
      "yɛamaa": 6939,
      "onto": 6940,
      "##wei": 6941,
      "ahoso": 6942,
      "##hema": 6943,
      "kɔyɛ": 6944,
      "rich": 6945,
      "mgbanyi": 6946,
      "63": 6947,
      "##ora": 6948,
      "abɛɛ": 6949,
      "##nefoɔ": 6950,
      "obebu": 6951,
      "##amanfo": 6952,
      "nyɛnyɛn": 6953,
      "a5": 6954,
      "ahotefo": 6955,
      "ɔbɛsan": 6956,
      "exodus": 6957,
      "wɔasan": 6958,
      "##cks": 6959,
      "ɔbɛkyerɛ": 6960,
      "likes": 6961,
      "yesterday": 6962,
      "uta": 6963,
      "##fre": 6964,
      "yɛmmɔ": 6965,
      "akofena": 6966,
      "ntoto": 6967,
      "brian": 6968,
      "brook": 6969,
      "ɛkpɔ": 6970,
      "nephi": 6971,
      "yehyia": 6972,
      "daeɛ": 6973,
      "##und": 6974,
      "##key": 6975,
      "##dɔma": 6976,
      "##gare": 6977,
      "ngodua": 6978,
      "ɛdɔɔso": 6979,
      "monkamfo": 6980,
      "oguanhwɛfo": 6981,
      "watashi": 6982,
      "##self": 6983,
      "beye": 6984,
      "bɛli": 6985,
      "##bal": 6986,
      "nnw": 6987,
      "anima": 6988,
      "limi": 6989,
      "bɛnze": 6990,
      "ɔbahola": 6991,
      "##rtment": 6992,
      "korinto": 6993,
      "blonde": 6994,
      "98": 6995,
      "denam": 6996,
      "gold": 6997,
      "amankwaa": 6998,
      "wɔteɛ": 6999,
      "baasakoro": 7000,
      "##omium": 7001,
      "wj": 7002,
      "weinom": 7003,
      "##uran": 7004,
      "##lolɛ": 7005,
      "##botum": 7006,
      "tito": 7007,
      "nyɛleɛ": 7008,
      "anidasoɔ": 7009,
      "amankwah": 7010,
      "ayɔnkofa": 7011,
      "kyin": 7012,
      "xxx": 7013,
      "##qu": 7014,
      "hou": 7015,
      "mow": 7016,
      "adefo": 7017,
      "buro": 7018,
      "##mɛi": 7019,
      "##momma": 7020,
      "mrenyia": 7021,
      "anzodwolɛ": 7022,
      "bodane": 7023,
      "awaa": 7024,
      "pyar": 7025,
      "memma": 7026,
      "wɔdii": 7027,
      "batumi": 7028,
      "korea": 7029,
      "doom": 7030,
      "moalɛ": 7031,
      "food": 7032,
      "dwɔ": 7033,
      "kyo": 7034,
      "ɔho": 7035,
      "mefrɛ": 7036,
      "##tei": 7037,
      "nibii": 7038,
      "akwadaa": 7039,
      "ewudwazo": 7040,
      "player": 7041,
      "borɔdɔma": 7042,
      "ɔdaadaa": 7043,
      "##amra": 7044,
      "##lio": 7045,
      "##wiinwii": 7046,
      "ayo": 7047,
      "##cho": 7048,
      "berlin": 7049,
      "der": 7050,
      "agree": 7051,
      "sasa": 7052,
      "wɔatena": 7053,
      "##cky": 7054,
      "port": 7055,
      "yui": 7056,
      "yɛaba": 7057,
      "cars": 7058,
      "btw": 7059,
      "vin": 7060,
      "##lene": 7061,
      "wɔhwehwɛ": 7062,
      "anhui": 7063,
      "##sede": 7064,
      "##das": 7065,
      "asau": 7066,
      "anyanwu": 7067,
      "##tidua": 7068,
      "seo": 7069,
      "yɛnya": 7070,
      "sammy": 7071,
      "##lun": 7072,
      "nenan": 7073,
      "##riani": 7074,
      "tiny": 7075,
      "shop": 7076,
      "##obiara": 7077,
      "aun": 7078,
      "mv": 7079,
      "ɛli": 7080,
      "##ɛnsɛ": 7081,
      "wal": 7082,
      "kyerɛwtohɔ": 7083,
      "bɔɔl": 7084,
      "abɛka": 7085,
      "osuahu": 7086,
      "##safat": 7087,
      "##rus": 7088,
      "wienyi": 7089,
      "zolɛ": 7090,
      "june": 7091,
      "franse": 7092,
      "pɔw": 7093,
      "singles": 7094,
      "agyaadwo": 7095,
      "trans": 7096,
      "lɔɔto": 7097,
      "repo": 7098,
      "abode": 7099,
      "wobɛsan": 7100,
      "como": 7101,
      "osukɔm": 7102,
      "afotusɛm": 7103,
      "brand": 7104,
      "would": 7105,
      "laura": 7106,
      "fr": 7107,
      "##16": 7108,
      "noho": 7109,
      "mutie": 7110,
      "##korɔ": 7111,
      "##sɛlɛ": 7112,
      "folɛ": 7113,
      "wɔannye": 7114,
      "nenanom": 7115,
      "wɔɔ": 7116,
      "##hwɛfoɔ": 7117,
      "mmepɔ": 7118,
      "tintim": 7119,
      "attendees": 7120,
      "tony": 7121,
      "ntomadan": 7122,
      "amanyɔsɛm": 7123,
      "deuteronomium": 7124,
      "obuaa": 7125,
      "wy": 7126,
      "##isa": 7127,
      "##twu": 7128,
      "##30": 7129,
      "ɛnkyerɛ": 7130,
      "does": 7131,
      "ntɛ": 7132,
      "nsɛmfua": 7133,
      "adwenn": 7134,
      "wood": 7135,
      "esua": 7136,
      "wusɔre": 7137,
      "nnera": 7138,
      "kita": 7139,
      "awareɛ": 7140,
      "ɔdwu": 7141,
      "ɛhwee": 7142,
      "usage": 7143,
      "bikini": 7144,
      "nhuu": 7145,
      "##nna": 7146,
      "yɛwu": 7147,
      "sem": 7148,
      "mmfa": 7149,
      "liye": 7150,
      "sorosoro": 7151,
      "##ship": 7152,
      "##petro": 7153,
      "nl": 7154,
      "##yit": 7155,
      "##yiye": 7156,
      "##bio": 7157,
      "bulu": 7158,
      "femme": 7159,
      "lone": 7160,
      "cor": 7161,
      "abea": 7162,
      "nhyɛso": 7163,
      "ɔmmɛ": 7164,
      "woaa": 7165,
      "behia": 7166,
      "wonho": 7167,
      "raha": 7168,
      "awake": 7169,
      "aids": 7170,
      "ɔhemmaa": 7171,
      "67": 7172,
      "hy": 7173,
      "suu": 7174,
      "##blo": 7175,
      "##pren": 7176,
      "akanea": 7177,
      "kyerɛe": 7178,
      "awudi": 7179,
      "worried": 7180,
      "mpanin": 7181,
      "gɛt": 7182,
      "annoying": 7183,
      "margaret": 7184,
      "risk": 7185,
      "ɔrennya": 7186,
      "obses": 7187,
      "obaapa": 7188,
      "mgbanyima": 7189,
      "ede": 7190,
      "mubisa": 7191,
      "damas": 7192,
      "yoga": 7193,
      "##hwele": 7194,
      "level": 7195,
      "##cal": 7196,
      "nokwar": 7197,
      "ngape": 7198,
      "yeriko": 7199,
      "plus": 7200,
      "##kh": 7201,
      "wɔsomaa": 7202,
      "sikani": 7203,
      "loves": 7204,
      "tɛla": 7205,
      "ahyiae": 7206,
      "adwenemhaw": 7207,
      "aseresɛm": 7208,
      "nkɛntɛn": 7209,
      "nvoninli": 7210,
      "##anaa": 7211,
      "dew": 7212,
      "yenhu": 7213,
      "nkuranhyɛ": 7214,
      "1999": 7215,
      "##ɛlɛlera": 7216,
      "damasko": 7217,
      "yɛkenkan": 7218,
      "##teur": 7219,
      "nnui": 7220,
      "mprɛ": 7221,
      "dɔnehwele": 7222,
      "blu": 7223,
      "nm": 7224,
      "ɔhem": 7225,
      "metena": 7226,
      "##suu": 7227,
      "##ɛnwunlɛ": 7228,
      "ɛnze": 7229,
      "mitu": 7230,
      "dibea": 7231,
      "kwaw": 7232,
      "wɔanwu": 7233,
      "etwaam": 7234,
      "soap": 7235,
      "ɔhempɔn": 7236,
      "dwenle": 7237,
      "##gles": 7238,
      "wɔfiri": 7239,
      "asam": 7240,
      "yegyina": 7241,
      "wɔnya": 7242,
      "woayi": 7243,
      "affe": 7244,
      "nsuu": 7245,
      "ananafo": 7246,
      "mommrɛ": 7247,
      "##rinfo": 7248,
      "adoro": 7249,
      "omoi": 7250,
      "spi": 7251,
      "yɛtaa": 7252,
      "##delɛ": 7253,
      "sesei": 7254,
      "awkward": 7255,
      "hoho": 7256,
      "ɛnyia": 7257,
      "fashi": 7258,
      "nick": 7259,
      "ɛsɛsɛ": 7260,
      "adwensakra": 7261,
      "print": 7262,
      "##non": 7263,
      "mɛda": 7264,
      "yehosafat": 7265,
      "##blic": 7266,
      "mug": 7267,
      "##koo": 7268,
      "adebi": 7269,
      "manase": 7270,
      "adasamma": 7271,
      "ɔremma": 7272,
      "9awurade": 7273,
      "dna": 7274,
      "ote": 7275,
      "oti": 7276,
      "##time": 7277,
      "amena": 7278,
      "tae": 7279,
      "munguan": 7280,
      "naaso": 7281,
      "mobɛtumi": 7282,
      "wuntumi": 7283,
      "alesama": 7284,
      "akokoaa": 7285,
      "bena": 7286,
      "wotintim": 7287,
      "wɔatumi": 7288,
      "w8cjf": 7289,
      "days": 7290,
      "jennifer": 7291,
      "kwi": 7292,
      "##nwene": 7293,
      "kal": 7294,
      "ter": 7295,
      "sidon": 7296,
      "kyakya": 7297,
      "ahemfi": 7298,
      "akyɛdeɛ": 7299,
      "asomdwee": 7300,
      "ɛmmaa": 7301,
      "##yew": 7302,
      "ɛnkyɛ": 7303,
      "afenaa": 7304,
      "gideon": 7305,
      "bonsam": 7306,
      "philippi": 7307,
      "stefano": 7308,
      "83": 7309,
      "trɛ": 7310,
      "mobɔ": 7311,
      "nkran": 7312,
      "monnodɔ": 7313,
      "wise": 7314,
      "rentwa": 7315,
      "bɛdabɛ": 7316,
      "ski": 7317,
      "ɛwu": 7318,
      "##abra": 7319,
      "##rying": 7320,
      "##tɛnla": 7321,
      "##ras": 7322,
      "magye": 7323,
      "yɛnhyɛ": 7324,
      "ɔbɛgye": 7325,
      "atwerɛ": 7326,
      "teɛɛm": 7327,
      "4na": 7328,
      "osei": 7329,
      "yɔɔ": 7330,
      "ɛware": 7331,
      "##van": 7332,
      "##ɛsɛ": 7333,
      "##dw": 7334,
      "mufi": 7335,
      "mubenya": 7336,
      "betania": 7337,
      "wɔbɛboa": 7338,
      "##mofo": 7339,
      "award": 7340,
      "bitch": 7341,
      "kii": 7342,
      "tina": 7343,
      "meyi": 7344,
      "mohyɛ": 7345,
      "bedii": 7346,
      "##buka": 7347,
      "persia": 7348,
      "wotwaa": 7349,
      "shirt": 7350,
      "otumfo": 7351,
      "mekyerɛɛ": 7352,
      "ɛzukoalɛdeɛ": 7353,
      "wɔbu": 7354,
      "wokenkan": 7355,
      "fae": 7356,
      "resom": 7357,
      "wɔakɔ": 7358,
      "bloo": 7359,
      "treneefo": 7360,
      "teasefo": 7361,
      "mboane": 7362,
      "animguase": 7363,
      "egu": 7364,
      "ɔbɛte": 7365,
      "azon": 7366,
      "##bor": 7367,
      "##tenten": 7368,
      "hikari": 7369,
      "ɔhwɛɛ": 7370,
      "wɔnhwɛ": 7371,
      "wanyɛ": 7372,
      "have": 7373,
      "afum": 7374,
      "commi": 7375,
      "asɛmpatrɛw": 7376,
      "wɔkɔe": 7377,
      "##rican": 7378,
      "aberanteɛ": 7379,
      "treat": 7380,
      "fly": 7381,
      "##rce": 7382,
      "yɛkulo": 7383,
      "sesaa": 7384,
      "##wede": 7385,
      "kokye": 7386,
      "wule": 7387,
      "misu": 7388,
      "wahyɛ": 7389,
      "boston": 7390,
      "ebisu": 7391,
      "##ples": 7392,
      "wɔrennye": 7393,
      "##genga": 7394,
      "##hwan": 7395,
      "apu": 7396,
      "band": 7397,
      "maybe": 7398,
      "##tɔɔ": 7399,
      "##tine": 7400,
      "ads": 7401,
      "bɛko": 7402,
      "kɔla": 7403,
      "ɔnnom": 7404,
      "akodu": 7405,
      "##zilɛ": 7406,
      "yiyedi": 7407,
      "nyc": 7408,
      "85": 7409,
      "ey": 7410,
      "##mpo": 7411,
      "##onko": 7412,
      "##ɔno": 7413,
      "##wea": 7414,
      "ɛnlie": 7415,
      "nkuru": 7416,
      "comfo": 7417,
      "database": 7418,
      "ammɔ": 7419,
      "##chu": 7420,
      "dole": 7421,
      "edwin": 7422,
      "##voma": 7423,
      "woreka": 7424,
      "##rr": 7425,
      "wɔsɔ": 7426,
      "bebisa": 7427,
      "dui": 7428,
      "galatifo": 7429,
      "mmoroso": 7430,
      "ɛzoanvolɛ": 7431,
      "pd": 7432,
      "whom": 7433,
      "##cou": 7434,
      "##ɛyɛ": 7435,
      "##enko": 7436,
      "yia": 7437,
      "yifo": 7438,
      "pasaa": 7439,
      "ahoa": 7440,
      "kwasea": 7441,
      "renka": 7442,
      "rude": 7443,
      "henaa": 7444,
      "plain": 7445,
      "ɔkyerɛkyerɛɛ": 7446,
      "minyae": 7447,
      "dwn": 7448,
      "adwinnwen": 7449,
      "##daese": 7450,
      "mine": 7451,
      "##mude": 7452,
      "ayamhyehye": 7453,
      "yɛrebɛka": 7454,
      "paladaese": 7455,
      "avi": 7456,
      "tii": 7457,
      "wɔasra": 7458,
      "asaw": 7459,
      "nnanson": 7460,
      "##bizale": 7461,
      "aru": 7462,
      "wɔamma": 7463,
      "onyi": 7464,
      "##sty": 7465,
      "13nanso": 7466,
      "merenyɛ": 7467,
      "mmuada": 7468,
      "atirimɔden": 7469,
      "dro": 7470,
      "hii": 7471,
      "mn": 7472,
      "yun": 7473,
      "##kyɛɛ": 7474,
      "##cie": 7475,
      "wosi": 7476,
      "koran": 7477,
      "##bulu": 7478,
      "coupons": 7479,
      "otuu": 7480,
      "scri": 7481,
      "telefon": 7482,
      "agyirae": 7483,
      "tue": 7484,
      "##rekyi": 7485,
      "konim": 7486,
      "kuo": 7487,
      "dona": 7488,
      "aaye": 7489,
      "wɔannya": 7490,
      "ɛhɔne": 7491,
      "hintidua": 7492,
      "ɔdansefo": 7493,
      "##beam": 7494,
      "gyim": 7495,
      "sand": 7496,
      "renwu": 7497,
      "asubɔ": 7498,
      "##buafo": 7499,
      "brodo": 7500,
      "wunnye": 7501,
      "family": 7502,
      "bru": 7503,
      "paneɛ": 7504,
      "wɔkasa": 7505,
      "beba": 7506,
      "##lai": 7507,
      "##bukyia": 7508,
      "gyegye": 7509,
      "##hyee": 7510,
      "ɔbɛboa": 7511,
      "##kistan": 7512,
      "marry": 7513,
      "weekly": 7514,
      "beware": 7515,
      "wuo": 7516,
      "atosɛm": 7517,
      "asɛmmɔne": 7518,
      "nkaedi": 7519,
      "pinyin": 7520,
      "asiedu": 7521,
      "atumfoɔ": 7522,
      "keleseɛ": 7523,
      "edwɛndolɛ": 7524,
      "ebɛn": 7525,
      "pou": 7526,
      "yɛfrɛɛ": 7527,
      "bei": 7528,
      "atwɛn": 7529,
      "tile": 7530,
      "nnansia": 7531,
      "tank": 7532,
      "runnin": 7533,
      "700": 7534,
      "8ɔ": 7535,
      "##gs": 7536,
      "##ɛda": 7537,
      "onn": 7538,
      "animtiaa": 7539,
      "ngɛlɛlera": 7540,
      "ɛbɛkyerɛ": 7541,
      "tai": 7542,
      "sanaa": 7543,
      "anania": 7544,
      "amaneɛnwunlɛ": 7545,
      "tempo": 7546,
      "wwe": 7547,
      "ɛpɛ": 7548,
      "##zii": 7549,
      "##pia": 7550,
      "sek": 7551,
      "awuraa": 7552,
      "mind": 7553,
      "hebrifoɔ": 7554,
      "nwom": 7555,
      "##gyan": 7556,
      "##ɔka": 7557,
      "yefta": 7558,
      "matumi": 7559,
      "##wofii": 7560,
      "##tar": 7561,
      "siri": 7562,
      "woapaw": 7563,
      "pope": 7564,
      "wins": 7565,
      "bigger": 7566,
      "kɔndua": 7567,
      "stuff": 7568,
      "ema": 7569,
      "ehe": 7570,
      "sogya": 7571,
      "yɛwoo": 7572,
      "mujhe": 7573,
      "##far": 7574,
      "abubu": 7575,
      "board": 7576,
      "asikafo": 7577,
      "akwansra": 7578,
      "charles": 7579,
      "break": 7580,
      "##ulo": 7581,
      "##com": 7582,
      "yɛkɔɔ": 7583,
      "nine": 7584,
      "mp4": 7585,
      "##kumm": 7586,
      "##nokware": 7587,
      "##ather": 7588,
      "hung": 7589,
      "##ansa": 7590,
      "##reba": 7591,
      "mususuw": 7592,
      "##sas": 7593,
      "wuse": 7594,
      "##thy": 7595,
      "ahyɛase": 7596,
      "albert": 7597,
      "afɔrebukyia": 7598,
      "fou": 7599,
      "##kk": 7600,
      "mehyɛɛ": 7601,
      "mau": 7602,
      "##behu": 7603,
      "mizu": 7604,
      "wakasa": 7605,
      "bɛbayɛ": 7606,
      "atesɛm": 7607,
      "compan": 7608,
      "wubegye": 7609,
      "owns": 7610,
      "okununom": 7611,
      "kumi": 7612,
      "penee": 7613,
      "yuan": 7614,
      "wɔboa": 7615,
      "wɔmpɛ": 7616,
      "begyina": 7617,
      "##wua": 7618,
      "##law": 7619,
      "awoɔ": 7620,
      "munsusuw": 7621,
      "ɛreyɛ": 7622,
      "asɔfoɔ": 7623,
      "aansu": 7624,
      "soli": 7625,
      "wɔasɛe": 7626,
      "odwontofo": 7627,
      "cele": 7628,
      "abonne": 7629,
      "aguama": 7630,
      "kwun": 7631,
      "mot": 7632,
      "##wodi": 7633,
      "adedi": 7634,
      "##mose": 7635,
      "sunny": 7636,
      "blues": 7637,
      "mail": 7638,
      "bɛdɔ": 7639,
      "bak": 7640,
      "atrae": 7641,
      "kɔyɛɛ": 7642,
      "asare": 7643,
      "ahyɛaseɛ": 7644,
      "##rial": 7645,
      "wobebisa": 7646,
      "fashion": 7647,
      "asra": 7648,
      "ashi": 7649,
      "hyɛe": 7650,
      "samson": 7651,
      "id": 7652,
      "##zz": 7653,
      "pɛyɛ": 7654,
      "akoto": 7655,
      "jokes": 7656,
      "monnsom": 7657,
      "anomaa": 7658,
      "maggie": 7659,
      "hwa": 7660,
      "whe": 7661,
      "ɔbu": 7662,
      "##ite": 7663,
      "metu": 7664,
      "sekyere": 7665,
      "sukɔm": 7666,
      "area": 7667,
      "abebe": 7668,
      "tente": 7669,
      "ebedi": 7670,
      "annie": 7671,
      "binti": 7672,
      "ahyira": 7673,
      "nufusu": 7674,
      "anwanwadeɛ": 7675,
      "ayia": 7676,
      "##fun": 7677,
      "##sɛnee": 7678,
      "amor": 7679,
      "14na": 7680,
      "cari": 7681,
      "1995": 7682,
      "mpaeɛbɔ": 7683,
      "silent": 7684,
      "1me": 7685,
      "arɛ": 7686,
      "##fred": 7687,
      "##rane": 7688,
      "yɛsan": 7689,
      "##bɛlɛ": 7690,
      "pɛwu": 7691,
      "edwɛkɛhanlɛ": 7692,
      "asiria": 7693,
      "##dɛw": 7694,
      "spee": 7695,
      "wogyinagyina": 7696,
      "ia": 7697,
      "ig": 7698,
      "jim": 7699,
      "wara": 7700,
      "##lish": 7701,
      "##enai": 7702,
      "monnim": 7703,
      "wɔbɛtena": 7704,
      "yɛbɛba": 7705,
      "kyerɛwfo": 7706,
      "##vious": 7707,
      "sarai": 7708,
      "azonvolɛ": 7709,
      "ava": 7710,
      "mraa": 7711,
      "wɔdze": 7712,
      "yɛhyia": 7713,
      "bɛhanle": 7714,
      "refi": 7715,
      "##zine": 7716,
      "gyama": 7717,
      "everything": 7718,
      "ready": 7719,
      "aqua": 7720,
      "mfuw": 7721,
      "nsɔre": 7722,
      "##rem": 7723,
      "##mael": 7724,
      "atuu": 7725,
      "adewu": 7726,
      "##bora": 7727,
      "##bui": 7728,
      "nsɛmmɔnedi": 7729,
      "3awurade": 7730,
      "77": 7731,
      "span": 7732,
      "##ms": 7733,
      "##cee": 7734,
      "kores": 7735,
      "yah": 7736,
      "akwakoraa": 7737,
      "double": 7738,
      "wiadze": 7739,
      "author": 7740,
      "bis": 7741,
      "wana": 7742,
      "box": 7743,
      "abodin": 7744,
      "dendeen": 7745,
      "ɛbɛsan": 7746,
      "wotuu": 7747,
      "ntuanofo": 7748,
      "yilaegya": 7749,
      "mraalɛ": 7750,
      "dendeenden": 7751,
      "meboa": 7752,
      "wɔtew": 7753,
      "wɔnsom": 7754,
      "##salɛm": 7755,
      "mita": 7756,
      "due": 7757,
      "ayew": 7758,
      "gyaee": 7759,
      "##teɛɛm": 7760,
      "isaa": 7761,
      "uchuu": 7762,
      "via": 7763,
      "ɛdendɛ": 7764,
      "##mer": 7765,
      "##lata": 7766,
      "monkenkan": 7767,
      "anigyede": 7768,
      "wɔrebɛ": 7769,
      "atetew": 7770,
      "ninkunu": 7771,
      "adamfofa": 7772,
      "antiok": 7773,
      "##bukad": 7774,
      "ir": 7775,
      "##bian": 7776,
      "bɛdan": 7777,
      "##belɛ": 7778,
      "##ɛmma": 7779,
      "enhia": 7780,
      "akodɔm": 7781,
      "zoom": 7782,
      "okuafo": 7783,
      "alie": 7784,
      "ɔpedu": 7785,
      "##giri": 7786,
      "special": 7787,
      "nwonane": 7788,
      "dwoodwoo": 7789,
      "antiokia": 7790,
      "##of": 7791,
      "##bur": 7792,
      "##bamaa": 7793,
      "meze": 7794,
      "##tire": 7795,
      "remi": 7796,
      "diffe": 7797,
      "wobɛtena": 7798,
      "ɔrewu": 7799,
      "kraman": 7800,
      "nyianle": 7801,
      "##twitwa": 7802,
      "wokurakura": 7803,
      "78": 7804,
      "frɔm": 7805,
      "ɔra": 7806,
      "##gha": 7807,
      "##nwa": 7808,
      "##cted": 7809,
      "wannya": 7810,
      "144": 7811,
      "obeyi": 7812,
      "yɛreyɛ": 7813,
      "gɛsin": 7814,
      "huammɔ": 7815,
      "friends": 7816,
      "effe": 7817,
      "soso": 7818,
      "##tein": 7819,
      "butu": 7820,
      "bɛnwunle": 7821,
      "nkunim": 7822,
      "##tsɔɔ": 7823,
      "aseni": 7824,
      "mualɛ": 7825,
      "##dwemma": 7826,
      "mumua": 7827,
      "yusuf": 7828,
      "jee": 7829,
      "mega": 7830,
      "beat": 7831,
      "dasu": 7832,
      "fase": 7833,
      "asusuw": 7834,
      "wuiɛ": 7835,
      "sikanibere": 7836,
      "mbom": 7837,
      "mune": 7838,
      "##nic": 7839,
      "tes": 7840,
      "dis": 7841,
      "##frate": 7842,
      "sraadi": 7843,
      "anwonyia": 7844,
      "iku": 7845,
      "ɛdie": 7846,
      "ɛsukoa": 7847,
      "ɛpono": 7848,
      "##dad": 7849,
      "mibisaa": 7850,
      "cos": 7851,
      "wɔanwo": 7852,
      "eufrate": 7853,
      "##ghts": 7854,
      "odasefo": 7855,
      "ngyikyi": 7856,
      "philippines": 7857,
      "gel": 7858,
      "kao": 7859,
      "wasure": 7860,
      "mmasulo": 7861,
      "sukyerɛ": 7862,
      "##kea": 7863,
      "##hwer": 7864,
      "ngyinla": 7865,
      "wobɛnya": 7866,
      "obesi": 7867,
      "monnsuro": 7868,
      "indiafo": 7869,
      "ndelebɛbo": 7870,
      "ngyinlazo": 7871,
      "mbɔ": 7872,
      "nohoa": 7873,
      "wowuwu": 7874,
      "##kow": 7875,
      "##amon": 7876,
      "door": 7877,
      "monto": 7878,
      "afasu": 7879,
      "ebehia": 7880,
      "romani": 7881,
      "owifo": 7882,
      "1a": 7883,
      "fm": 7884,
      "wohyia": 7885,
      "wobuu": 7886,
      "##hop": 7887,
      "##fifi": 7888,
      "watumi": 7889,
      "eno": 7890,
      "yennye": 7891,
      "##000": 7892,
      "agoro": 7893,
      "tinhwi": 7894,
      "ɔrenyɛ": 7895,
      "yoab": 7896,
      "76": 7897,
      "act": 7898,
      "bw": 7899,
      "ɛsi": 7900,
      "##gon": 7901,
      "biɛ": 7902,
      "begyinaa": 7903,
      "maso": 7904,
      "##ino": 7905,
      "menrɛ": 7906,
      "nuts": 7907,
      "mmerewa": 7908,
      "telefo": 7909,
      "hɛ": 7910,
      "##pla": 7911,
      "soe": 7912,
      "##enna": 7913,
      "dey": 7914,
      "woaw": 7915,
      "hwɛfo": 7916,
      "awan": 7917,
      "##penee": 7918,
      "wohunu": 7919,
      "##sera": 7920,
      "##kyen": 7921,
      "hibulu": 7922,
      "keka": 7923,
      "ɔmanfoɔ": 7924,
      "phone": 7925,
      "##mmmmmmmmmmmmmmmm": 7926,
      "onimdefo": 7927,
      "aaaa": 7928,
      "cara": 7929,
      "wɔmma": 7930,
      "wɔkyere": 7931,
      "hebi": 7932,
      "hiv": 7933,
      "baanyɛ": 7934,
      "nkyen": 7935,
      "samariani": 7936,
      "upda": 7937,
      "asomafoɔ": 7938,
      "arɛle": 7939,
      "ehyia": 7940,
      "okura": 7941,
      "ɛsii": 7942,
      "##ot": 7943,
      "##pri": 7944,
      "masa": 7945,
      "##wɔka": 7946,
      "wɔakum": 7947,
      "cafe": 7948,
      "century": 7949,
      "gyɛlu": 7950,
      "jun": 7951,
      "ope": 7952,
      "sty": 7953,
      "##dzen": 7954,
      "##rick": 7955,
      "adasefo": 7956,
      "aktie": 7957,
      "mirai": 7958,
      "reto": 7959,
      "sakura": 7960,
      "nkɔanim": 7961,
      "akwantrenee": 7962,
      "asɛndua": 7963,
      "ahwɛfo": 7964,
      "jane": 7965,
      "nsua": 7966,
      "rou": 7967,
      "mebɛyɛ": 7968,
      "moder": 7969,
      "yive": 7970,
      "dark": 7971,
      "##boda": 7972,
      "indi": 7973,
      "china": 7974,
      "store": 7975,
      "abaawa": 7976,
      "company": 7977,
      "7na": 7978,
      "cum": 7979,
      "nwie": 7980,
      "ɔl": 7981,
      "ɔfrɛ": 7982,
      "##krɔn": 7983,
      "sobre": 7984,
      "yɛwaree": 7985,
      "cold": 7986,
      "mommoa": 7987,
      "anɔpatutuu": 7988,
      "abususɛm": 7989,
      "anɔpatutuutu": 7990,
      "obua": 7991,
      "##bye": 7992,
      "head": 7993,
      "adekye": 7994,
      "yao": 7995,
      "adwumayɛfoɔ": 7996,
      "momo": 7997,
      "14o": 7998,
      "prod": 7999,
      "speak": 8000,
      "nkɔnsɔn": 8001,
      "different": 8002,
      "juu": 8003,
      "moe": 8004,
      "bɛsɛe": 8005,
      "mmamu": 8006,
      "rehwehwɛ": 8007,
      "wonhuu": 8008,
      "nkwakoraa": 8009,
      "hono": 8010,
      "whoa": 8011,
      "mmmh": 8012,
      "wolfe": 8013,
      "##kɔnsɔn": 8014,
      "nkeka": 8015,
      "okyi": 8016,
      "adane": 8017,
      "fakye": 8018,
      "sisii": 8019,
      "monnye": 8020,
      "monday": 8021,
      "##kurow": 8022,
      "merekyerɛw": 8023,
      "dow": 8024,
      "tema": 8025,
      "afurum": 8026,
      "afɔle": 8027,
      "human": 8028,
      "##anne": 8029,
      "yɛse": 8030,
      "mammɔ": 8031,
      "teɛɛ": 8032,
      "wɔade": 8033,
      "wɔaboa": 8034,
      "sugar": 8035,
      "adwumawura": 8036,
      "##wome": 8037,
      "150": 8038,
      "ray": 8039,
      "yenyaa": 8040,
      "nnɛyi": 8041,
      "nnyae": 8042,
      "linda": 8043,
      "amumuyɛfoɔ": 8044,
      "##tane": 8045,
      "mesom": 8046,
      "wobenyan": 8047,
      "hote": 8048,
      "reg": 8049,
      "fitii": 8050,
      "daase": 8051,
      "ahosodi": 8052,
      "ntɛtɛ": 8053,
      "gyɛlusalɛm": 8054,
      "van": 8055,
      "wɔkura": 8056,
      "napa": 8057,
      "yɛbanyia": 8058,
      "wɔali": 8059,
      "wɔahyehyɛ": 8060,
      "line": 8061,
      "minnye": 8062,
      "videos": 8063,
      "wunhu": 8064,
      "owa": 8065,
      "##dekai": 8066,
      "nico": 8067,
      "##urce": 8068,
      "kɔeɛ": 8069,
      "pɛsɛm": 8070,
      "essay": 8071,
      "ɔfasu": 8072,
      "medwene": 8073,
      "english": 8074,
      "##kyina": 8075,
      "anne": 8076,
      "##ɛmɛ": 8077,
      "yɛbɛfa": 8078,
      "gyinabea": 8079,
      "ebefi": 8080,
      "mario": 8081,
      "tweeted": 8082,
      "plans": 8083,
      "pɛsɛmenko": 8084,
      "93": 8085,
      "eso": 8086,
      "##sene": 8087,
      "bɛde": 8088,
      "bɛvale": 8089,
      "sit": 8090,
      "nsɛmpa": 8091,
      "ngue": 8092,
      "##nnaa": 8093,
      "##kanyan": 8094,
      "##dulɛ": 8095,
      "ɔkyeree": 8096,
      "merennyaw": 8097,
      "buale": 8098,
      "nsɔwano": 8099,
      "89": 8100,
      "88": 8101,
      "jam": 8102,
      "##enkanee": 8103,
      "temmufo": 8104,
      "mann": 8105,
      "pea": 8106,
      "jaan": 8107,
      "abebu": 8108,
      "wɔkyerɛkyerɛ": 8109,
      "fall": 8110,
      "ɔnhwɛ": 8111,
      "yɛahunu": 8112,
      "kyekyere": 8113,
      "mepɛsɛ": 8114,
      "stri": 8115,
      "##hinhim": 8116,
      "louis": 8117,
      "nkɔnsɔnkɔnsɔn": 8118,
      "egyee": 8119,
      "oe": 8120,
      "##gyɛ": 8121,
      "##pra": 8122,
      "wulom": 8123,
      "miche": 8124,
      "##risie": 8125,
      "abimelek": 8126,
      "network": 8127,
      "burodo": 8128,
      "nkuruwa": 8129,
      "sukyerɛmma": 8130,
      "8me": 8131,
      "oman": 8132,
      "pene": 8133,
      "##24": 8134,
      "##ova": 8135,
      "##rable": 8136,
      "kate": 8137,
      "rebel": 8138,
      "fear": 8139,
      "forget": 8140,
      "wɔbɛbɔ": 8141,
      "moagye": 8142,
      "nwini": 8143,
      "syd": 8144,
      "magazine": 8145,
      "isa": 8146,
      "metaa": 8147,
      "mata": 8148,
      "dec": 8149,
      "##toma": 8150,
      "wubu": 8151,
      "wakyerɛ": 8152,
      "sista": 8153,
      "tiro": 8154,
      "sukuufo": 8155,
      "wɔtena": 8156,
      "wosiee": 8157,
      "##rey": 8158,
      "max": 8159,
      "mafrɛ": 8160,
      "hat": 8161,
      "meresoma": 8162,
      "ahendzi": 8163,
      "gay": 8164,
      "key": 8165,
      "annyɛ": 8166,
      "green": 8167,
      "aduɔwɔtwe": 8168,
      "atiridii": 8169,
      "abeawa": 8170,
      "pdf": 8171,
      "74": 8172,
      "##dden": 8173,
      "wosu": 8174,
      "wohyɛɛ": 8175,
      "wɔnhunu": 8176,
      "wasua": 8177,
      "limoa": 8178,
      "##sanoma": 8179,
      "##lieve": 8180,
      "konle": 8181,
      "iru": 8182,
      "ss": 8183,
      "uso": 8184,
      "##asua": 8185,
      "##wuamra": 8186,
      "nnue": 8187,
      "tetew": 8188,
      "##takyi": 8189,
      "ɔbae": 8190,
      "tumidi": 8191,
      "yɛali": 8192,
      "##mmerɛw": 8193,
      "##barimanom": 8194,
      "2ɔ": 8195,
      "2x": 8196,
      "dzin": 8197,
      "##odi": 8198,
      "nnɔɔso": 8199,
      "kis": 8200,
      "nuabarimanom": 8201,
      "akyene": 8202,
      "class": 8203,
      "m4": 8204,
      "##mada": 8205,
      "bib": 8206,
      "adje": 8207,
      "kaw": 8208,
      "##wani": 8209,
      "ɔmaanle": 8210,
      "nkyɛmu": 8211,
      "1987": 8212,
      "nzɔne": 8213,
      "posted": 8214,
      "hesekia": 8215,
      "##abraham": 8216,
      "remix": 8217,
      "oli": 8218,
      "odu": 8219,
      "yɛeɛ": 8220,
      "##serew": 8221,
      "beh": 8222,
      "nsateaa": 8223,
      "ɔmansin": 8224,
      "anɔkwa": 8225,
      "adwumayɛbea": 8226,
      "gɔd": 8227,
      "adinkra": 8228,
      "gbe": 8229,
      "##wammaa": 8230,
      "reko": 8231,
      "baaba": 8232,
      "bus": 8233,
      "meyɛe": 8234,
      "awak": 8235,
      "abansoro": 8236,
      "##tofotofo": 8237,
      "akyem": 8238,
      "fair": 8239,
      "nkyekyɛmu": 8240,
      "azi": 8241,
      "lumua": 8242,
      "pc": 8243,
      "rene": 8244,
      "ɛɛ": 8245,
      "##ufo": 8246,
      "##yy": 8247,
      "betu": 8248,
      "##woho": 8249,
      "adewumi": 8250,
      "ɔbadwemma": 8251,
      "##tenenee": 8252,
      "awaregyae": 8253,
      "ɔteɛɛm": 8254,
      "##briel": 8255,
      "ɔhilele": 8256,
      "nebukad": 8257,
      "biz": 8258,
      "yeee": 8259,
      "##fare": 8260,
      "##tuma": 8261,
      "yaree": 8262,
      "gufo": 8263,
      "andro": 8264,
      "ayile": 8265,
      "fans": 8266,
      "jiova": 8267,
      "akwansrafo": 8268,
      "trou": 8269,
      "##3n": 8270,
      "angu": 8271,
      "ɔkwampaefo": 8272,
      "yuri": 8273,
      "ahurisie": 8274,
      "##puee": 8275,
      "boroo": 8276,
      "enyigye": 8277,
      "firm": 8278,
      "obiako": 8279,
      "##minya": 8280,
      "knife": 8281,
      "abɛɛfo": 8282,
      "nkɛntɛnso": 8283,
      "apueeɛ": 8284,
      "tara": 8285,
      "wum": 8286,
      "##dwane": 8287,
      "##yire": 8288,
      "yɛnka": 8289,
      "enum": 8290,
      "gyemise": 8291,
      "akae": 8292,
      "bonsu": 8293,
      "very": 8294,
      "ciara": 8295,
      "mikael": 8296,
      "ɛhɛe": 8297,
      "ɔm": 8298,
      "source": 8299,
      "asaa": 8300,
      "wɔnyaa": 8301,
      "##baka": 8302,
      "mensou": 8303,
      "high": 8304,
      "thing": 8305,
      "korne": 8306,
      "mordekai": 8307,
      "kaesarea": 8308,
      "tɛnla": 8309,
      "ɔten": 8310,
      "betwa": 8311,
      "weather": 8312,
      "asɛmti": 8313,
      "rebisabisa": 8314,
      "nijuu": 8315,
      "kristie": 8316,
      "merebɔ": 8317,
      "cover": 8318,
      "##kwati": 8319,
      "election": 8320,
      "sukulu": 8321,
      "dwinnwen": 8322,
      "link": 8323,
      "shu": 8324,
      "ua": 8325,
      "wofiri": 8326,
      "##rest": 8327,
      "anam": 8328,
      "mugen": 8329,
      "ahow": 8330,
      "##bul": 8331,
      "merema": 8332,
      "bisabisaa": 8333,
      "okomfo": 8334,
      "misete": 8335,
      "mbusua": 8336,
      "afifide": 8337,
      "osiandɛ": 8338,
      "efo": 8339,
      "ɔtew": 8340,
      "wɔsrɛɛ": 8341,
      "bɛfiri": 8342,
      "obisa": 8343,
      "mpue": 8344,
      "manoa": 8345,
      "bɛnwu": 8346,
      "asomfoɔ": 8347,
      "akɔsi": 8348,
      "aguadi": 8349,
      "kɛnlɛma": 8350,
      "abosonsomfo": 8351,
      "russia": 8352,
      "asomugha": 8353,
      "sla": 8354,
      "##tm": 8355,
      "woye": 8356,
      "totɔ": 8357,
      "ademude": 8358,
      "ngile": 8359,
      "moaka": 8360,
      "fanwodi": 8361,
      "hinta": 8362,
      "2na": 8363,
      "##99": 8364,
      "##jh": 8365,
      "wɔsɛɛ": 8366,
      "yɛzuzu": 8367,
      "##mmrɛ": 8368,
      "bɛwu": 8369,
      "mentee": 8370,
      "aduaba": 8371,
      "1950": 8372,
      "kornelio": 8373,
      "ɔtare": 8374,
      "ɛkeka": 8375,
      "wɔnnim": 8376,
      "##sɛnea": 8377,
      "mmaran": 8378,
      "nig": 8379,
      "kɔfa": 8380,
      "nkɔtɔ": 8381,
      "minhuu": 8382,
      "morekɔ": 8383,
      "jones": 8384,
      "moade": 8385,
      "fees": 8386,
      "ɛlɛka": 8387,
      "summa": 8388,
      "aniberesɛm": 8389,
      "agɔnwolɛ": 8390,
      "adewuyi": 8391,
      "tree": 8392,
      "ɛp": 8393,
      "##twie": 8394,
      "wɔamaa": 8395,
      "wuwu": 8396,
      "amfiri": 8397,
      "bɔe": 8398,
      "##tupa": 8399,
      "akora": 8400,
      "poti": 8401,
      "often": 8402,
      "kyenee": 8403,
      "24na": 8404,
      "atemmufo": 8405,
      "mmmmmmmmmmmmmmmmmmm": 8406,
      "awɔwbere": 8407,
      "14otum": 8408,
      "82": 8409,
      "87": 8410,
      "cee": 8411,
      "yeduu": 8412,
      "beyon": 8413,
      "mada": 8414,
      "mens": 8415,
      "yay": 8416,
      "obewu": 8417,
      "awwwwwww": 8418,
      "nkɔmmɔbɔ": 8419,
      "yow": 8420,
      "##bɔn": 8421,
      "nono": 8422,
      "ash": 8423,
      "ampene": 8424,
      "gyamena": 8425,
      "those": 8426,
      "ɔwofo": 8427,
      "pɛsɛmenkominya": 8428,
      "5wo": 8429,
      "xx": 8430,
      "##50": 8431,
      "wɔmmɛ": 8432,
      "dating": 8433,
      "wɔayera": 8434,
      "asuasua": 8435,
      "kyew": 8436,
      "prof": 8437,
      "odzi": 8438,
      "commit": 8439,
      "bout": 8440,
      "over": 8441,
      "yara": 8442,
      "ɛyaw": 8443,
      "yeon": 8444,
      "baat": 8445,
      "worship": 8446,
      "##bles": 8447,
      "##tinfo": 8448,
      "w8cjg": 8449,
      "w8cjq": 8450,
      "ahiade": 8451,
      "study": 8452,
      "kitchen": 8453,
      "munya": 8454,
      "karu": 8455,
      "bay": 8456,
      "bagu": 8457,
      "retu": 8458,
      "ennye": 8459,
      "banbɔ": 8460,
      "sukuupɔn": 8461,
      "mmmmh": 8462,
      "nwura": 8463,
      "nkuropɔn": 8464,
      "cia": 8465,
      "##tiw": 8466,
      "kakye": 8467,
      "rela": 8468,
      "mɛlɛ": 8469,
      "mmeb": 8470,
      "tare": 8471,
      "atim": 8472,
      "hotels": 8473,
      "tɔnn": 8474,
      "artist": 8475,
      "brooklyn": 8476,
      "nba": 8477,
      "##nice": 8478,
      "##titiriw": 8479,
      "behyia": 8480,
      "yɛnnim": 8481,
      "hall": 8482,
      "yama": 8483,
      "mompɛ": 8484,
      "kɔɔto": 8485,
      "ahyɛlɛ": 8486,
      "yɛanwu": 8487,
      "gara": 8488,
      "##tch": 8489,
      "metwe": 8490,
      "hop": 8491,
      "yeraw": 8492,
      "##wɛnee": 8493,
      "ahtee": 8494,
      "haba": 8495,
      "aayi": 8496,
      "fiefoɔ": 8497,
      "ɔresan": 8498,
      "amonfo": 8499,
      "mrenya": 8500,
      "ahyɛlɛdeɛ": 8501,
      "choo": 8502,
      "item": 8503,
      "ɔdua": 8504,
      "##via": 8505,
      "mesu": 8506,
      "asum": 8507,
      "##mmɛn": 8508,
      "masua": 8509,
      "ɛnni": 8510,
      "##nade": 8511,
      "afeto": 8512,
      "adesrɛ": 8513,
      "##pedia": 8514,
      "lift": 8515,
      "israelman": 8516,
      "13enti": 8517,
      "ɛfɛ": 8518,
      "##dome": 8519,
      "medze": 8520,
      "asenn": 8521,
      "nkyia": 8522,
      "##ɛnlɛma": 8523,
      "badu": 8524,
      "wanyin": 8525,
      "wɔante": 8526,
      "ɛremma": 8527,
      "dɔnhwer": 8528,
      "nneduafo": 8529,
      "asennua": 8530,
      "iron": 8531,
      "##mase": 8532,
      "bɛbu": 8533,
      "akram": 8534,
      "yar": 8535,
      "119": 8536,
      "hannah": 8537,
      "elder": 8538,
      "cream": 8539,
      "dv": 8540,
      "wumi": 8541,
      "ɔware": 8542,
      "##spe": 8543,
      "beduu": 8544,
      "bɛbom": 8545,
      "nisuo": 8546,
      "mɛtwe": 8547,
      "aduhuam": 8548,
      "17na": 8549,
      "rosa": 8550,
      "ɔrehwɛ": 8551,
      "wobefi": 8552,
      "obuu": 8553,
      "dwuuma": 8554,
      "ransomware": 8555,
      "azu": 8556,
      "##asa": 8557,
      "##db": 8558,
      "nou": 8559,
      "mehunuu": 8560,
      "##fata": 8561,
      "rehwɛ": 8562,
      "sayin": 8563,
      "doro": 8564,
      "edii": 8565,
      "munnni": 8566,
      "osebo": 8567,
      "merensɛe": 8568,
      "teaseɛnam": 8569,
      "ɔkwasea": 8570,
      "##mfe": 8571,
      "##twin": 8572,
      "##bou": 8573,
      "maha": 8574,
      "ons": 8575,
      "pop": 8576,
      "mina": 8577,
      "aaj": 8578,
      "moatumi": 8579,
      "ekyii": 8580,
      "ndwompa": 8581,
      "7ɔ": 8582,
      "imi": 8583,
      "nao": 8584,
      "yɛtɛ": 8585,
      "sesɛɛ": 8586,
      "tower": 8587,
      "##rence": 8588,
      "15nanso": 8589,
      "##rantee": 8590,
      "aboah": 8591,
      "akunafo": 8592,
      "susume": 8593,
      "odasefoi": 8594,
      "##nda": 8595,
      "##buru": 8596,
      "wang": 8597,
      "wonam": 8598,
      "monam": 8599,
      "mɛte": 8600,
      "liv": 8601,
      "poem": 8602,
      "victo": 8603,
      "obekum": 8604,
      "blame": 8605,
      "limited": 8606,
      "##ir": 8607,
      "##itan": 8608,
      "wɔfee": 8609,
      "solu": 8610,
      "bɛz": 8611,
      "yɛnlea": 8612,
      "takyi": 8613,
      "gabriel": 8614,
      "yɛbɛda": 8615,
      "alfred": 8616,
      "1983": 8617,
      "mgba": 8618,
      "mmmmmmmmmmmmmmmmmm": 8619,
      "zoova": 8620,
      "etia": 8621,
      "##ama": 8622,
      "wɔhuu": 8623,
      "wobuaa": 8624,
      "mobi": 8625,
      "yesi": 8626,
      "##sasar": 8627,
      "##pal": 8628,
      "bazi": 8629,
      "11afei": 8630,
      "ralɛ": 8631,
      "luther": 8632,
      "nsfw": 8633,
      "enyim": 8634,
      "nyoro": 8635,
      "##mgbole": 8636,
      "emfi": 8637,
      "ɔmmra": 8638,
      "wɔyare": 8639,
      "##enen": 8640,
      "enyin": 8641,
      "##kuma": 8642,
      "ntua": 8643,
      "tuto": 8644,
      "gas": 8645,
      "gaana": 8646,
      "anɔpahema": 8647,
      "merennya": 8648,
      "##deed": 8649,
      "ɔdom": 8650,
      "kind": 8651,
      "watase": 8652,
      "yɛtwe": 8653,
      "##kase": 8654,
      "kaba": 8655,
      "adehilelɛ": 8656,
      "ɔnwu": 8657,
      "ɔbaboa": 8658,
      "wobɛpɛ": 8659,
      "wɔredi": 8660,
      "useful": 8661,
      "project": 8662,
      "diema": 8663,
      "brother": 8664,
      "previous": 8665,
      "nkotodwe": 8666,
      "museum": 8667,
      "myit": 8668,
      "ntoo": 8669,
      "ox": 8670,
      "meso": 8671,
      "asetsena": 8672,
      "asetɛnla": 8673,
      "lile": 8674,
      "nkoroo": 8675,
      "talk": 8676,
      "adannan": 8677,
      "address": 8678,
      "ɛsow": 8679,
      "leave": 8680,
      "wɔpaw": 8681,
      "mohwehwɛ": 8682,
      "##rine": 8683,
      "nnnn": 8684,
      "nnuru": 8685,
      "wake": 8686,
      "baaa": 8687,
      "menyaa": 8688,
      "lim": 8689,
      "abodwo": 8690,
      "amannɔ": 8691,
      "##gail": 8692,
      "akwannya": 8693,
      "osuboni": 8694,
      "portu": 8695,
      "playin": 8696,
      "ahyew": 8697,
      "amannɔne": 8698,
      "odwo": 8699,
      "ɔtumi": 8700,
      "wɔmmu": 8701,
      "mature": 8702,
      "obisae": 8703,
      "enter": 8704,
      "adeda": 8705,
      "wɔbɛhyɛ": 8706,
      "wɔbɛtaa": 8707,
      "hibi": 8708,
      "##mmere": 8709,
      "waaa": 8710,
      "wunnya": 8711,
      "km": 8712,
      "##kiel": 8713,
      "##oni": 8714,
      "akete": 8715,
      "ahotupa": 8716,
      "mende": 8717,
      "yak": 8718,
      "theme": 8719,
      "nnae": 8720,
      "abigail": 8721,
      "dansu": 8722,
      "##kisede": 8723,
      "okon": 8724,
      "melkisede": 8725,
      "potifar": 8726,
      "melkisedek": 8727,
      "ewo": 8728,
      "ifo": 8729,
      "nsii": 8730,
      "went": 8731,
      "##io": 8732,
      "##dou": 8733,
      "monim": 8734,
      "##kara": 8735,
      "##amo": 8736,
      "##tiri": 8737,
      "##dit": 8738,
      "ɛnka": 8739,
      "##gyefo": 8740,
      "fea": 8741,
      "ɛbɛka": 8742,
      "winner": 8743,
      "konya": 8744,
      "alexan": 8745,
      "midwinnwen": 8746,
      "ahoɔmmerɛw": 8747,
      "months": 8748,
      "71": 8749,
      "asɛɛ": 8750,
      "bebe": 8751,
      "wɔbɛte": 8752,
      "ɔmanle": 8753,
      "siim": 8754,
      "eliza": 8755,
      "nhwiren": 8756,
      "comfort": 8757,
      "kpaa": 8758,
      "sw": 8759,
      "ɔmɛ": 8760,
      "##ket": 8761,
      "meyer": 8762,
      "##sed": 8763,
      "dele": 8764,
      "siria": 8765,
      "ɔnyianle": 8766,
      "ɔbɛsɔre": 8767,
      "mfon": 8768,
      "egypti": 8769,
      "hyehyɛɛ": 8770,
      "ɔtraa": 8771,
      "funu": 8772,
      "##pre": 8773,
      "yɛkile": 8774,
      "##sor": 8775,
      "wɔnsa": 8776,
      "nkaa": 8777,
      "##lade": 8778,
      "sanofi": 8779,
      "longer": 8780,
      "kenga": 8781,
      "brit": 8782,
      "voto": 8783,
      "swa": 8784,
      "##bl": 8785,
      "wudwen": 8786,
      "fiene": 8787,
      "indeed": 8788,
      "woaware": 8789,
      "rae": 8790,
      "##gai": 8791,
      "adaadaa": 8792,
      "abaayewa": 8793,
      "##kenkanee": 8794,
      "eho": 8795,
      "flow": 8796,
      "gue": 8797,
      "ven": 8798,
      "##anlɛ": 8799,
      "bɛwɔ": 8800,
      "bɛhyehyɛ": 8801,
      "nkwadua": 8802,
      "akono": 8803,
      "19na": 8804,
      "afford": 8805,
      "levi": 8806,
      "wobɛhunu": 8807,
      "nkonimdi": 8808,
      "votes": 8809,
      "ɛvoyia": 8810,
      "keleseɛnema": 8811,
      "##isak": 8812,
      "ansu": 8813,
      "mawo": 8814,
      "kaze": 8815,
      "serɛ": 8816,
      "wudu": 8817,
      "##lale": 8818,
      "##los": 8819,
      "ɔnte": 8820,
      "suis": 8821,
      "kristosom": 8822,
      "ɔbɛtena": 8823,
      "tune": 8824,
      "yɛbɛsan": 8825,
      "ɔtemmufo": 8826,
      "ewiei": 8827,
      "##hyua": 8828,
      "bewafa": 8829,
      "maman": 8830,
      "osa": 8831,
      "mekan": 8832,
      "##resi": 8833,
      "absa": 8834,
      "retur": 8835,
      "kɔfaa": 8836,
      "ɛrebɔ": 8837,
      "amee": 8838,
      "liebe": 8839,
      "##safohene": 8840,
      "nsane": 8841,
      "nseku": 8842,
      "##quare": 8843,
      "kle": 8844,
      "##cent": 8845,
      "wosee": 8846,
      "woamfa": 8847,
      "##tio": 8848,
      "##beba": 8849,
      "##iafa": 8850,
      "bolɛ": 8851,
      "siw": 8852,
      "##neaba": 8853,
      "worth": 8854,
      "mmmmmh": 8855,
      "adani": 8856,
      "boayi": 8857,
      "##nantew": 8858,
      "apaw": 8859,
      "agenda": 8860,
      "aguamammɔ": 8861,
      "vie": 8862,
      "ɔpem": 8863,
      "namo": 8864,
      "##yed": 8865,
      "##sabi": 8866,
      "bees": 8867,
      "mpena": 8868,
      "##wit": 8869,
      "fell": 8870,
      "ɛbɛso": 8871,
      "taw": 8872,
      "tufo": 8873,
      "akɔneaba": 8874,
      "ebeye": 8875,
      "ahaw": 8876,
      "ɛlɛyɛ": 8877,
      "derek": 8878,
      "hie": 8879,
      "##ɛhɔ": 8880,
      "aske": 8881,
      "believe": 8882,
      "bɛyɔ": 8883,
      "daddy": 8884,
      "kɔhwɛ": 8885,
      "lit": 8886,
      "agyata": 8887,
      "ɔbɛsɛe": 8888,
      "banner": 8889,
      "##mmed": 8890,
      "odwammaa": 8891,
      "ahemfie": 8892,
      "kale": 8893,
      "nky": 8894,
      "koguu": 8895,
      "##gyafo": 8896,
      "akɔda": 8897,
      "nyianu": 8898,
      "misraimfo": 8899,
      "##panin": 8900,
      "central": 8901,
      "##konkoma": 8902,
      "dunan": 8903,
      "ronkonkoma": 8904,
      "##bbean": 8905,
      "mmaransɛm": 8906,
      "boayikuw": 8907,
      "eyɛ": 8908,
      "sede": 8909,
      "##ɛnnɛ": 8910,
      "fasu": 8911,
      "##paemu": 8912,
      "nyiile": 8913,
      "ideas": 8914,
      "daselɛlilɛ": 8915,
      "origin": 8916,
      "chow": 8917,
      "ɛsa": 8918,
      "yɛtenaa": 8919,
      "mir": 8920,
      "ntini": 8921,
      "paaa": 8922,
      "ahemada": 8923,
      "guanee": 8924,
      "allah": 8925,
      "munnnye": 8926,
      "yɛbazukoa": 8927,
      "keteke": 8928,
      "anything": 8929,
      "bbc": 8930,
      "nsɛntitiriw": 8931,
      "shee": 8932,
      "norway": 8933,
      "nnkame": 8934,
      "caribbean": 8935,
      "absalom": 8936,
      "alu": 8937,
      "krɔn": 8938,
      "ɔli": 8939,
      "wɔsɛe": 8940,
      "bien": 8941,
      "suani": 8942,
      "woasi": 8943,
      "wɔanni": 8944,
      "ɛlɛne": 8945,
      "w8cjv": 8946,
      "owusuaa": 8947,
      "anwummerɛ": 8948,
      "memes": 8949,
      "oya": 8950,
      "wokyerɛkyerɛ": 8951,
      "mummedi": 8952,
      "##kama": 8953,
      "abc": 8954,
      "wuw": 8955,
      "amba": 8956,
      "mibe": 8957,
      "monna": 8958,
      "ɔkyɛn": 8959,
      "yubi": 8960,
      "wɔbɛn": 8961,
      "wool": 8962,
      "mettee": 8963,
      "apolo": 8964,
      "cryin": 8965,
      "eyin": 8966,
      "woy": 8967,
      "##ror": 8968,
      "wufoo": 8969,
      "doin": 8970,
      "suzu": 8971,
      "munyi": 8972,
      "nokorɛm": 8973,
      "medwenle": 8974,
      "shame": 8975,
      "ɔhɔle": 8976,
      "ɛhulolɛdeɛ": 8977,
      "blood": 8978,
      "daasebre": 8979,
      "bɛyɔba": 8980,
      "ɛfi": 8981,
      "##nhyia": 8982,
      "##tre": 8983,
      "wowu": 8984,
      "fade": 8985,
      "fail": 8986,
      "salon": 8987,
      "yeni": 8988,
      "herbert": 8989,
      "wamfa": 8990,
      "android": 8991,
      "beyond": 8992,
      "choose": 8993,
      "3n": 8994,
      "8afei": 8995,
      "dane": 8996,
      "iam": 8997,
      "slu": 8998,
      "wn": 8999,
      "woba": 9000,
      "bim": 9001,
      "bɛfi": 9002,
      "yɛnyɛɛ": 9003,
      "mikuru": 9004,
      "pakistan": 9005,
      "aram": 9006,
      "wonnyaa": 9007,
      "akorade": 9008,
      "nsunsu": 9009,
      "mebayɛ": 9010,
      "ɔbodan": 9011,
      "kɛnwu": 9012,
      "ngapezo": 9013,
      "hur": 9014,
      "kpe": 9015,
      "##traa": 9016,
      "wɔkɛ": 9017,
      "##enten": 9018,
      "kodii": 9019,
      "fei": 9020,
      "ahennwa": 9021,
      "aduos": 9022,
      "kyei": 9023,
      "nuabaa": 9024,
      "ismael": 9025,
      "bonus": 9026,
      "nguanhwɛfo": 9027,
      "ahanu": 9028,
      "mercy": 9029,
      "ahiru": 9030,
      "mbofra": 9031,
      "myitkyina": 9032,
      "ahemadakye": 9033,
      "aduosɔn": 9034,
      "gw": 9035,
      "renya": 9036,
      "##ɛle": 9037,
      "bas": 9038,
      "menko": 9039,
      "owudifo": 9040,
      "zoanle": 9041,
      "medicare": 9042,
      "untie": 9043,
      "##kyerɛnneɛ": 9044,
      "wakare": 9045,
      "nimfoman": 9046,
      "adwennwene": 9047,
      "obsession": 9048,
      "dying": 9049,
      "wɔhyehyɛ": 9050,
      "wɔyii": 9051,
      "nara": 9052,
      "howee": 9053,
      "##nifi": 9054,
      "deci": 9055,
      "onnyi": 9056,
      "mikyia": 9057,
      "ree": 9058,
      "ɔnyaa": 9059,
      "##bus": 9060,
      "yadeɛ": 9061,
      "nkɔhwehwɛ": 9062,
      "take": 9063,
      "his": 9064,
      "atipɛn": 9065,
      "obese": 9066,
      "track": 9067,
      "wobue": 9068,
      "bɛanyia": 9069,
      "kwe": 9070,
      "lum": 9071,
      "wɔsɛee": 9072,
      "beta": 9073,
      "seba": 9074,
      "yiri": 9075,
      "saafo": 9076,
      "tabea": 9077,
      "munsiesie": 9078,
      "diiɛ": 9079,
      "25na": 9080,
      "wampɛ": 9081,
      "ɛmo": 9082,
      "wogyaa": 9083,
      "abril": 9084,
      "semi": 9085,
      "##bot": 9086,
      "##kɛlɛ": 9087,
      "poro": 9088,
      "aah": 9089,
      "wobebu": 9090,
      "agora": 9091,
      "jackson": 9092,
      "atenka": 9093,
      "ntoboase": 9094,
      "ida": 9095,
      "ml": 9096,
      "rs": 9097,
      "wc": 9098,
      "##war": 9099,
      "refu": 9100,
      "atanfo": 9101,
      "kaeɛ": 9102,
      "ɛbɛkɔ": 9103,
      "14afei": 9104,
      "minse": 9105,
      "agyeman": 9106,
      "kwae": 9107,
      "nnanna": 9108,
      "##lies": 9109,
      "44na": 9110,
      "ahwere": 9111,
      "canaan": 9112,
      "4a": 9113,
      "nli": 9114,
      "bikin": 9115,
      "monkenkanee": 9116,
      "animdefo": 9117,
      "ɔbenfo": 9118,
      "abusuakuo": 9119,
      "yɛbɛma": 9120,
      "##yareɛ": 9121,
      "contin": 9122,
      "interna": 9123,
      "mmabaawa": 9124,
      "onyankopn": 9125,
      "atetesɛm": 9126,
      "gomora": 9127,
      "jour": 9128,
      "wk": 9129,
      "##23": 9130,
      "##foa": 9131,
      "##toɔ": 9132,
      "##wor": 9133,
      "##dar": 9134,
      "wasi": 9135,
      "ntom": 9136,
      "okyin": 9137,
      "nyae": 9138,
      "trust": 9139,
      "##benyin": 9140,
      "shou": 9141,
      "atwima": 9142,
      "hmm": 9143,
      "ɔpaa": 9144,
      "ange": 9145,
      "##nest": 9146,
      "##hone": 9147,
      "miyii": 9148,
      "wasan": 9149,
      "paano": 9150,
      "baafi": 9151,
      "##boɔ": 9152,
      "montwe": 9153,
      "##hɔlɛ": 9154,
      "##kyɛre": 9155,
      "agole": 9156,
      "state": 9157,
      "nkyekye": 9158,
      "ɛmfata": 9159,
      "victoria": 9160,
      "nuu": 9161,
      "##wtwafo": 9162,
      "##er": 9163,
      "##ɔkaa": 9164,
      "bɛwie": 9165,
      "koni": 9166,
      "michi": 9167,
      "enka": 9168,
      "wɔafi": 9169,
      "akogare": 9170,
      "12na": 9171,
      "yɛato": 9172,
      "lose": 9173,
      "wubehia": 9174,
      "atɔeɛ": 9175,
      "agete": 9176,
      "prayer": 9177,
      "hesekiel": 9178,
      "hemba": 9179,
      "abandonware": 9180,
      "7awurade": 9181,
      "86": 9182,
      "8nanso": 9183,
      "ps": 9184,
      "migu": 9185,
      "wanhu": 9186,
      "sister": 9187,
      "diɛ": 9188,
      "wɔabu": 9189,
      "woawo": 9190,
      "hide": 9191,
      "ɛnnwu": 9192,
      "ɔbɔnefoɔ": 9193,
      "mfomsoɔ": 9194,
      "mmeranteberem": 9195,
      "adwemmɔne": 9196,
      "ebay": 9197,
      "efirisɛ": 9198,
      "dwirii": 9199,
      "pun": 9200,
      "ɔsɛm": 9201,
      "ɔtɛ": 9202,
      "ɛva": 9203,
      "##vɛlɛ": 9204,
      "##anfoɔ": 9205,
      "ona": 9206,
      "wabu": 9207,
      "ahodwiriw": 9208,
      "gift": 9209,
      "nkyere": 9210,
      "apartment": 9211,
      "##ller": 9212,
      "obuae": 9213,
      "nkɔmhyɛni": 9214,
      "define": 9215,
      "ɔzele": 9216,
      "adjei": 9217,
      "4enti": 9218,
      "nq": 9219,
      "ɔsafohene": 9220,
      "##bby": 9221,
      "mefrɛɛ": 9222,
      "woom": 9223,
      "asamoa": 9224,
      "mafi": 9225,
      "ɛnti": 9226,
      "kɛlata": 9227,
      "nane": 9228,
      "##hai": 9229,
      "ahokyere": 9230,
      "adesae": 9231,
      "sadu": 9232,
      "##rui": 9233,
      "honda": 9234,
      "yuro": 9235,
      "donna": 9236,
      "minnya": 9237,
      "mmerɛwyɛ": 9238,
      "mprenpren": 9239,
      "flori": 9240,
      "uw": 9241,
      "##vu": 9242,
      "womaa": 9243,
      "mur": 9244,
      "tech": 9245,
      "hɔfo": 9246,
      "wade": 9247,
      "repu": 9248,
      "##kɔbo": 9249,
      "##tuo": 9250,
      "akokoa": 9251,
      "mereba": 9252,
      "gal": 9253,
      "zowee": 9254,
      "ntakra": 9255,
      "nhwɛsoɔ": 9256,
      "nwt": 9257,
      "adorable": 9258,
      "helafo": 9259,
      "smart": 9260,
      "fienemgbole": 9261,
      "73": 9262,
      "dena": 9263,
      "evo": 9264,
      "nzin": 9265,
      "##mb": 9266,
      "##cc": 9267,
      "memmɛ": 9268,
      "##terɛ": 9269,
      "##wae": 9270,
      "kay": 9271,
      "bɛhyew": 9272,
      "wue": 9273,
      "helen": 9274,
      "ɔnka": 9275,
      "ɔnya": 9276,
      "mannye": 9277,
      "covid": 9278,
      "owner": 9279,
      "##rks": 9280,
      "##fied": 9281,
      "##tɛw": 9282,
      "mobɛsrɛ": 9283,
      "##gile": 9284,
      "akontaabu": 9285,
      "ofori": 9286,
      "ɔsɔfoɔ": 9287,
      "mommoaboa": 9288,
      "jin": 9289,
      "##fuu": 9290,
      "metua": 9291,
      "mewaree": 9292,
      "##yelɛ": 9293,
      "##tina": 9294,
      "beam": 9295,
      "wakum": 9296,
      "wannye": 9297,
      "bobo": 9298,
      "divo": 9299,
      "asasesin": 9300,
      "nkwammo": 9301,
      "wɔbɛkyerɛ": 9302,
      "afon": 9303,
      "ahun": 9304,
      "dumienu": 9305,
      "angome": 9306,
      "batwoman": 9307,
      "nkwammoaa": 9308,
      "mane": 9309,
      "ɔyi": 9310,
      "##ɛi": 9311,
      "anhwe": 9312,
      "wafrɛ": 9313,
      "ɔnva": 9314,
      "watson": 9315,
      "farisini": 9316,
      "final": 9317,
      "lewis": 9318,
      "apaafo": 9319,
      "96": 9320,
      "wodaa": 9321,
      "setie": 9322,
      "##beth": 9323,
      "baw": 9324,
      "kotow": 9325,
      "yabes": 9326,
      "##rty": 9327,
      "ayezaya": 9328,
      "ɔbaatan": 9329,
      "anwunv": 9330,
      "anyunlu": 9331,
      "agyimi": 9332,
      "committee": 9333,
      "anwunvɔne": 9334,
      "1yesu": 9335,
      "2awurade": 9336,
      "ekuw": 9337,
      "qu": 9338,
      "##she": 9339,
      "##rɛla": 9340,
      "yede": 9341,
      "##suzu": 9342,
      "##bien": 9343,
      "deg": 9344,
      "kaiafa": 9345,
      "bɛhwe": 9346,
      "baye": 9347,
      "nsoa": 9348,
      "monsrɛ": 9349,
      "buyer": 9350,
      "daapem": 9351,
      "munli": 9352,
      "ayeforɔ": 9353,
      "yeayɛ": 9354,
      "ofiwura": 9355,
      "yankee": 9356,
      "ɔboafoɔ": 9357,
      "serwaa": 9358,
      "hawaii": 9359,
      "nnebɔneyɛfoɔ": 9360,
      "5saa": 9361,
      "eku": 9362,
      "##mene": 9363,
      "##frɔm": 9364,
      "yɛmpɛ": 9365,
      "wantumi": 9366,
      "saba": 9367,
      "nnepa": 9368,
      "akokɔ": 9369,
      "meremma": 9370,
      "yɛazukoa": 9371,
      "atin": 9372,
      "awofoɔ": 9373,
      "##magedon": 9374,
      "frɔmfrɔm": 9375,
      "sydney": 9376,
      "agolezilɛ": 9377,
      "gbaa": 9378,
      "wooo": 9379,
      "mother": 9380,
      "##tation": 9381,
      "gyedzi": 9382,
      "bang": 9383,
      "asɛnhia": 9384,
      "mmusu": 9385,
      "yaar": 9386,
      "obaanyɛ": 9387,
      "ayeforokunu": 9388,
      "ket": 9389,
      "##bane": 9390,
      "wɔfi": 9391,
      "##ray": 9392,
      "mummisa": 9393,
      "bɛkotow": 9394,
      "nkyi": 9395,
      "##vea": 9396,
      "nkɔdi": 9397,
      "mmɔdenbɔ": 9398,
      "wɔkɔfrɛɛ": 9399,
      "ɔdanee": 9400,
      "mfaa": 9401,
      "yɛnte": 9402,
      "##kel": 9403,
      "knows": 9404,
      "manna": 9405,
      "ɔredi": 9406,
      "mubegye": 9407,
      "nyankopon": 9408,
      "heaven": 9409,
      "81": 9410,
      "oma": 9411,
      "##bunu": 9412,
      "##anka": 9413,
      "series": 9414,
      "yisai": 9415,
      "boɔ": 9416,
      "tick": 9417,
      "led": 9418,
      "ɛlɛkɔ": 9419,
      "mɛkamfo": 9420,
      "ɛkpɔne": 9421,
      "kre": 9422,
      "hodo": 9423,
      "most": 9424,
      "kabii": 9425,
      "mman": 9426,
      "##lalɛ": 9427,
      "wowwee": 9428,
      "abaso": 9429,
      "sanku": 9430,
      "adansedi": 9431,
      "1945": 9432,
      "kingdom": 9433,
      "##kro": 9434,
      "##kua": 9435,
      "woaaa": 9436,
      "##teɛɛ": 9437,
      "beto": 9438,
      "ahora": 9439,
      "cost": 9440,
      "rennye": 9441,
      "##adɛn": 9442,
      "shot": 9443,
      "##kodemo": 9444,
      "3rd": 9445,
      "afuo": 9446,
      "nena": 9447,
      "yeyi": 9448,
      "bɛze": 9449,
      "wɔatie": 9450,
      "wɔatwe": 9451,
      "agyare": 9452,
      "120": 9453,
      "wobebue": 9454,
      "produ": 9455,
      "munnya": 9456,
      "betty": 9457,
      "ahonhon": 9458,
      "nsɛnkyerɛnneɛ": 9459,
      "nyaatwomfo": 9460,
      "ebola": 9461,
      "transla": 9462,
      "atipɛnfo": 9463,
      "nzinlii": 9464,
      "square": 9465,
      "tame": 9466,
      "##33": 9467,
      "metɛ": 9468,
      "##roi": 9469,
      "##pas": 9470,
      "lion": 9471,
      "afofor": 9472,
      "akɔhwehwɛ": 9473,
      "autum": 9474,
      "siesiee": 9475,
      "sarah": 9476,
      "galile": 9477,
      "unusual": 9478,
      "tren": 9479,
      "woana": 9480,
      "balie": 9481,
      "rehyɛ": 9482,
      "affi": 9483,
      "nyansafo": 9484,
      "aoi": 9485,
      "monnhyɛ": 9486,
      "nganeɛdelɛ": 9487,
      "birth": 9488,
      "##riandi": 9489,
      "hungry": 9490,
      "2nd": 9491,
      "5toma": 9492,
      "pw": 9493,
      "##jam": 9494,
      "woronko": 9495,
      "mara": 9496,
      "master": 9497,
      "kakɛ": 9498,
      "bataa": 9499,
      "##mmmmmm": 9500,
      "dɛnlanle": 9501,
      "##ront": 9502,
      "gyefo": 9503,
      "huhu": 9504,
      "hand": 9505,
      "siee": 9506,
      "ahannum": 9507,
      "tradu": 9508,
      "wimhyɛn": 9509,
      "mmɛhwɛ": 9510,
      "1941": 9511,
      "dwarf": 9512,
      "rahab": 9513,
      "lame": 9514,
      "mh": 9515,
      "mbaa": 9516,
      "yep": 9517,
      "serene": 9518,
      "wetin": 9519,
      "label": 9520,
      "ntw": 9521,
[...]
